{"<s>":0,"<pad>":1,"</s>":2,"<unk>":3,"<mask>":4,"!":5,"\"":6,"#":7,"$":8,"%":9,"&":10,"'":11,"(":12,")":13,"*":14,"+":15,",":16,"-":17,".":18,"/":19,"0":20,"1":21,"2":22,"3":23,"4":24,"5":25,"6":26,"7":27,"8":28,"9":29,":":30,";":31,"<":32,"=":33,">":34,"?":35,"@":36,"A":37,"B":38,"C":39,"D":40,"E":41,"F":42,"G":43,"H":44,"I":45,"J":46,"K":47,"L":48,"M":49,"N":50,"O":51,"P":52,"Q":53,"R":54,"S":55,"T":56,"U":57,"V":58,"W":59,"X":60,"Y":61,"Z":62,"[":63,"\\":64,"]":65,"^":66,"_":67,"`":68,"a":69,"b":70,"c":71,"d":72,"e":73,"f":74,"g":75,"h":76,"i":77,"j":78,"k":79,"l":80,"m":81,"n":82,"o":83,"p":84,"q":85,"r":86,"s":87,"t":88,"u":89,"v":90,"w":91,"x":92,"y":93,"z":94,"{":95,"|":96,"}":97,"~":98,"¡":99,"¢":100,"£":101,"¤":102,"¥":103,"¦":104,"§":105,"¨":106,"©":107,"ª":108,"«":109,"¬":110,"®":111,"¯":112,"°":113,"±":114,"²":115,"³":116,"´":117,"µ":118,"¶":119,"·":120,"¸":121,"¹":122,"º":123,"»":124,"¼":125,"½":126,"¾":127,"¿":128,"À":129,"Á":130,"Â":131,"Ã":132,"Ä":133,"Å":134,"Æ":135,"Ç":136,"È":137,"É":138,"Ê":139,"Ë":140,"Ì":141,"Í":142,"Î":143,"Ï":144,"Ð":145,"Ñ":146,"Ò":147,"Ó":148,"Ô":149,"Õ":150,"Ö":151,"×":152,"Ø":153,"Ù":154,"Ú":155,"Û":156,"Ü":157,"Ý":158,"Þ":159,"ß":160,"à":161,"á":162,"â":163,"ã":164,"ä":165,"å":166,"æ":167,"ç":168,"è":169,"é":170,"ê":171,"ë":172,"ì":173,"í":174,"î":175,"ï":176,"ð":177,"ñ":178,"ò":179,"ó":180,"ô":181,"õ":182,"ö":183,"÷":184,"ø":185,"ù":186,"ú":187,"û":188,"ü":189,"ý":190,"þ":191,"ÿ":192,"Ā":193,"ā":194,"Ă":195,"ă":196,"Ą":197,"ą":198,"Ć":199,"ć":200,"Ĉ":201,"ĉ":202,"Ċ":203,"ċ":204,"Č":205,"č":206,"Ď":207,"ď":208,"Đ":209,"đ":210,"Ē":211,"ē":212,"Ĕ":213,"ĕ":214,"Ė":215,"ė":216,"Ę":217,"ę":218,"Ě":219,"ě":220,"Ĝ":221,"ĝ":222,"Ğ":223,"ğ":224,"Ġ":225,"ġ":226,"Ģ":227,"ģ":228,"Ĥ":229,"ĥ":230,"Ħ":231,"ħ":232,"Ĩ":233,"ĩ":234,"Ī":235,"ī":236,"Ĭ":237,"ĭ":238,"Į":239,"į":240,"İ":241,"ı":242,"Ĳ":243,"ĳ":244,"Ĵ":245,"ĵ":246,"Ķ":247,"ķ":248,"ĸ":249,"Ĺ":250,"ĺ":251,"Ļ":252,"ļ":253,"Ľ":254,"ľ":255,"Ŀ":256,"ŀ":257,"Ł":258,"ł":259,"Ń":260,"čĊ":261,"Ġt":262,"he":263,"Ġa":264,"âĢ":265,"in":266,"Ġthe":267,"re":268,"Ġw":269,"Ġs":270,"ou":271,"Ġo":272,"ha":273,"is":274,"nd":275,"er":276,"ed":277,"Ġm":278,"en":279,"on":280,"âĢľ":281,"âĢĿ":282,"it":283,"or":284,"Ġb":285,"Ġf":286,"Ġc":287,"Ġto":288,"ll":289,"an":290,"Ġd":291,"Ġof":292,"ing":293,"ar":294,"Ġh":295,"es":296,"Ġp":297,"Ġand":298,"Ġy":299,"as":300,"Ġhe":301,"Ġyou":302,"Ġha":303,"Ġin":304,"at":305,"Ġn":306,"Ġl":307,"om":308,"hat":309,"ĠI":310,"ot":311,"ve":312,"id":313,"se":314,"ic":315,"im":316,"Ġre":317,"le":318,"Ġe":319,"st":320,"ent":321,"Ġbe":322,".âĢĿ":323,"ow":324,"Ġwh":325,"Ġsa":326,"Ġg":327,"Ġhis":328,"ly":329,"ce":330,"Ġth":331,"ut":332,"Ġon":333,"ld":334,"Ġthat":335,"ad":336,"ill":337,"ith":338,"ion":339,"ĠM":340,"al":341,"Ġwas":342,"ir":343,"gh":344,"Ġwith":345,"Ġnot":346,"Ġas":347,",âĢĿ":348,"Ġit":349,"Ġfor":350,"ri":351,"ĠâĢľ":352,"Ġis":353,"ver":354,"ro":355,"ay":356,"Ġme":357,"?âĢĿ":358,"Ġsaid":359,"Ġu":360,"et":361,"ur":362,"âĢĻ":363,"Ġhad":364,"red":365,"Ġat":366,"ct":367,"te":368,"Ġmy":369,"Ġde":370,"Ġan":371,"ght":372,"her":373,"to":374,"The":375,"Ġhave":376,"Ġhim":377,"ĠC":378,"ain":379,"am":380,"ich":381,"and":382,"Ġse":383,"Ġwe":384,"âĢĶ":385,"ter":386,"li":387,"nt":388,"ould":389,"if":390,"pe":391,"ch":392,"Ġwhich":393,"ess":394,"ĠA":395,"Ġdo":396,"ke":397,"Ġst":398,"ort":399,"ant":400,"ount":401,"Ġwho":402,"ra":403,"ĠĠ":404,"Ġso":405,"Ġyour":406,"Ġex":407,"res":408,"the":409,"rom":410,"ran":411,"Ġbut":412,"il":413,"Ġthis":414,"Ġcon":415,"Ġby":416,"qu":417,"Ġsu":418,"Ġher":419,"all":420,"ore":421,"ef":422,"Ġk":423,"ĠD":424,"ous":425,"th":426,"ell":427,"Ġwill":428,"ge":429,"ard":430,"our":431,"ome":432,"oo":433,"ble":434,"lf":435,"pp":436,"ris":437,"ac":438,"Ġman":439,"out":440,"au":441,"Ġor":442,"Ġall":443,"ĠV":444,"ert":445,"ame":446,"Ġfrom":447,"Ġare":448,"os":449,"ul":450,"ĠThe":451,"Ġli":452,"Ġv":453,"one":454,"ars":455,"Ġcount":456,"ust":457,"ation":458,"self":459,"em":460,"ers":461,"ist":462,"est":463,"ĠB":464,"Ġal":465,"ast":466,"Ġkn":467,"Ġsh":468,"un":469,"us":470,"Ġwhe":471,"ine":472,"Ġone":473,"Ã©":474,"ĠF":475,"ap":476,"urn":477,"Ġno":478,"very":479,"ak":480,"ind":481,"art":482,"Ġne":483,"onte":484,"ĠH":485,"Ġthen":486,"gl":487,"Ġwere":488,"Ġshe":489,"ate":490,"ost":491,"ive":492,"ig":493,"ven":494,"risto":495,"ound":496,"ked":497,"han":498,"Ġam":499,"hed":500,"ved":501,"cc":502,"ight":503,"Ġwould":504,"!âĢĿ":505,"illef":506,"illefort":507,"el":508,"ect":509,"Ġrep":510,"ĠCristo":511,"ond":512,"ure":513,"um":514,"Ã¨":515,"Ġknow":516,"Ġwhat":517,"ass":518,"Ġthey":519,"ĠS":520,"ĠP":521,"ĠMor":522,"Ġbeen":523,"Ġif":524,"ĠĠĠĠ":525,"Ã¨s":526,"Ġup":527,"Ġar":528,"Ġpro":529,"ather":530,"ĠMonte":531,"ity":532,"ish":533,"Ġhas":534,"ord":535,"ong":536,"Ġcom":537,"Ġle":538,"Ġj":539,"Ġr":540,"ff":541,"Ġab":542,"ol":543,"ng":544,"ie":545,"ck":546,"angl":547,"Ġtw":548,"anglars":549,"ĠVillefort":550,"ake":551,"ice":552,"me":553,"Ġfe":554,"No":555,"rel":556,"ime":557,"Ġwhen":558,"bert":559,"ered":560,"Ġmad":561,"Ġsee":562,"ated":563,"ence":564,"ough":565,"la":566,"Ġag":567,"ance":568,"You":569,"âĢĺ":570,"Ġthem":571,"Ġhand":572,"able":573,"ose":574,"ag":575,"Ġad":576,"ress":577,"Ġro":578,"Ġgo":579,"ĠE":580,"Ġsha":581,"ru":582,"other":583,"ire":584,"Yes":585,"lied":586,"pt":587,"ree":588,"lbert":589,"Ġthere":590,"Ġmore":591,"ĠDanglars":592,"Ġus":593,"Ġun":594,"Ġyoung":595,"Ġany":596,"ile":597,"ood":598,"end":599,"Ġret":600,"erf":601,"ought":602,"antÃ¨s":603,"ĠT":604,"Ġcan":605,"Ġreplied":606,"ving":607,"Ġonly":608,"ther":609,"ment":610,"de":611,"you":612,"Ġim":613,"ite":614,"age":615,"And":616,"00":617,"nder":618,"lo":619,"Ġthan":620,"Ġdis":621,"ps":622,"ry":623,"Ġqu":624,"Ġsay":625,"Ġtwo":626,"Ġloo":627,"ĠHe":628,"entine":629,"Ġsp":630,"Ġsome":631,"ide":632,"Ġlike":633,"ign":634,"Ġtime":635,"Ġdid":636,"ward":637,"reat":638,"of":639,"ĠMorrel":640,"are":641,"Ġshould":642,"Ġrem":643,"ally":644,"ĠAlbert":645,"ci":646,"fore":647,"Ġtheir":648,"hing":649,"alentine":650,"Ġcont":651,"Ġinto":652,"his":653,"that":654,"own":655,"ĠL":656,"ened":657,"Ġey":658,"Ġsm":659,"Ġpo":660,"Ġday":661,"od":662,"ĠW":663,"Ġout":664,"itt":665,"ĠG":666,"ĠMad":667,"Ġfather":668,"Ġhimself":669,"urned":670,"ried":671,"Ġgr":672,"ave":673,"Ġap":674,"Ġvery":675,"ĠDantÃ¨s":676,"av":677,"Ġdes":678,"ĠFran":679,"fter":680,"we":681,"Ġcould":682,"Ġtoo":683,"ink":684,"co":685,"man":686,"ary":687,"wh":688,"ons":689,"oss":690,"per":691,"Ġen":692,"Ġother":693,"Ġpre":694,"Ġfri":695,"Ġent":696,"ouse":697,"Ġfir":698,"Ġpl":699,"Oh":700,"ions":701,"ach":702,"Ġbr":703,"ced":704,"Ġnow":705,"Ġmade":706,"ness":707,"ab":708,"Ġmust":709,"Ġdoor":710,"ier":711,"ĠR":712,"ath":713,"Ġagain":714,"op":715,"ife":716,"pect":717,"uch":718,"Ġacc":719,"ared":720,"Ġshall":721,"way":722,"Ġover":723,"Ġcl":724,"Ġpass":725,"be":726,"Ġsir":727,"Ġunder":728,"not":729,"Ġfo":730,"cha":731,"ĠValentine":732,"pl":733,"Ġop":734,"ber":735,",âĢĶ":736,"air":737,"Ġfriend":738,"Ġlet":739,"Ġres":740,"Ġch":741,"Ġfirst":742,"for":743,"Ġper":744,"ise":745,"ep":746,"ies":747,"ack":748,"ful":749,"Ġword":750,"erous":751,"ious":752,"wn":753,"Ġeven":754,"Ġbefore":755,"ne":756,"Ġeyes":757,"Ġcar":758,"Ġmay":759,"Ġafter":760,"oment":761,"ĠFranz":762,"ied":763,"Ġwor":764,"ove":765,"Ġoff":766,"Ġbec":767,"What":768,"Ġthese":769,"Ġhouse":770,"ors":771,"ull":772,"Well":773,"Ġser":774,"aint":775,"med":776,"ud":777,"ue":778,"Ġexc":779,"Ġbl":780,"ĠIt":781,"Ġpres":782,"ĠMadame":783,"Ġevery":784,"Ġlong":785,"Ġasked":786,"ret":787,"Ġappe":788,"ible":789,"ĠĠĠĠĠĠĠĠ":790,"Ġthink":791,"Ġpr":792,"Ġupon":793,"Ġsame":794,"Ġmoment":795,"Ġthr":796,"Ġmuch":797,"irt":798,"ĠAnd":799,"But":800,"wards":801,"Ġour":802,"Ġwithout":803,"ained":804,"Ġass":805,"Ġseem":806,"Ġspe":807,"Ġob":808,"Ġold":809,"Ġra":810,"ase":811,"ince":812,"aderous":813,"lie":814,"aderousse":815,"Ġsuch":816,"owed":817,"Ġabout":818,"ĠâĢĺ":819,"Ġtell":820,"Ġhow":821,"Ġwell":822,"led":823,"Ġcha":824,"Ġpers":825,"Ġimp":826,"ired":827,"Ġmar":828,"iz":829,"ild":830,"ily":831,"Ġbet":832,"less":833,"ĠNo":834,"Ġmost":835,"orn":836,"cerf":837,"ian":838,"read":839,"Ġown":840,"ili":841,"king":842,"ple":843,"Ġjust":844,"Ġwhom":845,"ause":846,"It":847,"Ġdear":848,"eft":849,"hy":850,"Ġleft":851,"ks":852,"ves":853,"mp":854,"Ġsc":855,"ait":856,"Ġfa":857,"Ġatt":858,"Ġco":859,"Ġgood":860,"Ġthought":861,"but":862,"Ġnever":863,"Ġsec":864,"He":865,"ged":866,"Ġsaw":867,"with":868,"Ġthree":869,"Ġapp":870,"ix":871,"ings":872,"br":873,"Ġ_":874,"Ġbo":875,"Ġgreat":876,"riage":877,"right":878,"con":879,"Ġwhere":880,"Ġgl":881,"ranc":882,"Ġreturned":883,"ern":884,"Ġmake":885,"Ġinst":886,"light":887,"Ġstill":888,"Ah":889,"so":890,"ished":891,"Ġname":892,"ĠMorcerf":893,"Ġcome":894,"Ġpart":895,"Ġhere":896,"Ġho":897,"une":898,"fe":899,"Ġste":900,"ued":901,"ĠCaderousse":902,"irtier":903,"Ġmight":904,"erc":905,"Ġcried":906,"Ġvis":907,"aking":908,"Ġits":909,"Ġmean":910,"Ġexce":911,"ax":912,"ever":913,"cei":914,"Ġroom":915,"ĠN":916,"ears":917,"ject":918,"bÃ©":919,"Ġhead":920,"ittle":921,"oub":922,"aris":923,"rancs":924,"ertain":925,"Ġtowards":926,"stand":927,"Ġwhile":928,"ĠBut":929,"mb":930,"Ġread":931,"Ġcons":932,"Ġheard":933,"dm":934,"ex":935,"hen":936,".âĢĻ":937,"dmond":938,"ched":939,"hes":940,"âĢľâĢĺ":941,"Ġtake":942,"Ġhapp":943,"lace":944,"Ġord":945,"Ġtook":946,"sw":947,"Ġlast":948,"Ġthose":949,"nded":950,"thing":951,"Ġarm":952,"ty":953,"ren":954,"rea":955,"Ġdown":956,"Ġnothing":957,"Ġsto":958,"Ġlife":959,"cy":960,"ces":961,"tain":962,"Ġgu":963,"int":964,"most":965,"Ġsign":966,"Ġposs":967,"ently":968,"Ġserv":969,"pan":970,"rew":971,"Ġlooked":972,"Ġcontin":973,"Ġwish":974,"Ġcall":975,"Ġhour":976,"Ġend":977,"com":978,"Ġbeg":979,"Ġcr":980,"Ġpa":981,"Ġmyself":982,"Ġexp":983,"gn":984,"ger":985,"ĠYou":986,"Ġfrancs":987,"aken":988,"Ġthrough":989,"Ġfoll":990,"rest":991,"Ġlittle":992,"Ġbeing":993,"Ġfound":994,"Ġvo":995,"Ġadd":996,"eau":997,"Ġhands":998,"up":999,"Ġgive":1000,"oubt":1001,"vent":1002,"ict":1003,"Ġfort":1004,"ilian":1005,"Ġheart":1006,"axim":1007,"Ġaff":1008,"ug":1009,"osed":1010,"Ġseemed":1011,"Ġinte":1012,"aximilian":1013,"ail":1014,"fort":1015,"was":1016,"Ġpe":1017,"cl":1018,"Ġson":1019,"Ġseen":1020,"ois":1021,"sel":1022,"Ġwent":1023,"âĢĶâĢĶ":1024,"ĠO":1025,"ĠParis":1026,"Ġcomm":1027,"ured":1028,"Ġansw":1029,"vid":1030,"Ġsince":1031,"Ã©d":1032,"ia":1033,"Then":1034,"ĠNoirtier":1035,"und":1036,"ited":1037,"ark":1038,"laim":1039,"ew":1040,"Ġlight":1041,"Ġdist":1042,"ercÃ©d":1043,"ercÃ©dÃ¨s":1044,"Ġdra":1045,"aron":1046,"Ġanother":1047,"Ġmother":1048,"Ġpassed":1049,"ĠAndrea":1050,"Ġexcell":1051,",âĢĻ":1052,"Ġway":1053,"Ġfell":1054,"ick":1055,"Ġhaving":1056,"aught":1057,"here":1058,"ition":1059,"Ġdeath":1060,"ceived":1061,"Ġcontinued":1062,"Ġtre":1063,"Ġwords":1064,"Ġbelie":1065,"sed":1066,"Ġple":1067,"Ġmin":1068,"Ġmen":1069,"Ġwat":1070,"let":1071,"Ġalone":1072,"ĠEdmond":1073,"champ":1074,"iness":1075,"omet":1076,"Ġreco":1077,"Ġwr":1078,"ĠCount":1079,"elle":1080,"eauchamp":1081,"do":1082,"ined":1083,"Ġfind":1084,"arn":1085,"Ġwhose":1086,"Ġter":1087,"ener":1088,"ory":1089,"rison":1090,"Ġletter":1091,"Ġright":1092,"Ġke":1093,"ised":1094,"onor":1095,"ways":1096,"âĢĶâĢĶâĢĿ":1097,"ner":1098,"Ġac":1099,"ither":1100,"Ġlo":1101,"Ġperson":1102,"ip":1103,"Ġyet":1104,"Ġsuff":1105,"ately":1106,"Ġleave":1107,"Ġwait":1108,"hap":1109,"ĠabbÃ©":1110,"which":1111,"Ġchild":1112,"ention":1113,"Ġsupp":1114,"Ġadv":1115,"Ġtr":1116,"orr":1117,"ully":1118,"Ġes":1119,"Ġgi":1120,"Ġvoice":1121,"Ġmind":1122,"000":1123,"Ġunderstand":1124,"hapter":1125,"Ġturn":1126,"had":1127,"Ġcap":1128,"Ġpur":1129,"tered":1130,"Ġconf":1131,"pped":1132,"day":1133,"Ġplace":1134,"atter":1135,"ract":1136,"Ġnight":1137,"uring":1138,"Ġcarriage":1139,"Ġyes":1140,"aced":1141,"emois":1142,"ressed":1143,"emoiselle":1144,"oy":1145,"Ġsil":1146,"Ġinqu":1147,"Ġrest":1148,"Ġlook":1149,"ency":1150,"Ġtold":1151,"oman":1152,"Ġreturn":1153,"lock":1154,"ĠJ":1155,"den":1156,"haps":1157,"Ġdoubt":1158,"Ġyears":1159,"Ġhalf":1160,"Ġref":1161,"Ġpoor":1162,"Ġback":1163,"Ġopen":1164,"Ġtra":1165,"alc":1166,"irl":1167,"Ġyourself":1168,"laimed":1169,"ebr":1170,"ĠMaximilian":1171,"Ġpresent":1172,"aut":1173,"Ġcame":1174,"ĠCh":1175,"Ġgoing":1176,"Ġspeak":1177,"Ġind":1178,"ult":1179,"Ġperf":1180,"Ġfeel":1181,"Ġocc":1182,"imes":1183,"elt":1184,"him":1185,"Ġlove":1186,"Ġleast":1187,"Ġentered":1188,"igh":1189,"Ġut":1190,"Ġonce":1191,"ousand":1192,"appe":1193,"aughter":1194,"get":1195,"ser":1196,"Ġ1":1197,"Ġinde":1198,"ating":1199,"Ġalmost":1200,"ached":1201,"io":1202,"Ã¢":1203,"Ġprom":1204,"ebray":1205,"Ġmon":1206,"teau":1207,"Ġquite":1208,"Do":1209,"count":1210,"sh":1211,"what":1212,"Ġaway":1213,"ĠBeauchamp":1214,"les":1215,"Ġmis":1216,"ens":1217,"Ġgirl":1218,"ĠMercÃ©dÃ¨s":1219,"Ġalways":1220,"Ġagainst":1221,"Ġopened":1222,"ual":1223,"Ġwind":1224,"have":1225,"Ġarri":1226,"oun":1227,"ec":1228,"Ġaw":1229,"ute":1230,"Ġexclaimed":1231,"..":1232,"Ġide":1233,"Ġturned":1234,"Ġact":1235,"Ġdi":1236,"vers":1237,"amp":1238,"ween":1239,"Ġworld":1240,"My":1241,"Ġten":1242,"Ġint":1243,"Ġem":1244,"ho":1245,"my":1246,"Ġfour":1247,"Ġdone":1248,"Ġins":1249,"oth":1250,"Ġsoon":1251,"ernand":1252,"Ġbelieve":1253,"act":1254,"Ġstran":1255,"ucc":1256,"ene":1257,"room":1258,"orning":1259,"Ġrequ":1260,"ĠAt":1261,"Ġexcellency":1262,"Ġcour":1263,"Ġinter":1264,"Ġdep":1265,"ĠThen":1266,"ĠĠĠĠĠĠĠĠĠĠĠĠĠĠĠĠ":1267,"Ġvisit":1268,"Ã¢teau":1269,"ures":1270,"Ġbed":1271,"Ġfl":1272,"Ġsub":1273,"ations":1274,"Ġcannot":1275,"ank":1276,"Ġdoes":1277,"Ġsmile":1278,"ready":1279,"ear":1280,"Ġsur":1281,"ows":1282,"undred":1283,"Ġbaron":1284,"Ġfam":1285,"Ġfortune":1286,"Ġeach":1287,"otion":1288,"entle":1289,"Ġindeed":1290,"Mad":1291,"ling":1292,"ister":1293,"Ġmur":1294,"Ġprison":1295,"lect":1296,"At":1297,"aven":1298,"Ġsomet":1299,"Ġchan":1300,"aster":1301,"ides":1302,"owing":1303,"anti":1304,"Ã©e":1305,"Ġpale":1306,"Ġfelt":1307,"Ġappeared":1308,"Ġdead":1309,"du":1310,"Ġfive":1311,"Ġhonor":1312,"Ġpap":1313,"Ġthousand":1314,"ĠDebray":1315,"ĠThis":1316,"fully":1317,"That":1318,"Why":1319,"its":1320,"Ġreally":1321,"Ġgave":1322,"Ġthough":1323,"Ġnew":1324,"val":1325,"Ġtaken":1326,"oud":1327,"Ġfear":1328,"Ġplaced":1329,"Ġalso":1330,"Ġmadame":1331,"ĠGod":1332,"In":1333,"ering":1334,"use":1335,"enty":1336,"Ġform":1337,"rue":1338,"Ġappear":1339,"az":1340,"Ġever":1341,"Ġknew":1342,"ression":1343,"Ġsecond":1344,"Villefort":1345,"men":1346,"pro":1347,"Ġwant":1348,"itu":1349,"llect":1350,"Ġgrand":1351,"avalc":1352,"Ġsmil":1353,"avalcanti":1354,"Ġmorning":1355,"Ġreg":1356,"ertainly":1357,"Ġcare":1358,"arm":1359,"Ġla":1360,"Ġthus":1361,"Ġask":1362,"ieur":1363,"no":1364,"Ġsim":1365,"oney":1366,"onsieur":1367,"Ġservant":1368,"Ġesc":1369,"ead":1370,"Ġsent":1371,"ĠIn":1372,"Ġthing":1373,"ason":1374,"asure":1375,"ade":1376,"Ġalready":1377,"aj":1378,"Ġeff":1379,"this":1380,"Ġappro":1381,"ott":1382,"Ġput":1383,"ĠSaint":1384,"Ġbecause":1385,"ized":1386,"Ġmonth":1387,"How":1388,"clock":1389,"cept":1390,"Ġevening":1391,"Ġbetween":1392,"Ġhope":1393,"ĠChÃ¢teau":1394,"ub":1395,"your":1396,"ertucc":1397,"ertuccio":1398,"mber":1399,"isten":1400,"orrow":1401,"Monte":1402,"cri":1403,"pre":1404,"Ġdif":1405,"Ġhundred":1406,"ower":1407,"ctor":1408,"Ġstre":1409,"Ġremained":1410,"avor":1411,"Ġface":1412,"Ġran":1413,"Ġdie":1414,"aud":1415,"Ġfew":1416,"ib":1417,"now":1418,"Ġset":1419,"Ġext":1420,"Mor":1421,"ken":1422,"Ġhear":1423,"illed":1424,"ĠFernand":1425,"Ġdays":1426,"Ġcond":1427,"vern":1428,"ments":1429,"Ġsmall":1430,"pected":1431,"cum":1432,"sp":1433,"Ġwife":1434,"ents":1435,"Ġstru":1436,"Ġkind":1437,"gu":1438,"will":1439,"Ġmoney":1440,"Ġbre":1441,"Ġuse":1442,"Ġsure":1443,"Ġpoint":1444,"rench":1445,"cess":1446,"Ġwoman":1447,"ery":1448,"Ġpossess":1449,"Ġsix":1450,"ĠCavalcanti":1451,"Ġnear":1452,"Ġorder":1453,"01":1454,"Ġmist":1455,"Ġinf":1456,"ular":1457,"irect":1458,"Ġspo":1459,"Ġperhaps":1460,"land":1461,"Ġbank":1462,"Ġsail":1463,"eneral":1464,"ial":1465,"Ġfall":1466,"Ġduring":1467,"ident":1468,"ĠMademoiselle":1469,"Ġperfect":1470,"bed":1471,"ceed":1472,"alm":1473,"Ġwhole":1474,"who":1475,"Ġsecret":1476,"Ġche":1477,"arse":1478,"Ġhast":1479,"Ġrepe":1480,"though":1481,"ook":1482,"Ġrather":1483,"ably":1484,"Ġdraw":1485,"Ġgiven":1486,"appeared":1487,"Danglars":1488,"Ren":1489,"utes":1490,"ety":1491,"ossible":1492,"Ġlonger":1493,"Ġcalled":1494,"Ġidea":1495,"Ġking":1496,"Ġremain":1497,"Ġbetter":1498,"arge":1499,"vell":1500,"Ġwhy":1501,"Ġgentle":1502,"Ġopp":1503,"Ġdaughter":1504,"esides":1505,"Ġpol":1506,"Ġsum":1507,"ustom":1508,"Ġaround":1509,"_,":1510,"ace":1511,"ased":1512,"itted":1513,"Ġmeans":1514,"xt":1515,"iss":1516,"Ġdark":1517,"Ġbecome":1518,"Ġtal":1519,"rem":1520,"Ġmill":1521,"arce":1522,"Ġhor":1523,"Ġlost":1524,"Ġmany":1525,"Ġanything":1526,"Ġquest":1527,"Renaud":1528,"father":1529,"Ġsle":1530,"Ġfore":1531,"ĠAli":1532,"Ã©n":1533,"selves":1534,"This":1535,"Ġeas":1536,"Ġdel":1537,"Ġprop":1538,"If":1539,"uri":1540,"Ġdoctor":1541,"Ġanswered":1542,"ini":1543,"Ġnat":1544,"ĠFrench":1545,"ople":1546,"ugÃ©n":1547,"Ġsomething":1548,"ugÃ©nie":1549,"Valentine":1550,"Ġdec":1551,"ĠAs":1552,"Ġlips":1553,"ĠPro":1554,"Ġaccom":1555,"Ġfriends":1556,"by":1557,"go":1558,"par":1559,"Ġsound":1560,"Ġside":1561,"rible":1562,"Ġwork":1563,"02":1564,"Ġris":1565,"Ġwort":1566,"Ġwall":1567,"Ġlarge":1568,"ayd":1569,"Ġeye":1570,"ody":1571,"medi":1572,"Ġchar":1573,"Ġinquired":1574,"As":1575,"DantÃ¨s":1576,"cure":1577,"Ġill":1578,"Ġrel":1579,"Ġreason":1580,"Ġgra":1581,"illes":1582,"aydÃ©e":1583,"Albert":1584,"su":1585,"ted":1586,"Ġtone":1587,"Ġair":1588,"Ġboth":1589,"anced":1590,"Ġarms":1591,"arcely":1592,"band":1593,"ron":1594,"Ġmag":1595,"ros":1596,"arden":1597,"Ġadded":1598,"Ġsat":1599,"orm":1600,"Ġpay":1601,"ical":1602,"Ġear":1603,"uth":1604,"Ġraised":1605,"aving":1606,"ying":1607,"Ġfix":1608,"ceal":1609,"ution":1610,"Ġdeep":1611,"ĠBertuccio":1612,"airs":1613,"orses":1614,"To":1615,"ino":1616,"Ġmaster":1617,"Ġmanner":1618,"cket":1619,"Madame":1620,"Av":1621,"Ġtable":1622,"Ġsw":1623,"Ġmatter":1624,"Ġinv":1625,"ates":1626,"ility":1627,"Ġbrought":1628,"Ġinterest":1629,"cing":1630,"ngl":1631,"ored":1632,"yed":1633,"Ġmaj":1634,"Ġfull":1635,"Ã©ran":1636,"Ġinstant":1637,"MÃ©ran":1638,"Ġve":1639,"Ġcor":1640,"Ġpri":1641,"Ġinc":1642,"tem":1643,"Ġstr":1644,"Ġcomp":1645,"ting":1646,"Ġtrue":1647,"ins":1648,"Ġsight":1649,"Ġdu":1650,"Ġdet":1651,"rign":1652,"Ġdev":1653,"Ġann":1654,"Ġadm":1655,"Ġobser":1656,"Ġfollowed":1657,"Ġminutes":1658,"Ġarrived":1659,"Avrign":1660,"Avrigny":1661,"?âĢĻ":1662,"gr":1663,"Ãī":1664,"Ġ2":1665,"Ġcalm":1666,"osition":1667,"Ġtwenty":1668,"Ġrose":1669,"Ġenough":1670,"long":1671,"Ġmo":1672,"Ġband":1673,"Ġdirect":1674,"ceive":1675,"ird":1676,"Ġcontr":1677,"mediately":1678,"ston":1679,"rief":1680,"there":1681,"ĠThey":1682,"Ġtherefore":1683,"denly":1684,"Ġbeaut":1685,"ntil":1686,"Ġlive":1687,"ishment":1688,"ignor":1689,"Ġremem":1690,"Ġconsid":1691,"arseilles":1692,"?âĢĶ":1693,"hind":1694,"Ġfif":1695,"vered":1696,"iful":1697,"ume":1698,"Ġrich":1699,"Ġexpression":1700,"Fran":1701,"aly":1702,"ning":1703,"under":1704,"ream":1705,"Ġdrew":1706,"Ġget":1707,"ney":1708,"Ġbegan":1709,"Ġmurm":1710,"Chapter":1711,"Ġpar":1712,"ash":1713,"Ġreceived":1714,"Ġmeet":1715,"ĠChapter":1716,"ung":1717,"ĠWhat":1718,"ĠRome":1719,"Ġfoot":1720,"Ġfamily":1721,"Come":1722,"ense":1723,"Ġhar":1724,"Ġlad":1725,"Ġel":1726,"Ġnext":1727,"ĠLu":1728,"Ġblack":1729,"Ġglass":1730,"Ġpaper":1731,"Ġtou":1732,"Ġsing":1733,"Ġbest":1734,"aria":1735,"uten":1736,"Ġforg":1737,"form":1738,"Ġhappy":1739,"Ġbaroness":1740,"ape":1741,"der":1742,"pris":1743,"tw":1744,"ination":1745,"Ġexam":1746,"Ġsud":1747,"ards":1748,"usband":1749,"ĠShe":1750,"Ġapart":1751,"Ġbecame":1752,"Ġwatch":1753,"ually":1754,"head":1755,"Ġheaven":1756,"ayed":1757,"Ġbox":1758,"Morrel":1759,"Ġtri":1760,"Ġaston":1761,"Ġwal":1762,"hand":1763,"Ġcase":1764,"Ġhum":1765,"Ġless":1766,"There":1767,"ĠEngl":1768,"Ġdesp":1769,"Ġinstead":1770,"Ġacqu":1771,"Ġcaptain":1772,"Ġquestion":1773,"dis":1774,"ief":1775,"pid":1776,"Ġgold":1777,"ĠEugÃ©nie":1778,"ĠTh":1779,"Ġdisco":1780,"Ġdesce":1781,"ĠFrance":1782,"fortun":1783,"Ġfellow":1784,"Your":1785,"happ":1786,"Ġbu":1787,"Ġce":1788,"ality":1789,"Ġprof":1790,"Ġhowever":1791,"Ġpossible":1792,"iv":1793,"ph":1794,"po":1795,"Ġhorses":1796,"ĠIf":1797,"ize":1798,"Ġanswer":1799,"epp":1800,"fic":1801,"ls":1802,"rely":1803,"Ġthings":1804,"ific":1805,"Ġconvers":1806,"ement":1807,"rent":1808,"nding":1809,"eng":1810,"Ġcle":1811,"Ġheld":1812,"Ġwhite":1813,"Ġuntil":1814,"they":1815,"Ġcompan":1816,"Ġjoy":1817,"Ġabs":1818,"Ġlooking":1819,"Ġimpossible":1820,"Ġaffect":1821,"from":1822,"Ġ(":1823,"Ġir":1824,"ina":1825,"rig":1826,"etto":1827,"Ġcomple":1828,"Ġattention":1829,"Ġsteps":1830,"Ġrecogn":1831,"Ġmurmured":1832,"aid":1833,"iol":1834,"rate":1835,"she":1836,"well":1837,"where":1838,"enance":1839,"Ġcir":1840,"ans":1841,"Ġdro":1842,"ided":1843,"Ġgarden":1844,"Ġconceal":1845,"ĠHaydÃ©e":1846,"Ġanyone":1847,"cont":1848,"Ġturning":1849,"Ġstruck":1850,"Ġfixed":1851,"Not":1852,"Ġsk":1853,"ati":1854,"Ġred":1855,"Ġstud":1856,"Ġcountess":1857,"Ġfact":1858,"Ġhold":1859,"Ġstopped":1860,"fortune":1861,"itude":1862,"Is":1863,"kn":1864,"Ġfree":1865,"Ġcause":1866,"Ġrec":1867,"Ġglo":1868,"Ġamong":1869,"Ġprocure":1870,"Ġeverything":1871,"Ġpromise":1872,"come":1873,"mand":1874,"uct":1875,"Ġtimes":1876,"ouis":1877,"Ġlau":1878,"ices":1879,"used":1880,"II":1881,"Now":1882,"fied":1883,"ging":1884,"ues":1885,"Ġtaking":1886,"Ġfan":1887,"ances":1888,"Ġhusband":1889,"essel":1890,"Ġhel":1891,"Ġconv":1892,"Ġvessel":1893,"Ġround":1894,"Ġpocket":1895,"Ġservice":1896,"Ġcourse":1897,"ĠEnglish":1898,"Ġswe":1899,"Ġpast":1900,"Ġyear":1901,"ĠIs":1902,"then":1903,"Ġfeet":1904,"Ġseeing":1905,"Ġgovern":1906,"Ġsaying":1907,"Ġscarcely":1908,"Ġready":1909,"Ġpeople":1910,"eed":1911,"inal":1912,"ities":1913,"Ġflo":1914,"Ġalthough":1915,"ressing":1916,"Ġbring":1917,"Ġclose":1918,"Ġuttered":1919,"app":1920,"lt":1921,"ror":1922,"Ġwished":1923,"hall":1924,"Ġfar":1925,"Ġcast":1926,"Ġhair":1927,"Ġland":1928,"Ġevid":1929,"Ġbehind":1930,"Ġusual":1931,"Ġimmediately":1932,"Ġclosed":1933,"Ġpersons":1934,"Ġcontrary":1935,"Franz":1936,"fo":1937,"mon":1938,"more":1939,"Ġtran":1940,"asp":1941,"Ġsea":1942,"ĠFaria":1943,"arted":1944,"ĠRue":1945,"Ġaccount":1946,"Ġoccup":1947,"Ġutter":1948,"Ġstrange":1949,"We":1950,"ee":1951,"ouble":1952,"erm":1953,"ĠMarseilles":1954,"ĠCar":1955,"amond":1956,"aces":1957,"while":1958,"Ġpray":1959,"Ġstep":1960,"Ġrecollect":1961,"Ġsilence":1962,"Ġbanker":1963,"Ġrepeated":1964,"eppino":1965,"bor":1966,"pr":1967,"vo":1968,"Ġ5":1969,"Ġte":1970,"Ġslight":1971,"outh":1972,"Ġmine":1973,"Ġdest":1974,"ici":1975,"Ġneed":1976,"Ġrapid":1977,"ampa":1978,"eneath":1979,"Ġeffect":1980,"Ġdrawing":1981,"can":1982,"lic":1983,"would":1984,"inct":1985,"itation":1986,"Ġpen":1987,"Ġpost":1988,"Ġpower":1989,"att":1990,"rois":1991,"Ġexpl":1992,"Ġallow":1993,"ushed":1994,"ounded":1995,"ieu":1996,"berg":1997,"Ġtravell":1998,"Ġescape":1999,"Ġaccompan":2000,"lled":2001,"tended":2002,"peri":2003,"Ġkeep":2004,"Ġsurpris":2005,"Ġmonths":2006,"utenberg":2007,"On":2008,"ring":2009,"oura":2010,"Ġfavor":2011,"Ġport":2012,"ĠThere":2013,"ively":2014,"umed":2015,"Ġknown":2016,"Ġdisappeared":2017,"Ġcold":2018,"Ġwindow":2019,"So":2020,"arrois":2021,"stood":2022,"Ġgaz":2023,"Ġgeneral":2024,"ants":2025,"Ġherself":2026,"ardon":2027,"Ġrock":2028,"ĠWhen":2029,"Ġrespect":2030,"Ġsleep":2031,"Ġsl":2032,"Ġhat":2033,"leg":2034,"Ġsold":2035,"Ġhours":2036,"Ġterrible":2037,"Ġperfectly":2038,"tempt":2039,"over":2040,"sm":2041,"ĠOh":2042,"Ġable":2043,"Ġmonsieur":2044,"Ġcry":2045,"Ġdr":2046,"Ġeither":2047,"ĠCors":2048,"like":2049,"ush":2050,"cious":2051,"manu":2052,"Ġdiamond":2053,"ross":2054,"mmanu":2055,"Ġdelight":2056,"ĠDo":2057,"Ġground":2058,"Ġdesire":2059,"were":2060,"Ġplease":2061,"gether":2062,"Ġconversation":2063,"mmanuel":2064,"case":2065,"ey":2066,"ob":2067,"pose":2068,"ishes":2069,"Ġlisten":2070,"Ġlearn":2071,"Ġspot":2072,"Ġoffic":2073,"retched":2074,"Ġprisoner":2075,"Ġbreak":2076,"Ġbeautiful":2077,"Sir":2078,"ft":2079,"pin":2080,"ining":2081,"Ġwit":2082,"Ġmid":2083,"Ġbowed":2084,"Ġfine":2085,"Ġcost":2086,"teen":2087,"Ġviol":2088,"Ġcountenance":2089,"aped":2090,"Ġpois":2091,"Ġeng":2092,"ferent":2093,"ĠJu":2094,"Al":2095,"cern":2096,"pass":2097,"oul":2098,"Ġmaking":2099,"Ġbur":2100,"arch":2101,"They":2102,"Ġwhether":2103,"ield":2104,"ages":2105,"rupt":2106,"ĠLa":2107,"Ġothers":2108,"ĠNow":2109,"Ġorders":2110,"Ġhorse":2111,"Ãīpin":2112,"Ġconsider":2113,"Ġsuddenly":2114,"Ãīpinay":2115,"Ġbro":2116,"Ġfin":2117,"ask":2118,"Ġsal":2119,"Ġgone":2120,"Ġgrief":2121,"Ġanx":2122,"akes":2123,"ĠSt":2124,"Ġart":2125,"Ġru":2126,"ngth":2127,"iew":2128,"ĠWe":2129,"Ġresol":2130,"Ġpleasure":2131,"Ġsubject":2132,"cumst":2133,"Ġspoke":2134,"ength":2135,"car":2136,"eas":2137,"Ġ3":2138,"oms":2139,"semb":2140,"Ġreached":2141,"alian":2142,"Ġnotary":2143,"ĠVampa":2144,"Ġprob":2145,"Ġseems":2146,"Ġpaid":2147,"Ġadvanced":2148,"Ġsmiling":2149,"Ġfloor":2150,"When":2151,"cons":2152,"ten":2153,"Ġbeneath":2154,"Ġcur":2155,"Ġcol":2156,"Ġdream":2157,"Ġhop":2158,"Ġlow":2159,"Ġstri":2160,"Ġexist":2161,"Ġkill":2162,"Ġcountry":2163,"Ġknows":2164,"ĠTe":2165,"Ġprep":2166,"been":2167,"Ġreflect":2168,"ourage":2169,"sc":2170,"iting":2171,"atal":2172,"rodu":2173,"Ġshud":2174,"Ġlead":2175,"erful":2176,"Ġhappiness":2177,"known":2178,"Ġpoison":2179,"pir":2180,"Ġcuri":2181,"Ġdread":2182,"aring":2183,"Ġpun":2184,"Ġpie":2185,"Ġeight":2186,"Ġwithin":2187,"Ġforget":2188,"Ġmet":2189,"Ġdemand":2190,"ĠCha":2191,"ĠPeppino":2192,"Ġentire":2193,"ounced":2194,"Ġlaw":2195,"Ġmillions":2196,"Ġremember":2197,"Ġprocureur":2198,"Caderousse":2199,"itated":2200,"Ġcorn":2201,"omy":2202,"imp":2203,"Ġevent":2204,"stant":2205,"Ġseat":2206,"ĠAb":2207,"Ġstand":2208,"itting":2209,"Ġenem":2210,"aircase":2211,"Ġpartic":2212,"rence":2213,"Ġawait":2214,"Ġappearance":2215,"Ġearth":2216,"Ġmajor":2217,"Ġlaugh":2218,"fast":2219,"Ġtears":2220,"Ġbus":2221,"Ġbreat":2222,"Ġcertain":2223,"Ġcertainly":2224,"Ġlength":2225,"ĠMy":2226,"them":2227,"ager":2228,"Ġprec":2229,"Ġmarry":2230,".âĢĻâĢĿ":2231,"Ġstranger":2232,"when":2233,"ndeed":2234,"ital":2235,"Ġcove":2236,"Ġph":2237,"atch":2238,"ative":2239,"Ġlose":2240,"Ġreve":2241,"Ġformed":2242,"terday":2243,"Ġexec":2244,"Ġnecess":2245,"igi":2246,"Ġthemselves":2247,"Ġquick":2248,",âĢĶâĢľ":2249,"Ġchair":2250,"Ġcrime":2251,"Ġhelp":2252,"aff":2253,"des":2254,"Ġought":2255,"Ġmention":2256,"ony":2257,"Ġemb":2258,"efore":2259,"Ġnoise":2260,"ĠEmmanuel":2261,"Ġquar":2262,"Ġgrat":2263,"Ġstood":2264,"Ġkept":2265,"Ġapproached":2266,"ceeded":2267,"Ġgentleman":2268,"Certainly":2269,"cu":2270,"lu":2271,"Ġsy":2272,"Ġdied":2273,"Ġhome":2274,"Ġnor":2275,"uty":2276,"ains":2277,"Ġexpect":2278,"aused":2279,"ault":2280,"osing":2281,"Ġshort":2282,"Ġblood":2283,"Ġmarriage":2284,"Ġbetr":2285,"Ġaccept":2286,"Ġsmiled":2287,"ustomed":2288,"ĠProject":2289,"Let":2290,"Ġpity":2291,"Ġthrew":2292,"tend":2293,"tern":2294,"Ġexpected":2295,"Ġuneas":2296,"ĠItalian":2297,"ledge":2298,"Ġglance":2299,"Ġpresented":2300,"Ġcourt":2301,"otten":2302,"Ġstreet":2303,"Ġwitness":2304,"ming":2305,"vious":2306,"Ġtill":2307,"Ġmotion":2308,"Ġbesides":2309,"Ġbody":2310,"Ġfair":2311,"Ġled":2312,"rance":2313,"ĠSp":2314,"Ġcoming":2315,"Ġjo":2316,"Ġjail":2317,"berty":2318,"Ġimag":2319,"Ġperm":2320,"Ġpresident":2321,"Ġassure":2322,"Ġende":2323,"ĠOn":2324,"Ġdiffic":2325,"Ġelse":2326,"Ġdespair":2327,"ges":2328,"mother":2329,"pres":2330,"ric":2331,"some":2332,"inary":2333,"oni":2334,"iced":2335,"essed":2336,"resh":2337,"istened":2338,"ĠBarrois":2339,"apt":2340,"Ġaccord":2341,"Ġscene":2342,"Ġaffair":2343,"Ġsuffici":2344,"Ġwaiting":2345,"Ġnatur":2346,"Ġworth":2347,"Ġstrong":2348,"Ġcomplete":2349,"Cristo":2350,"ean":2351,"morrow":2352,"ĠY":2353,"Ġwishes":2354,"isto":2355,"Ġfire":2356,"asion":2357,"Ġbelong":2358,"Ġstaircase":2359,"resa":2360,"ool":2361,"Ġjud":2362,"Noirtier":2363,"Ġroad":2364,"arent":2365,"enedetto":2366,"ĠWell":2367,"ĠGutenberg":2368,"aves":2369,"Ġprevent":2370,"Ġbrother":2371,"Ġafterwards":2372,"ĠItaly":2373,"Ġspeaking":2374,"Ġboat":2375,"Ġcommand":2376,"Ġobserved":2377,"Ġapartment":2378,"Ġhuman":2379,"Ġcircumst":2380,"Ġstudy":2381,"!_":2382,"fer":2383,"house":2384,"âĢľ_":2385,"Ġfilled":2386,"Ġdan":2387,"Ġhigh":2388,"ote":2389,"idence":2390,"ster":2391,"Ġthird":2392,"Ġspite":2393,"Ġunderstood":2394,"Ġobli":2395,"Ġobject":2396,"Ġminister":2397,"Ġtruth":2398,"Ġconduct":2399,"Ġeasy":2400,"Ġacquaint":2401,"ĠJulie":2402,"Ġcorner":2403,"ĠAbbÃ©":2404,"Edmond":2405,"cked":2406,"og":2407,"occ":2408,"hara":2409,"Ġtomorrow":2410,"Ġinform":2411,"Ġnam":2412,"ste":2413,"ries":2414,"pend":2415,"Ġstory":2416,"astr":2417,"Ġbrow":2418,"Ġpresence":2419,"Ġchamber":2420,"ference":2421,"Ġtremb":2422,"Ġopening":2423,"Ġcovered":2424,"Indeed":2425,"aire":2426,"loo":2427,"uil":2428,"Ġsort":2429,"Ġdin":2430,"arr":2431,"Ġlatter":2432,"alth":2433,"ĠAl":2434,"Ġsun":2435,"Ġnoble":2436,"Ġreply":2437,"Ġarran":2438,"Ġjew":2439,"Ġimport":2440,"Ġbegin":2441,"Ġdoubtless":2442,"Ġfeeling":2443,"Ġsimple":2444,"Ġstrength":2445,"Ġnearly":2446,"Phara":2447,"Who":2448,"gg":2449,"ms":2450,"old":2451,"said":2452,"Ġ4":2453,"ĠU":2454,"Ġsens":2455,"Ġdon":2456,"Ġoften":2457,"sec":2458,"Ġequ":2459,"uture":2460,"their":2461,"unge":2462,"ĠHis":2463,"Ġprodu":2464,"again":2465,"Ġplan":2466,"Ġopin":2467,"formed":2468,"Ġcarried":2469,"Ġeveryone":2470,"ecause":2471,"Ġrequest":2472,"Ġtouched":2473,"Ġgloomy":2474,"Pharaon":2475,"Have":2476,"bet":2477,"sion":2478,"Ġtry":2479,"requ":2480,"Ġmer":2481,"Ġbit":2482,"Ġbad":2483,"atures":2484,"Ġnum":2485,"omen":2486,"otect":2487,"Ġreal":2488,"ented":2489,"irst":2490,"Ġitself":2491,"Ġisland":2492,"Ġstone":2493,"osite":2494,"ulous":2495,"elve":2496,"Ġleaving":2497,"Ġpapers":2498,"Ġdifferent":2499,"ibly":2500,"Ġfifty":2501,"happy":2502,"astrini":2503,"Because":2504,"jo":2505,"Ġage":2506,"only":2507,"Ġpat":2508,"Ġreceive":2509,"ays":2510,"redit":2511,"ction":2512,"ĠAll":2513,"iled":2514,"osity":2515,"Ġdisp":2516,"Ġassist":2517,"ĠNap":2518,"Ġhappened":2519,"Ġfollowing":2520,"Ġmisfortune":2521,"Ġintrodu":2522,"Ġdescended":2523,"Ġjailer":2524,"Are":2525,"bo":2526,"bs":2527,"off":2528,"spe":2529,"tre":2530,"Ġtoday":2531,"any":2532,"Ġpisto":2533,"als":2534,"Ġseized":2535,"raph":2536,"Ġsoci":2537,"istrate":2538,"apart":2539,"Ġarrest":2540,"Ġproof":2541,"aged":2542,"Ġjustice":2543,"Ġguest":2544,"Ġwater":2545,"Ġyesterday":2546,"should":2547,"Ġforgotten":2548,"conte":2549,"every":2550,"lini":2551,"hel":2552,"ines":2553,"Ġbar":2554,"Ġfuture":2555,"Ġpain":2556,"Ġlan":2557,"owers":2558,"Ġdoing":2559,"ortun":2560,"quis":2561,"acc":2562,"ĠHow":2563,"igned":2564,"ĠLouis":2565,"ĠGree":2566,"Ġfright":2567,"Ġenter":2568,"aching":2569,"Ġcarry":2570,"Ġoffer":2571,"Ġthoughts":2572,"Ġrequire":2573,"Ġservants":2574,"ission":2575,"Ġclear":2576,"ĠEnglishman":2577,"An":2578,"By":2579,"after":2580,"bl":2581,"bit":2582,"dward":2583,"how":2584,"oly":2585,"than":2586,"ising":2587,"Ġmount":2588,"lend":2589,"Ġeager":2590,"Ġsad":2591,"Ġmerely":2592,"Ġliberty":2593,"Ġship":2594,"cien":2595,"nothing":2596,"Ġboy":2597,"ĠOne":2598,"Ġpurpose":2599,"Ġinspect":2600,"ĠĠĠĠĠĠĠĠĠĠĠĠĠĠĠĠĠĠĠĠĠĠĠĠĠĠĠĠĠĠĠĠ":2601,"Ġmistaken":2602,"Ġsailor":2603,"Ġworthy":2604,"Ġsatis":2605,"Ġiron":2606,"ĠCorsic":2607,"Ġprepared":2608,"alet":2609,"dered":2610,"eks":2611,"joy":2612,"time":2613,"Ġtem":2614,"Ġmouth":2615,"Ġcourage":2616,"Ġdressed":2617,"Ġpardon":2618,"sequ":2619,"Ġeat":2620,"ribut":2621,"ilar":2622,"law":2623,"ĠLe":2624,"peror":2625,"Ġfirm":2626,"Ġpassing":2627,"ounce":2628,"Ġemotion":2629,"Ġpolice":2630,"ĠLuigi":2631,"Ġdiscovered":2632,"Ġbreakfast":2633,"!âĢĶ":2634,"Go":2635,"chan":2636,"iet":2637,"place":2638,"Ġbott":2639,"Ġpal":2640,"Ġattempt":2641,"ified":2642,"esty":2643,"Ġalong":2644,"ĠSignor":2645,"ĠPastrini":2646,"Ġlean":2647,"Ġjour":2648,"Ġoffered":2649,"Ġblue":2650,"Ġfollow":2651,"Ġsuppose":2652,"himself":2653,"Ġwindows":2654,"Ġpriest":2655,"two":2656,"Alas":2657,"Ġentirely":2658,"Ġopinion":2659,"!âĢĻ":2660,"Ex":2661,"ek":2662,"lan":2663,"ole":2664,"enced":2665,"Ġfurn":2666,"Ġcre":2667,"Ġhost":2668,"Ġhes":2669,"Ġforth":2670,"too":2671,"aining":2672,"Ġseated":2673,"âĢĶâĢľ":2674,"Ġneither":2675,"Ġabove":2676,"Ġshad":2677,"Ġused":2678,"Ġserious":2679,"Ġprin":2680,"Ġexcept":2681,"Ġgrandfather":2682,"Ġcompanion":2683,"Ġbusiness":2684,"Re":2685,"With":2686,"ches":2687,"eper":2688,"pond":2689,"Ġmove":2690,"Ġtogether":2691,"Ġhung":2692,"oted":2693,"Ġrend":2694,"Ġsend":2695,"usoni":2696,"Ġtwelve":2697,"Ġchief":2698,"Ġappears":2699,"Ġassass":2700,"Ġguil":2701,"Ġ18":2702,"Ġeffort":2703,"Ġforehead":2704,"Ġgrave":2705,"Ġastonishment":2706,"Ġgovernor":2707,"body":2708,"before":2709,"âĦ":2710,"ĠX":2711,"Ġri":2712,"Ġsister":2713,"has":2714,"Ġca":2715,"Ġcut":2716,"ingly":2717,"ator":2718,"Ġlistened":2719,"Ġemp":2720,"Ġgall":2721,"Ġliving":2722,"Ġval":2723,"istin":2724,"ishing":2725,"Ġseek":2726,"Ġperceived":2727,"Here":2728,"Ġwatched":2729,"Ġoccasion":2730,"Ġchange":2731,"Ġpolit":2732,"Ġdarkness":2733,"ĠTeresa":2734,"Ġquarter":2735,"aptistin":2736,"sterious":2737,"Ġinspector":2738,"âĦ¢":2739,"03":2740,"MercÃ©dÃ¨s":2741,"Wh":2742,"cent":2743,"vis":2744,"vol":2745,"zz":2746,"Ġball":2747,"Ġcustom":2748,"Ġposition":2749,"Ġlay":2750,"Ġsave":2751,"Ġthick":2752,"Ġseven":2753,"Ġsepar":2754,"Ġsole":2755,"acing":2756,"Ġvalet":2757,"ĠBenedetto":2758,"Ġreport":2759,"Ġrun":2760,"Ġfeatures":2761,"Ġthank":2762,"Ġsplend":2763,"Ġinquir":2764,"Ġnews":2765,"Ġeasily":2766,"Ġoccupied":2767,"Ġdinner":2768,"Maximilian":2769,"St":2770,"fri":2771,"night":2772,"nific":2773,"Ġ&":2774,"Ġtor":2775,"Ġspect":2776,"Ġsorrow":2777,"Ġfaint":2778,"Ġcell":2779,"ano":2780,"Ġgate":2781,"urred":2782,"Ġang":2783,"Ġextended":2784,"acy":2785,"ĠBusoni":2786,"ĠFor":2787,"ĠPal":2788,"Ġcompl":2789,"Ġagree":2790,"Ġprotect":2791,"Ġassured":2792,"Ġsilent":2793,"Ġdepart":2794,"Ġchance":2795,"Ġescaped":2796,"Ġopposite":2797,"Ġtalk":2798,"Ġmillion":2799,"Ġmagistrate":2800,"Ġlady":2801,"Ġaffection":2802,"Ġaccompanied":2803,"Ġanxious":2804,"aw":2805,"min":2806,"part":2807,"since":2808,"Ġobe":2809,"Ġcredit":2810,"Ġdying":2811,"Ġdunge":2812,"ingu":2813,"Ġhid":2814,"Ġconcern":2815,"que":2816,"Ġkilled":2817,"Ġview":2818,"Ġcomes":2819,"Ġago":2820,"Ġunknown":2821,"Ġprevious":2822,"Ġaccustomed":2823,"Ġserved":2824,"irty":2825,"without":2826,"Ġdistance":2827,"Ġgiving":2828,"Ġgentlemen":2829,"Ġpriv":2830,"She":2831,"mar":2832,"pse":2833,"tic":2834,"Ġmakes":2835,"Ġfresh":2836,"Ġcent":2837,"anina":2838,"Ġdress":2839,"Ġheav":2840,"ature":2841,"Ġgener":2842,"veral":2843,"rose":2844,"Ġund":2845,"ury":2846,"tell":2847,"Ġdef":2848,"ession":2849,"Ġexact":2850,"Ġsuc":2851,"Ġsucc":2852,"Ġvict":2853,"Ġamount":2854,"els":2855,"Ġdistur":2856,"Ġterror":2857,"Ġpurcha":2858,"appear":2859,"Ġaware":2860,"hold":2861,"Mademoiselle":2862,"foll":2863,"Ġsurprise":2864,"Ġnecessary":2865,"friend":2866,";âĢĿ":2867,"Did":2868,"Very":2869,"five":2870,"gs":2871,"iant":2872,"know":2873,"reed":2874,"Ġsigh":2875,"Ġbes":2876,"Ġfault":2877,"Ġlate":2878,"Ġele":2879,"Ġsaved":2880,"ille":2881,"ĠCatal":2882,"liar":2883,"erted":2884,"Ġshow":2885,"rud":2886,"Ġdescri":2887,"new":2888,"Ġblow":2889,"Ġobtain":2890,"Ġsteward":2891,"exp":2892,"Ġintended":2893,"Ġtreasure":2894,"Ġloved":2895,"Ġsuffer":2896,"Ġideas":2897,"Ġspoken":2898,"Ġnature":2899,"Ġadmir":2900,"Ġconcealed":2901,"Ġfanci":2902,"Ġdestro":2903,"Ġrapidly":2904,"Ġstanding":2905,"culiar":2906,"cr":2907,"even":2908,"ned":2909,"poss":2910,"tory":2911,"wor":2912,"Ġsitu":2913,"Ġmus":2914,"Ġbra":2915,"Ġcop":2916,"Ġhot":2917,"Ġpow":2918,"asant":2919,"uted":2920,"peci":2921,"key":2922,"Ġyours":2923,"ĠWhy":2924,"Ġcloud":2925,"Ġcharact":2926,"Ġboard":2927,"Ġexcellent":2928,"Ġwaited":2929,"Ġpromised":2930,"uteuil":2931,"Ġformer":2932,"Ġincre":2933,"Ġsingle":2934,"Ġofficer":2935,"For":2936,"gi":2937,"iety":2938,"pers":2939,"pap":2940,"unt":2941,"wo":2942,"Ġtend":2943,"erv":2944,"Ġfing":2945,"Ġfast":2946,"Ġdri":2947,"Ġpressed":2948,"Ġyield":2949,"ater":2950,"otto":2951,"Ġbell":2952,"Ġgro":2953,"Ġgend":2954,"uttered":2955,"ets":2956,"Ġmysterious":2957,"ĠAn":2958,"raw":2959,"rist":2960,"Ġvain":2961,"isted":2962,"Ġknife":2963,"unic":2964,"Ã©es":2965,"Ġrushed":2966,"itten":2967,"isely":2968,"Ġmarried":2969,"Ġfortun":2970,"vidence":2971,"Ġsupport":2972,"...":2973,"Ġsingular":2974,"Ġslow":2975,"Ġbitter":2976,"Where":2977,"cul":2978,"heard":2979,"rep":2980,"Ġwine":2981,"Ġfig":2982,"Ġcab":2983,"Ġincl":2984,"ots":2985,"stru":2986,"Ġhistory":2987,"aying":2988,"Ġdeg":2989,"Ġsearch":2990,"Ġsol":2991,"Ġkne":2992,"Ġunable":2993,"Ġpreser":2994,"izing":2995,"door":2996,"Ġkey":2997,"Ġsometimes":2998,"Ġcarefully":2999,"Ġlaid":3000,"Ġsimilar":3001,"Ġinflu":3002,"Ġsweet":3003,"Ġmidst":3004,"Ġsociety":3005,"ĠGreek":3006,"nificent":3007,"All":3008,"Th":3009,"ival":3010,"Ġwomen":3011,"Ġsought":3012,"Ġsoul":3013,"ont":3014,"iter":3015,"Ġfr":3016,"ancing":3017,"Ġduty":3018,"Ġpath":3019,"see":3020,"Ġgot":3021,"Ġmem":3022,"Ġdeceived":3023,"ĠCome":3024,"Ġstart":3025,"Ġexperi":3026,"ĠBon":3027,"aptain":3028,"Ġproject":3029,"Andrea":3030,"Ġthanks":3031,"cience":3032,"coat":3033,"Ġfaith":3034,"Ġgreatest":3035,"Ġaddress":3036,"iction":3037,"Ġemperor":3038,"Ġinterrupt":3039,"Ġcorpse":3040,"Ġbandits":3041,"Ġrecognized":3042,"ĠIsland":3043,"Ġburst":3044,"Ġcurtain":3045,"Ġquickly":3046,"Ġmotionless":3047,"Ġendeavor":3048,"Ġjudge":3049,"ortunity":3050,"oleon":3051,"cle":3052,"ding":3053,"daughter":3054,"just":3055,"ler":3056,"mer":3057,"mit":3058,"oved":3059,"shall":3060,"take":3061,"oned":3062,"Ġfat":3063,"Ġrecom":3064,"Ġbear":3065,"Ġself":3066,"choly":3067,"these":3068,"thr":3069,"Ġneigh":3070,"Ġring":3071,"Ġrid":3072,"cknow":3073,"Ġsomewhat":3074,"Ġremark":3075,"Ġcoat":3076,"Ġcoach":3077,"standing":3078,"Ġcrow":3079,"Ġexpress":3080,"cles":3081,"Ġtrees":3082,"racted":3083,"ĠJac":3084,"ship":3085,"Ġregret":3086,"ĠLucien":3087,"Ġtouch":3088,"Ġevident":3089,"Ġbroken":3090,"Ġdreadful":3091,"Ġaccording":3092,"ĠXV":3093,"Ġdungeon":3094,"Count":3095,"ires":3096,"vres":3097,"Ġtried":3098,"reco":3099,"eness":3100,"orney":3101,"Ġbound":3102,"Ġbright":3103,"Ġfal":3104,"Ġden":3105,"Ġhon":3106,"vere":3107,"str":3108,"aled":3109,"Ġforward":3110,"rop":3111,"eth":3112,"Ġseveral":3113,"âĢĶâĢĺ":3114,"ĠAuteuil":3115,"ously":3116,"Ġallowed":3117,"ists":3118,"Ġshowed":3119,"ordinary":3120,"ĠEdward":3121,"Ġunfortun":3122,"ĠRoman":3123,"Ġbecom":3124,"Ġowner":3125,"hys":3126,"Ġviscount":3127,"expected":3128,"Ġordered":3129,"Ġcrown":3130,"Ġpeculiar":3131,"Ġconfidence":3132,"Ġarrival":3133,"Ġempt":3134,"Ġrecognize":3135,"Ġenemy":3136,"Ġnatural":3137,"ĠYanina":3138,"Ġobliged":3139,"Ġlangu":3140,"Good":3141,"Listen":3142,"Monsieur":3143,"Than":3144,"ba":3145,"bad":3146,"gged":3147,"oint":3148,"past":3149,"sing":3150,"Ġarose":3151,"Ġacknow":3152,"reme":3153,"Ġcaused":3154,"armed":3155,"Ġhur":3156,"Ġrender":3157,"Ġev":3158,"aded":3159,"chief":3160,"rang":3161,"acle":3162,"Ġlived":3163,"Ġshut":3164,"usion":3165,"urning":3166,"Ġsmo":3167,"opo":3168,"Ġthinking":3169,"Ġcollect":3170,"upon":3171,"Ġwrong":3172,"Ġwrote":3173,"ublic":3174,"Ġuseless":3175,"Ġhastened":3176,"Ġrising":3177,"Ġviolent":3178,"Ġpiece":3179,"Ġprecaut":3180,"Ġnamed":3181,"Ġjewell":3182,"Ġguilty":3183,"Ġemplo":3184,"pecially":3185,"Will":3186,"bb":3187,"fact":3188,"iast":3189,"mill":3190,"made":3191,"ze":3192,"Ġtit":3193,"Ġmed":3194,"Ġmod":3195,"ening":3196,"aste":3197,"Ġinformed":3198,"Ġrecei":3199,"Ġwhis":3200,"illiant":3201,"Ġforced":3202,"live":3203,"ĠAr":3204,"Ġstate":3205,"raordinary":3206,"acqu":3207,"ĠBaptistin":3208,"Ġalarm":3209,"Ġunhappy":3210,"Ġretired":3211,"Ġdisc":3212,"arer":3213,"ĠLord":3214,"pera":3215,"Ġentreat":3216,"Ġentrance":3217,"Ġexcuse":3218,"Ġpron":3219,"uggl":3220,"Ġcommunic":3221,"Ġwriting":3222,"alcul":3223,"Morcerf":3224,"III":3225,"ĠCarconte":3226,"Ġlearned":3227,"Ġexecution":3228,"Ġdifficult":3229,"Ġtrembling":3230,"Ġrendered":3231,"Ġassassin":3232,"Ġsuccess":3233,"Ġhotel":3234,"Ġcrowd":3235,"His":3236,"Pro":3237,"_.":3238,"did":3239,"eb":3240,"first":3241,"iers":3242,"ker":3243,"lba":3244,"side":3245,"vi":3246,"vail":3247,"yal":3248,"Ġignor":3249,"inter":3250,"Ġwa":3251,"Ġwretched":3252,"Ġmass":3253,"enge":3254,"Ġdouble":3255,"Ġpict":3256,"Ġlu":3257,"Ġlord":3258,"rived":3259,"Ġanim":3260,"Ġange":3261,"ĠAh":3262,"Ġstarted":3263,"rab":3264,"Ġconsequ":3265,"pping":3266,"ĠSo":3267,"ĠSpan":3268,"Ġsprang":3269,"Ġshoulders":3270,"Ġenc":3271,"ability":3272,"Ġmeaning":3273,"spic":3274,"Ġpointed":3275,"Ġpossessed":3276,"Ġwatching":3277,"Ġtrans":3278,"Ġtraveller":3279,"Ġdrink":3280,"piration":3281,"Ġcuriosity":3282,"Ġevents":3283,"Ġbreath":3284,"Ġcircumstances":3285,"Ġnumber":3286,"Ġshadow":3287,"Ġknees":3288,"Fernand":3289,"Never":3290,"One":3291,"Saint":3292,"could":3293,"dle":3294,"ience":3295,"mn":3296,"must":3297,"ov":3298,"spect":3299,"yes":3300,"Ġest":3301,"Ġwond":3302,"Ġmir":3303,"Ġmour":3304,"Ġfur":3305,"Ġcra":3306,"Ġcross":3307,"othed":3308,"Ġmelan":3309,"pelled":3310,"thought":3311,"Ġsho":3312,"venge":3313,"ump":3314,"Ġproceed":3315,"Ġleag":3316,"Ġfever":3317,"Ġfeared":3318,"young":3319,"Ġsays":3320,"ĠHeaven":3321,"about":3322,"Ġexchan":3323,"Ġapparent":3324,"ailor":3325,"Ġconfess":3326,"Ġindic":3327,"....":3328,"Ġsett":3329,"Ġcondem":3330,"Ġmistake":3331,"Ġhastily":3332,"Ġhopes":3333,"Ġimportant":3334,"ĠNapoleon":3335,"Ġmelancholy":3336,".,":3337,"500":3338,"Ar":3339,"Ch":3340,"Paris":3341,"ium":3342,"much":3343,"port":3344,"ts":3345,"into":3346,"Ġwarn":3347,"Ġfate":3348,"Ġfight":3349,"arily":3350,"Ġphys":3351,"icked":3352,"Ġreality":3353,"Ġnotice":3354,"Ġweak":3355,"Ġstif":3356,"Ġstairs":3357,"osp":3358,"ĠBaron":3359,"Ġgrotto":3360,"why":3361,"Ġpassage":3362,"never":3363,"conf":3364,"Ġsigned":3365,"vided":3366,"Ġterms":3367,"Ġsuffered":3368,"Ġadvice":3369,"Ġrestr":3370,"Ġpossession":3371,"Ġopportunity":3372,"Ġcharming":3373,"Ġmagnificent":3374,"Ġinstantly":3375,"twenty":3376,"Ġastonished":3377,"Ġrecall":3378,"Ġgazed":3379,"Ġengaged":3380,"Ġcolor":3381,"Ġparticular":3382,"Ġphil":3383,"Ġinformation":3384,"Ġsplendid":3385,"Ġcharacter":3386,"ĠJacopo":3387,"ĠXVIII":3388,"Beauchamp":3389,"True":3390,"aet":3391,"bre":3392,"ply":3393,"ulf":3394,"Ġed":3395,"rer":3396,"Ġsitting":3397,"orse":3398,"Ġben":3399,"llig":3400,"anation":3401,"Ġlab":3402,"Ġreach":3403,"stairs":3404,"Ġgen":3405,"Ġaside":3406,"keeper":3407,"ellow":3408,"osop":3409,"lave":3410,"Ġdispl":3411,"Ġspring":3412,"Ġenjoy":3413,"chair":3414,"uded":3415,"Ġprince":3416,"Ġaddressed":3417,"Ġintellig":3418,"ĠParisian":3419,"Ġwritten":3420,"Ġfeelings":3421,"Ġchanged":3422,"Ġextreme":3423,"Ġsailors":3424,"Ġrepeat":3425,"Ġaccompl":3426,"ront":3427,"Ġdeterm":3428,"Ġbandit":3429,"Ġrememb":3430,"Ġpenet":3431,"Ġcostume":3432,"omson":3433,"Ġprobably":3434,"Ġexistence":3435,"Ġsufficient":3436,"Ġcompletely":3437,"steps":3438,"Ġjourney":3439,"took":3440,"Really":3441,"Ġvictim":3442,"Ġpowerful":3443,"Ġmemory":3444,"Ġneighbor":3445,"Ġfalse":3446,"aetano":3447,"Of":3448,"cuse":3449,"mps":3450,"ray":3451,"whel":3452,"Ã¦":3453,"inc":3454,"inced":3455,"inbad":3456,"Ġsire":3457,"erhaps":3458,"orter":3459,"Ġbrig":3460,"Ġyouth":3461,"Ġloud":3462,"entered":3463,"owards":3464,"Ġsafe":3465,"ada":3466,"ĠMar":3467,"ify":3468,"ĠAre":3469,"Ġsty":3470,"Ġstat":3471,"Ġstro":3472,"anted":3473,"ĠĠĠ":3474,"Ġsuspic":3475,"uls":3476,"usted":3477,"Ġalarmed":3478,"ected":3479,"Ġbrain":3480,"Ġresumed":3481,"Ġfail":3482,"Ġattack":3483,"Ġattorney":3484,"Ġintend":3485,"ails":3486,"Ġcapital":3487,"Ġdecided":3488,"Ġwalls":3489,"Ġdeeply":3490,"Ġsword":3491,"ashion":3492,"Ġhard":3493,"Ġexamined":3494,"Ġapartments":3495,"Ġholding":3496,"asped":3497,"Ġteeth":3498,"Ġlaughing":3499,"Ġmentioned":3500,"Ġarranged":3501,"requently":3502,"Ġguests":3503,"Ġeagerly":3504,"Ġgenerally":3505,"Ġfancied":3506,"Ġtender":3507,"ĠBonapart":3508,"Ġcoachman":3509,"Ġjeweller":3510,"),":3511,"From":3512,"che":3513,"fl":3514,"might":3515,"moment":3516,"pon":3517,"heart":3518,"Ġaid":3519,"Ġinn":3520,"leep":3521,"Ġere":3522,"Ġearn":3523,"Ġthirty":3524,"Ġnoticed":3525,"Ġconstant":3526,"Ġvent":3527,"emed":3528,"ested":3529,"Ġlikely":3530,"bec":3531,"chamber":3532,"Ġthrown":3533,"Ġstop":3534,"Ġespecially":3535,"azz":3536,"uthor":3537,"Ġmajesty":3538,"Ġannounced":3539,"fortunes":3540,"Ġlistening":3541,"Ġuneasiness":3542,"Ġprinci":3543,"Ġslowly":3544,"Ġinfluence":3545,"Ġinterrupted":3546,"Ġtitle":3547,"Ġangel":3548,"cond":3549,"certain":3550,"ocles":3551,"word":3552,"Ġton":3553,"Ġauthor":3554,"reen":3555,"half":3556,"ises":3557,"Ġmerc":3558,"Ġfet":3559,"Ġinha":3560,"atic":3561,"Ġsake":3562,"Ġanger":3563,"race":3564,"osit":3565,"emb":3566,"Ġwhatever":3567,"Ġprove":3568,"order":3569,"Ġquiet":3570,"Ġlooks":3571,"cier":3572,"Ġprefer":3573,"chant":3574,"Ġresult":3575,"Ġcho":3576,"Ġworks":3577,"Ġproud":3578,"Ġimpati":3579,"Ġaffairs":3580,"Ġbelieved":3581,"Ġadvant":3582,"orrid":3583,"Ġoccurred":3584,"Ġrequired":3585,"Ġregard":3586,"Ġkindness":3587,"Ġbreast":3588,"Ġfallen":3589,"Ġmeeting":3590,"Ġwalked":3591,"Ġwalking":3592,"Ġprofound":3593,"Nothing":3594,"Ġswear":3595,"Ġgovernment":3596,"Ġaccompany":3597,"Ġsurprised":3598,"Ġshuddered":3599,"Ġsatisfied":3600,"ĠCorsican":3601,"Ġ181":3602,"Ġsucceeded":3603,"Every":3604,"ale":3605,"give":3606,"hour":3607,"lam":3608,"little":3609,"pie":3610,"somet":3611,"ti":3612,"Ã´":3613,"Ġ7":3614,"held":3615,"oup":3616,"oured":3617,"itable":3618,"Ġtop":3619,"lly":3620,"ann":3621,"Ġpier":3622,"Ġpaces":3623,"Ġnone":3624,"Ġlim":3625,"Ġlamp":3626,"seen":3627,"lex":3628,"lys":3629,"Ġattend":3630,"Ġdeal":3631,"Ġstu":3632,"eful":3633,"ulars":3634,"ulty":3635,"Ġlivres":3636,"ĠBesides":3637,"umb":3638,"Ġknowledge":3639,"ruly":3640,"Ġquitted":3641,"Ġsomeone":3642,"ples":3643,"uddenly":3644,"Ġdistinct":3645,"arnival":3646,"Ġlover":3647,"Ġtrouble":3648,"Ġrefuse":3649,"Ġfamous":3650,"Ġprisoners":3651,"Ġdelic":3652,"Ġdelay":3653,"ĠProvidence":3654,"Ġrisk":3655,"suff":3656,"Ġmoved":3657,"understand":3658,"Ġdiscover":3659,"Ġceased":3660,"contin":3661,"Ġfancy":3662,"Ġevidently":3663,"Ġresolution":3664,"eanwhile":3665,"!_âĢĿ":3666,"Ġdanger":3667,"Ġbeginning":3668,"Ġpistols":3669,"Ġfrightful":3670,"Ġsolemn":3671,"papa":3672,"Ġwaist":3673,"Bertuccio":3674,"gers":3675,"great":3676,"rut":3677,"ught":3678,"Ġtaste":3679,"rend":3680,"having":3681,"Ġmess":3682,"Ġmuttered":3683,"Ġcup":3684,"Ġclock":3685,"Ġpati":3686,"atur":3687,"Ġnine":3688,"Ġlif":3689,"ics":3690,"ically":3691,"iment":3692,"Ġelect":3693,"still":3694,"Ġsacri":3695,"irm":3696,"urity":3697,"Ġsoft":3698,"rank":3699,"Ġconve":3700,"ĠThese":3701,"Ġshru":3702,"Ġneg":3703,"ighed":3704,"olo":3705,"ĠElba":3706,"ption":3707,"Ġunexpected":3708,"ĠTo":3709,"death":3710,"Ġimper":3711,"Ġcontained":3712,"ĠWith":3713,"avored":3714,"Ġraising":3715,"Ġappre":3716,"Ġguard":3717,"Ġguessed":3718,"Ġsignal":3719,"compan":3720,"Ġcrim":3721,"Ġminute":3722,"Ġwrite":3723,"Ġchildren":3724,"Ġpurs":3725,"Ġflowers":3726,"ibility":3727,"Ġextraordinary":3728,"Ġcheeks":3729,"Ġdecla":3730,"Ġburied":3731,"legraph":3732,"Ġsalon":3733,"Ġruin":3734,"Ġgratitude":3735,"Ġsenses":3736,"Ġpainful":3737,"Ġleaning":3738,"Ġseparated":3739,"Ġprivate":3740,"Ġheavy":3741,"Ġgroan":3742,"Ġempty":3743,"Ġlanguage":3744,"ĠSpanish":3745,"oville":3746,"af":3747,"dist":3748,"een":3749,"francs":3750,"may":3751,"oor":3752,"pal":3753,"uc":3754,"uous":3755,"ucum":3756,"Ġ6":3757,"Ġ8":3758,"Ġ9":3759,"ĠK":3760,"Ġwound":3761,"Ġwood":3762,"Ġwild":3763,"Ġwarm":3764,"Ġcity":3765,"Ġclo":3766,"Ġcreat":3767,"Ġcalcul":3768,"Ġpublic":3769,"asha":3770,"Ġinno":3771,"ician":3772,"stead":3773,"Ġgest":3774,"Ġwithd":3775,"Ġasce":3776,"ĠCarnival":3777,"Ġweight":3778,"lig":3779,"pered":3780,"respond":3781,"ilmore":3782,"ardinal":3783,"Ġvol":3784,"elon":3785,"Ġknowing":3786,"Ġproved":3787,"olute":3788,"Ġwhence":3789,"agger":3790,"Ġsmuggl":3791,"ĠGaetano":3792,"perhaps":3793,"Ġpret":3794,"acht":3795,"Ġresist":3796,"Ġoffice":3797,"Ġblind":3798,"Ġmarked":3799,"Ġvisible":3800,"Ġrooms":3801,"Ġpurse":3802,"Ġhearing":3803,"Ãīlys":3804,"Ġdirectly":3805,"Ġfifteen":3806,"ĠThomson":3807,"Ġdrops":3808,"appro":3809,"perior":3810,"Ġgaze":3811,"carriage":3812,"Ġpieces":3813,"ggle":3814,"Ġvalue":3815,"Ġhidden":3816,"followed":3817,"Ġexperienced":3818,"kerchief":3819,"Ġignorant":3820,"cierge":3821,"ucumetto":3822,"ÃīlysÃ©es":3823,"502":3824,"Ali":3825,"Be":3826,"Shall":3827,"olet":3828,"posed":3829,"sha":3830,"sur":3831,"such":3832,"Ġavo":3833,"inte":3834,"Ġtheat":3835,"Ġorig":3836,"Ġfru":3837,"Ġfulf":3838,"Ġcrew":3839,"Ġdull":3840,"ases":3841,"ats":3842,"Ġline":3843,"imate":3844,"Ġresemb":3845,"cell":3846,"ills":3847,"ĠMonsieur":3848,"Ġdeli":3849,"Ġweek":3850,"antly":3851,"range":3852,"Ġbutt":3853,"Ġconn":3854,"quest":3855,"Ġvenge":3856,"ustri":3857,"ĠBl":3858,"ĠBoville":3859,"Ġshore":3860,"Ġrepro":3861,"Ã¨re":3862,"Ġproceeded":3863,"Ġcomr":3864,"olog":3865,"Ġshar":3866,"ĠLou":3867,"Ġbrilliant":3868,"ĠRen":3869,"Ġoverwhel":3870,"Ġfoi":3871,"char":3872,"Ġchoo":3873,"Ġpride":3874,"lieve":3875,"Ġperspiration":3876,"Ġdistingu":3877,"Ġdrawn":3878,"Ġletters":3879,"Ġsupper":3880,"Ġinquire":3881,"ĠChrist":3882,"Ġdiv":3883,"ĠĠĠĠĠĠĠĠĠĠĠĠĠĠĠĠĠĠĠĠĠĠĠĠ":3884,"Ġvisitor":3885,"Ġsurr":3886,"Ġfamili":3887,"Ġapproaching":3888,"Ġrang":3889,"Ġgrace":3890,"Ġdevil":3891,"ĠCarlini":3892,"Ġexplanation":3893,"Ġdelighted":3894,"Ġengage":3895,"Ġshudder":3896,"Ġenemies":3897,"Ġproduced":3898,"Ġangry":3899,"Ġdeparture":3900,"Ġfurther":3901,"Ġvengeance":3902,"400":3903,"Ma":3904,"pri":3905,"pol":3906,"perf":3907,"tr":3908,"towards":3909,"yond":3910,"rec":3911,"Ġowe":3912,"hal":3913,"ories":3914,"Ġfront":3915,"Ġfashion":3916,"arked":3917,"asing":3918,"ators":3919,"icle":3920,"Ġthro":3921,"adv":3922,"Ġforce":3923,"rified":3924,"rog":3925,"quise":3926,"ourg":3927,"Ġvar":3928,"uss":3929,"Ġroyal":3930,"Ġcontract":3931,"Ġprepar":3932,"abl":3933,"Ġassumed":3934,"Ġcoff":3935,"ernal":3936,"Ġinstance":3937,"Ġinstinct":3938,"Ġparty":3939,"Ġreading":3940,"Ġconscience":3941,"Ġcommitted":3942,"Ġpleased":3943,"Ġacross":3944,"Ġtrust":3945,"Ġmisfortunes":3946,"Ġgrandpapa":3947,"Ġmistress":3948,"Ġchest":3949,"Ġdevoted":3950,"Ġparaly":3951,"Ġtravelling":3952,"passed":3953,"Ġfinished":3954,"Ġleading":3955,"ĠSpada":3956,"Ġimagine":3957,"Ġsufficiently":3958,"looking":3959,"Ġmovement":3960,"Still":3961,"Ġtorch":3962,"Ġfigure":3963,"Ġadvantage":3964,"501":3965,"found":3966,"oc":3967,"ped":3968,"put":3969,"sub":3970,"tained":3971,"Ġer":3972,"Ġtear":3973,"reg":3974,"Ġsentine":3975,"enelon":3976,"Ġfow":3977,"Ġprud":3978,"Ġyacht":3979,"othes":3980,"Ġbeyond":3981,"Ġthreat":3982,"utation":3983,"adually":3984,"tending":3985,"ifference":3986,"child":3987,"Ġsuperior":3988,"ths":3989,"those":3990,"three":3991,"think":3992,"erty":3993,"osen":3994,"Ġvill":3995,"ushing":3996,"ĠHave":3997,"ection":3998,"Ġadvent":3999,"ĠThat":4000,"Ġremind":4001,"Ġremoved":4002,"plic":4003,"retch":4004,"withstanding":4005,"comple":4006,"icted":4007,"Ġafford":4008,"letter":4009,"entlemen":4010,"Ġsimply":4011,"prehe":4012,"Ġproposed":4013,"Ġrelated":4014,"rossed":4015,"Ġheavens":4016,"ivity":4017,"Ġslightest":4018,"Ġsoldier":4019,"eyes":4020,"Ġresolved":4021,"Ġpunishment":4022,"Ġparticulars":4023,"looked":4024,"ĠUn":4025,"Ġassistance":4026,"Ġobeyed":4027,"Ġcopy":4028,"Ġhonest":4029,"Ġevil":4030,"Ã¦s":4031,"Ġcriminal":4032,"ĠRenÃ©e":4033,"401":4034,"Tell":4035,"ah":4036,"back":4037,"four":4038,"iod":4039,"ivid":4040,"mis":4041,"mist":4042,"na":4043,"nam":4044,"name":4045,"opt":4046,"say":4047,"uce":4048,"vation":4049,"view":4050,"zed":4051,"Ġtort":4052,"Ġaud":4053,"Ġslave":4054,"erve":4055,"Ġmat":4056,"Ġmort":4057,"itement":4058,"ese":4059,"Ġpair":4060,"Ġporter":4061,"iding":4062,"lebr":4063,"Ġease":4064,"Ġgain":4065,"Ġgun":4066,"Ġthunder":4067,"Ġnote":4068,"rier":4069,"Ġmeant":4070,"urper":4071,"together":4072,"amme":4073,"Ġsell":4074,"ĠAfter":4075,"Ġstorm":4076,"iling":4077,"quet":4078,"Ġsuper":4079,"ource":4080,"osse":4081,"elim":4082,"reless":4083,"Ġagitated":4084,"Ġretire":4085,"dec":4086,"Ġimmen":4087,"Ġquit":4088,"Ġspir":4089,"Ġshoulder":4090,"cient":4091,"ĠWho":4092,"Ġdesir":4093,"Ġentering":4094,"Ġplain":4095,"Ġperiod":4096,"Ġspecul":4097,"Ġappoint":4098,"Ġgreater":4099,"oubtless":4100,"Ġlovely":4101,"armes":4102,"Ġapproach":4103,"Ġduke":4104,"Ġdirected":4105,"Ġconsidered":4106,"Ġladies":4107,"Ġexample":4108,"Ġbuild":4109,"Ġabsence":4110,"Ġrocks":4111,"Ġdiamonds":4112,"Ġhoped":4113,"Ġdemanded":4114,"Ġacquainted":4115,"between":4116,"Ġpatron":4117,"ĠĠĠĠĠĠĠĠĠĠĠĠĠĠĠĠĠĠĠĠĠĠĠĠĠĠĠĠĠĠĠĠĠĠĠĠĠĠĠĠĠĠĠĠĠĠĠĠĠĠĠĠĠĠĠĠ":4118,"Ġdegree":4119,"Ġunfortunate":4120,"Ġcrowns":4121,"Ġleagues":4122,"Ġphilosop":4123,"piece":4124,"rutin":4125,"Ġimmense":4126,"bable":4127,"bourg":4128,"face":4129,"lim":4130,"ĠQ":4131,"inqu":4132,"Ġow":4133,"hant":4134,"Ġming":4135,"Ġmot":4136,"ences":4137,"Ġfro":4138,"Ġfra":4139,"Ġfrequently":4140,"Ġdare":4141,"Ġdue":4142,"arme":4143,"Ġhither":4144,"Ġpure":4145,"asc":4146,"Ġhealth":4147,"Ġrely":4148,"Ġeleg":4149,"stit":4150,"entions":4151,"oward":4152,"Ġgar":4153,"Ġgained":4154,"lder":4155,"add":4156,"Ġassemb":4157,"life":4158,"Ġconcl":4159,"osure":4160,"Ġvast":4161,"Ġshook":4162,"ĠFrom":4163,"Ġaband":4164,"olosse":4165,"ĠWilmore":4166,"Ġdesired":4167,"Ġplacing":4168,"Ġcler":4169,"being":4170,"Ġexcited":4171,"Ġspeed":4172,"Ġobtained":4173,"Ġmarquis":4174,"Ġvisited":4175,"hens":4176,"Ġintention":4177,"Ġproperty":4178,"Ġrise":4179,"Ġcharge":4180,"ronic":4181,"Ġsudden":4182,"Ġtrial":4183,"Ġwalk":4184,"Ġhatred":4185,"Ġconsiderable":4186,"Ġreflected":4187,"Ġcurious":4188,"Ġuneasy":4189,"Ġpermission":4190,"Ġdifficulty":4191,"Ġagreeable":4192,"Ġrecomme":4193,"ĠBonapartist":4194,"Ġearnest":4195,"Ġfetch":4196,"interest":4197,"Ġsharp":4198,"HaydÃ©e":4199,"La":4200,"Take":4201,"dieu":4202,"fall":4203,"fect":4204,"general":4205,"hood":4206,"lore":4207,"mes":4208,"make":4209,"nel":4210,"rÃ©":4211,"wise":4212,"ref":4213,"Ġwed":4214,"erable":4215,"Ġmas":4216,"Ġborn":4217,"Ġfit":4218,"Ġfully":4219,"Ġcou":4220,"Ġcorrid":4221,"ane":4222,"Ġdom":4223,"Ġpall":4224,"Ġhate":4225,"Ġnarr":4226,"iments":4227,"utter":4228,"alous":4229,"tel":4230,"Ġdepend":4231,"Ġantic":4232,"Ġstay":4233,"antle":4234,"Ġexha":4235,"Ġconcierge":4236,"acas":4237,"Ġvig":4238,"ĠBe":4239,"ĠBy":4240,"ĠHer":4241,"glass":4242,"umes":4243,"Ġcompelled":4244,"Ġric":4245,"Ġtwice":4246,"ague":4247,"ĠEvery":4248,"ĠLet":4249,"Ġdesign":4250,"Ġplay":4251,"Ġdoors":4252,"opened":4253,"Ġfold":4254,"acket":4255,"Ġthrow":4256,"Ġglanced":4257,"exc":4258,"Ġhappen":4259,"Ġarmchair":4260,"Ġguide":4261,"Ġbedroom":4262,"Ġrank":4263,"Ġstruggle":4264,"Ġquestions":4265,"supp":4266,"Ġannounce":4267,"Ġdescend":4268,"Ġclosely":4269,"Ġlanding":4270,"Ġtranqu":4271,"Ġsoldiers":4272,"Ġanxiety":4273,"Ġsymp":4274,"Ġequal":4275,"Ġpistol":4276,"zza":4277,"Ġincreased":4278,"Ġfaithful":4279,"Ġfatig":4280,"through":4281,"Ġwhispered":4282,"Ġmercy":4283,"Ġgesture":4284,"ĠLouise":4285,"Ġchoose":4286,"Ã¦sar":4287,"olosseum":4288,"Ġanticip":4289,"200":4290,"201":4291,"Debray":4292,"Sire":4293,"_.âĢĿ":4294,"hum":4295,"ior":4296,"kes":4297,"mag":4298,"nal":4299,"oh":4300,"rid":4301,"son":4302,"sat":4303,"Ġtong":4304,"Ġwar":4305,"Ġwip":4306,"Ġwounded":4307,"Ġwaves":4308,"Ġoath":4309,"iture":4310,"org":4311,"Ġbou":4312,"Ġbought":4313,"Ġcash":4314,"Ġtomb":4315,"Ġtoler":4316,"Ġink":4317,"Ġlouis":4318,"Ġrever":4319,"ades":4320,"always":4321,"irth":4322,"Ġmere":4323,"ĠCaptain":4324,"Ġweep":4325,"Ġstra":4326,"theless":4327,"ilt":4328,"allow":4329,"ourse":4330,"aubourg":4331,"Ġlives":4332,"asted":4333,"unger":4334,"Ġneck":4335,"Ġlegs":4336,"Ġhandkerchief":4337,"Ġrolled":4338,"Ġshare":4339,"love":4340,"loved":4341,"Ġremorse":4342,"Ġener":4343,"Ġpreced":4344,"ĠRe":4345,"Ġaccent":4346,"Ġscrutin":4347,"Ġattracted":4348,"Ġglad":4349,"oubled":4350,"Ġarmy":4351,"Ġstock":4352,"Ġpossibly":4353,"Ġcommit":4354,"Ġlighted":4355,"Ġtrem":4356,"Ġsuffering":4357,"Ġadvancing":4358,"serv":4359,"Ġaction":4360,"Ġfalling":4361,"Ġsummon":4362,"Ġhorrible":4363,"Ġslept":4364,"Ġdirection":4365,"Ġbeauty":4366,"hands":4367,"Ġacquired":4368,"Ġconvinced":4369,"Ġconvuls":4370,"Ġtelegraph":4371,"affold":4372,"Ġacquaintance":4373,"Ġarrested":4374,"ĠHowever":4375,"Ġmounted":4376,"Ġbottom":4377,"Ġundert":4378,"Ġdisturb":4379,"Ġbeside":4380,"Ġeleven":4381,"Ġsituation":4382,"Ġgendarme":4383,"Ġfortunate":4384,"Ġpreserved":4385,"Ġestabl":4386,"Ġapparently":4387,"Ġcondemned":4388,"Ġdetermined":4389,"Ġtonight":4390,"Ġwaistcoat":4391,"ĠChristian":4392,"302":4393,"EugÃ©nie":4394,"Just":4395,"Lu":4396,"Two":4397,"book":4398,"col":4399,"gerous":4400,"garden":4401,"hus":4402,"lime":4403,"ma":4404,"pher":4405,"turned":4406,"ĠYour":4407,"Ġaf":4408,"enger":4409,"ones":4410,"Ġbent":4411,"Ġbow":4412,"Ġbread":4413,"Ġbirth":4414,"Ġfond":4415,"Ġfare":4416,"Ġfool":4417,"Ġcru":4418,"llow":4419,"Ġpiast":4420,"Ġheight":4421,"Ġnerv":4422,"Ġloss":4423,"vel":4424,"Ġears":4425,"sto":4426,"Ġbeat":4427,"almost":4428,"riages":4429,"ĠCom":4430,"ĠCocles":4431,"ĠAm":4432,"Ġdocum":4433,"Ġstretched":4434,"orted":4435,"Ġwholly":4436,"acked":4437,"arther":4438,"Ġagitation":4439,"Ġusurper":4440,"Ġunless":4441,"Ġspark":4442,"Ġcontent":4443,"Ġcontents":4444,"Ġplayed":4445,"open":4446,"Ġaccus":4447,"Ġaccident":4448,"notes":4449,"Ġfriendship":4450,"Ġcarb":4451,"Ġexclam":4452,"Ġourselves":4453,"Ġcalling":4454,"Ġhandsome":4455,"Ġpeace":4456,"Ġcommon":4457,"iazza":4458,"Ġgives":4459,"lected":4460,"Ġfearful":4461,"However":4462,"ception":4463,"Ġtalked":4464,"Ġinvited":4465,"Ġannoy":4466,"Ġtrif":4467,"Ġcompany":4468,"ĠChamps":4469,"Ġawaited":4470,"Ġbetrothed":4471,"Ġnaturally":4472,"against":4473,"speak":4474,"Ġcarrying":4475,"Ġcentre":4476,"Ġexactly":4477,"Ġdisturbed":4478,"Ġdestroy":4479,"Ġbrave":4480,"person":4481,"Ġfinger":4482,"Thank":4483,"Ġprecaution":4484,"faction":4485,"Ġpronounced":4486,"Ġmourn":4487,"ChÃ¢teau":4488,"Ġpenetr":4489,"Ġstyle":4490,"Ġpretty":4491,"Ġavoid":4492,"ĠBlacas":4493,"lebrated":4494,"301":4495,"402":4496,"God":4497,"ech":4498,"gy":4499,"mind":4500,"morning":4501,"prom":4502,"prison":4503,"ta":4504,"tra":4505,"ude":4506,"Ġalive":4507,"Ġsn":4508,"Ġsit":4509,"Ġsli":4510,"Ġsighed":4511,"hast":4512,"ita":4513,"itor":4514,"Ġbal":4515,"Ġbird":4516,"Ġburning":4517,"Ġcaught":4518,"lle":4519,"answ":4520,"aries":4521,"Ġpoured":4522,"Ġlines":4523,"Ġrevenge":4524,"left":4525,"Ġbearing":4526,"Ġsaf":4527,"Ġwealth":4528,"lief":4529,"iform":4530,"ĠArab":4531,"raid":4532,"Ġexerc":4533,"ils":4534,"usual":4535,"Ġamaz":4536,"eling":4537,"ĠĠĠĠĠĠĠ":4538,"Ġleaves":4539,"Ġagent":4540,"Ġadopt":4541,"Ġrob":4542,"owner":4543,"ĠGo":4544,"Ġgradually":4545,"Ġentertain":4546,"ables":4547,"returned":4548,"Ġprice":4549,"Ġchamb":4550,"lighted":4551,"Ġexpressed":4552,"Ġaddressing":4553,"Ġdragged":4554,"Ġrecovered":4555,"Ġlock":4556,"Ġpursu":4557,"Ġsilver":4558,"Ġrestore":4559,"Ġmisery":4560,"myself":4561,"Ġwanted":4562,"ajor":4563,"guish":4564,"Ġremaining":4565,"Ġtalking":4566,"Ġforever":4567,"ĠFrenchman":4568,"Ġrelate":4569,"Ġcalmness":4570,"Ġamongst":4571,"Ġportion":4572,"Ġviolently":4573,"Ġbottle":4574,"Which":4575,"Ġpurchase":4576,"ĠCatalans":4577,"Ġdestroyed":4578,"Ġmusic":4579,"acquaint":4580,"Ġbenef":4581,"Ġlabor":4582,"continued":4583,"Ġcloak":4584,"ustrious":4585,"Ġoverwhelmed":4586,"Ġsentinel":4587,"ammered":4588,"Ġnervous":4589,"202":4590,"Ab":4591,"After":4592,"Marseilles":4593,"Was":4594,"bited":4595,"dom":4596,"fice":4597,"gent":4598,"hundred":4599,"ius":4600,"iance":4601,"met":4602,"nce":4603,"pet":4604,"pur":4605,"sim":4606,"yet":4607,"years":4608,"Ġver":4609,"Ġtim":4610,"Ġtest":4611,"Ġtreat":4612,"Ġwore":4613,"Ġsense":4614,"har":4615,"isc":4616,"isher":4617,"Ġbos":4618,"Ġfly":4619,"lling":4620,"Ġdign":4621,"Ġdressing":4622,"Ġpet":4623,"Ġpress":4624,"asures":4625,"idly":4626,"icer":4627,"Ġgay":4628,"cean":4629,"Ġforty":4630,"vering":4631,"Ġdeed":4632,"These":4633,"ĠCucumetto":4634,"Ġstammered":4635,"ranean":4636,"Ġconver":4637,"Ġmanif":4638,"oses":4639,"Ġlie":4640,"aked":4641,"oundation":4642,"Ġamb":4643,"onds":4644,"ĠSinbad":4645,"ĠPiazza":4646,"Ġcomprehe":4647,"Ġmademoiselle":4648,"agraph":4649,"Ġshaking":4650,"ĠTell":4651,"arest":4652,"Ġdeserted":4653,"whom":4654,"opolo":4655,"iously":4656,"Ġworse":4657,"return":4658,"Ġmarquise":4659,"iano":4660,"convers":4661,"conceal":4662,"ĠNot":4663,"Ġguess":4664,"Ġsigns":4665,"Ġservices":4666,"Ġsupposed":4667,"Ġcapt":4668,"Ġperfor":4669,"hole":4670,"ceptible":4671,"yourself":4672,"Ġcondition":4673,"going":4674,"ormous":4675,"Ġcorrespond":4676,"poor":4677,"point":4678,"Ġabsor":4679,"Ġsky":4680,"Ġuttering":4681,"Ġexpecting":4682,"Ġjoin":4683,"present":4684,"Ġcircumstance":4685,"Ġsensation":4686,"Ġhesitated":4687,"Ġcareless":4688,"Ġconcerning":4689,"Ġfingers":4690,"Ġendeavoring":4691,"Ġbecomes":4692,"Ġacknowledge":4693,"Ġemployed":4694,"milly":4695,"vailed":4696,"Ġpictures":4697,"Armilly":4698,"Ġstiff":4699,"Ġquietly":4700,"something":4701,"Ã´tel":4702,"Ġengagement":4703,"Ġwedding":4704,"pherd":4705,";âĢĶ":4706,"Meanwhile":4707,"Perhaps":4708,"Poor":4709,"Upon":4710,"hile":4711,"iable":4712,"kind":4713,"mount":4714,"opp":4715,"ock":4716,"pow":4717,"turn":4718,"went":4719,"Ã®":4720,"Ġtruly":4721,"inated":4722,"rees":4723,"reement":4724,"ision":4725,"eral":4726,"Ġmix":4727,"Ġmantle":4728,"itary":4729,"Ġbol":4730,"Ġflight":4731,"Ġfarther":4732,"Ġcal":4733,"Ġcand":4734,"Ġciv":4735,"Ġcool":4736,"Ġcries":4737,"Ġcrossed":4738,"Ġcoward":4739,"Ġdine":4740,"Ġdish":4741,"Ġpract":4742,"Ġinvent":4743,"Ġlower":4744,"seemed":4745,"Ġrejo":4746,"Ġrenew":4747,"entively":4748,"Ġbeloved":4749,"Ġgreen":4750,"adem":4751,"ĠMal":4752,"Ġascertain":4753,"rive":4754,"rope":4755,"urance":4756,"techamber":4757,"Ġanguish":4758,"ĠCon":4759,"Ġwel":4760,"ters":4761,"antic":4762,"Ġcontem":4763,"alled":4764,"ĠDid":4765,"ooks":4766,"ĠBeau":4767,"Ġaloud":4768,"Ġshot":4769,"Ã©lie":4770,"ĠFoundation":4771,"ĠHÃ´tel":4772,"venue":4773,"umn":4774,"ument":4775,"Ġrub":4776,"Ġshame":4777,"Ġusually":4778,"derer":4779,"Ġspread":4780,"ĠGeneral":4781,"manner":4782,"Ġenthus":4783,"Ġaccused":4784,"Ġchosen":4785,"Ġperceive":4786,"Ġexcitement":4787,"Ġobst":4788,"Ġtelling":4789,"Ġmark":4790,"Ġscaffold":4791,"Ġstepped":4792,"Ġcrimes":4793,"closed":4794,"Ġdistribut":4795,"Ġreturning":4796,"Ġmurder":4797,"prec":4798,"Ġhaste":4799,"Ġremains":4800,"vellous":4801,"Ġstrict":4802,"therefore":4803,"Ġparagraph":4804,"Ġconviction":4805,"Ġrecollection":4806,"Ġ50":4807,"Ġexplain":4808,"Ġrespecting":4809,"conscious":4810,"Ġstriking":4811,"Ġrevealed":4812,"Ġaccepted":4813,"ĠSpain":4814,"Ġimagination":4815,"Ġendeavored":4816,"Ġdangerous":4817,"Ġconducted":4818,"Ġarrange":4819,"trees":4820,"Ġproofs":4821,"Ġcavern":4822,"Ġinquiries":4823,"Ġsituated":4824,"Ġdrive":4825,"Ġframe":4826,"recogn":4827,"Ġsettled":4828,"Ġintelligence":4829,"Ġmessenger":4830,"Ġinnocent":4831,"Ġreproach":4832,"Ġfowl":4833,"complete":4834,"Ġmingled":4835,"Ġsympath":4836,"satis":4837,"Ġtongue":4838,"Ġpiastres":4839,"Ġexclamation":4840,"Ġchambre":4841,"Ġbosom":4842,"Ġcontempl":4843,"During":4844,"bu":4845,"cap":4846,"det":4847,"ealous":4848,"fell":4849,"ggl":4850,"lord":4851,"mpt":4852,"ses":4853,"som":4854,"six":4855,"table":4856,"uge":4857,"wr":4858,"wort":4859,"xy":4860,"xion":4861,"hether":4862,"itc":4863,"orough":4864,"Ġcert":4865,"Ġcul":4866,"Ġtoward":4867,"Ġdim":4868,"Ġhig":4869,"Ġhunger":4870,"Ġpan":4871,"asm":4872,"Ġheat":4873,"atched":4874,"vet":4875,"ids":4876,"stre":4877,"ghorn":4878,"rie":4879,"Ġdecl":4880,"ĠColosseum":4881,"aming":4882,"Ġsevere":4883,"peak":4884,"Ġstup":4885,"ilful":4886,"thousand":4887,"pper":4888,"acity":4889,"ĠVia":4890,"ertained":4891,"ulate":4892,"ember":4893,"estic":4894,"unk":4895,"assed":4896,"ĠSailor":4897,"Ġprovided":4898,"Ġcomfort":4899,"Ġray":4900,"Ġseeking":4901,"agree":4902,"ruct":4903,"Ġretreat":4904,"ĠTur":4905,"ĠTwo":4906,"Ġdisple":4907,"Ġspare":4908,"Ġovercome":4909,"beaut":4910,"believe":4911,"Ġresp":4912,"Ġrespond":4913,"Ġcarriages":4914,"Ġassume":4915,"Ġpersu":4916,"Ġfailed":4917,"Ġgreatly":4918,"ceiving":4919,"Ġheads":4920,"Ġconsol":4921,"Ġpersonal":4922,"Ġsilk":4923,"Ġrefused":4924,"Ġinsult":4925,"actly":4926,"Ġsublime":4927,"Ġmurderer":4928,"remained":4929,"Ġhoriz":4930,"Ġmatters":4931,"ground":4932,"Ġforgive":4933,"ĠThus":4934,"Ġprofit":4935,"Ġabsolute":4936,"asping":4937,"Ġfavorite":4938,"Ġofficers":4939,"Ġmiddle":4940,"Ġprobability":4941,"Ġreflection":4942,"themselves":4943,"Ġprecisely":4944,"occup":4945,"Ġnames":4946,"Ġtrembled":4947,"Ġimportance":4948,"Ġmerit":4949,"ĠNaples":4950,"everything":4951,"ĠCorsica":4952,"Ġpalace":4953,"Ġpolitical":4954,"expression":4955,"Ġadmiration":4956,"Ġgendarmes":4957,"Ġreceipt":4958,"Ġfeverish":4959,"Ġremembered":4960,"Ġstupe":4961,"Ġfruit":4962,"Ġclerk":4963,"Ġaccusation":4964,"300":4965,"Cavalcanti":4966,"Gentlemen":4967,"See":4968,"ais":4969,"bid":4970,"came":4971,"caire":4972,"direct":4973,"equ":4974,"fa":4975,"fam":4976,"find":4977,"gain":4978,"jud":4979,"low":4980,"look":4981,"oke":4982,"rather":4983,"sk":4984,"ys":4985,"Ġtree":4986,"hest":4987,"ism":4988,"orous":4989,"orry":4990,"Ġbore":4991,"Ġbook":4992,"Ġfle":4993,"Ġfood":4994,"Ġfatal":4995,"Ġcat":4996,"Ġdig":4997,"Ġdwell":4998,"escri":4999,"Ġyellow":5000,"ashed":5001,"Ġheir":5002,"Ġhab":5003,"Ġinher":5004,"Ġlest":5005,"Ġlod":5006,"omorrow":5007,"Ġreck":5008,"Ġbeings":5009,"alone":5010,"Ġasleep":5011,"roid":5012,"ĠCÃ¦sar":5013,"andy":5014,"ching":5015,"Ġstones":5016,"Ġextending":5017,"Ġsus":5018,"Ġsust":5019,"Ġkiss":5020,"ardieu":5021,"emon":5022,"using":5023,"apsed":5024,"umber":5025,"ĠSan":5026,"Ġproc":5027,"Ġprov":5028,"Ġrays":5029,"mean":5030,"Ġfee":5031,"Ġagreed":5032,"Ġadieu":5033,"Ġroof":5034,"ĠEast":5035,"Ġuniform":5036,"Ġspace":5037,"cies":5038,"coach":5039,"Ġenormous":5040,"beg":5041,"Ġserve":5042,"Ġmoments":5043,"Ġthrone":5044,"Ġsecure":5045,"Ġconsent":5046,"ext":5047,"Ġsignature":5048,"coming":5049,"Ġfolly":5050,"Ġadvance":5051,"Ġturnkey":5052,"Ġ11":5053,"Ġarrive":5054,"Ġemer":5055,"Ġsooner":5056,"Ġhonorable":5057,"valid":5058,"Ġgrandmother":5059,"Ġputting":5060,"Ġinvol":5061,"Ġinteresting":5062,"Ġdevotion":5063,"grand":5064,"Ġcalmly":5065,"Ġmoon":5066,"happiness":5067,"Ġcerem":5068,"Ġcelebrated":5069,"Ġcompanions":5070,"Ġaffected":5071,"Ġdropped":5072,"voice":5073,"Ġfavorable":5074,"Ġsleeping":5075,"Ġreverend":5076,"Ġbetrayed":5077,"Ġstreets":5078,"Ġwitnesses":5079,"Ġintroduction":5080,"Ġleaned":5081,"Excuse":5082,"Ġhesitation":5083,"appearance":5084,"ĠCatalan":5085,"Ġbecoming":5086,"Ġacknowled":5087,"Ġsmoke":5088,"Ġlux":5089,"Ġexchanged":5090,"Ġindicated":5091,"Ġconstantly":5092,"because":5093,"Ġwithdrew":5094,"question":5095,"Ġthroat":5096,"Ġcorridor":5097,"Ġpallor":5098,"Ġexhausted":5099,"Ġafraid":5100,"Ġcarbine":5101,"Ġsafety":5102,"Ã®mes":5103,"Nay":5104,"Un":5105,"Wait":5106,"bar":5107,"besides":5108,"cor":5109,"cir":5110,"cred":5111,"dif":5112,"del":5113,"horses":5114,"ivers":5115,"ode":5116,"oci":5117,"pic":5118,"position":5119,"rust":5120,"same":5121,"urope":5122,"wait":5123,"zen":5124,"ĠYes":5125,"Ġrig":5126,"Ġtakes":5127,"hered":5128,"Ġaristo":5129,"inet":5130,"inister":5131,"really":5132,"Ġwicked":5133,"Ġsource":5134,"Ġsorry":5135,"Ġocean":5136,"erved":5137,"edy":5138,"Ġmute":5139,"enet":5140,"itate":5141,"Ġbowing":5142,"Ġfun":5143,"Ġfish":5144,"Ġfier":5145,"Ġcig":5146,"Ġda":5147,"Ġdam":5148,"Ġdrank":5149,"ari":5150,"arri":5151,"Ġhorr":5152,"Ġpil":5153,"Ġposit":5154,"Ġhabit":5155,"attered":5156,"set":5157,"Ġgif":5158,"Ġgrew":5159,"Ġthy":5160,"ady":5161,"illing":5162,"Ġur":5163,"Ġancient":5164,"pelini":5165,"chor":5166,"rapped":5167,"respect":5168,"Ġsuit":5169,"oused":5170,"aches":5171,"osal":5172,"ulse":5173,"usal":5174,"ĠFaubourg":5175,"Ġnois":5176,"akened":5177,"indeed":5178,"Ġnearer":5179,"Ġshepherd":5180,"Ġrepl":5181,"Ġrepres":5182,"uming":5183,"ĠPasha":5184,"ĠPopolo":5185,"Ġjest":5186,"Ġjealous":5187,"Ġmadness":5188,"Ġagony":5189,"ĠEx":5190,"Ġshade":5191,"ruary":5192,"Ġmoreover":5193,"dev":5194,"Ġdisgu":5195,"ĠHere":5196,"Ġremarked":5197,"Ġdaylight":5198,"ĠWhile":5199,"oped":5200,"Ġclothes":5201,"Ġchim":5202,"Ġraise":5203,"Ġimpression":5204,"Ġmarvellous":5205,"izes":5206,"ians":5207,"Ġattentively":5208,"ĠNÃ®mes":5209,"Ġconscious":5210,"Ġcalls":5211,"comm":5212,"Ġfortnight":5213,"Ġpear":5214,"Ġtreasures":5215,"Ġfinding":5216,"Ġcapable":5217,"Ġindifference":5218,"serve":5219,"Ġintense":5220,"Ġinsp":5221,"Ġinterrog":5222,"Ġdeprived":5223,"Ġmurdered":5224,"Ġillum":5225,"Ġinterests":5226,"grat":5227,"France":5228,"Ġquestioned":5229,"Ġdrop":5230,"Ġdrove":5231,"Ġbringing":5232,"Ġprayers":5233,"Ġslightly":5234,"Ġcoldly":5235,"Ġ30":5236,"Ġlaws":5237,"Ġembroid":5238,"Ġpermit":5239,"Ġpermitted":5240,"Ġbelonging":5241,"Ġprevented":5242,"board":5243,"Ġtemp":5244,"Ġfurniture":5245,"Ġexception":5246,"Ġobey":5247,"Ġdefend":5248,"Ġpurchased":5249,"evening":5250,"world":5251,"Ġfastened":5252,"Ġtouching":5253,"Ġhurry":5254,"ebruary":5255,"Ġphysician":5256,"Ġdisplayed":5257,"Ġinnkeeper":5258,"Ġelectronic":5259,"Ġcreature":5260,"Ġsmugglers":5261,"Ġsurrounded":5262,"perfect":5263,"Ġmortal":5264,"limited":5265,"Ġtranquill":5266,"Ġtolerably":5267,"Ġstraight":5268,"conversation":5269,"Ġresponded":5270,"escribable":5271,"50":5272,"Barrois":5273,"Imp":5274,"Le":5275,"Or":5276,"baron":5277,"cence":5278,"draw":5279,"either":5280,"got":5281,"gion":5282,"good":5283,"gging":5284,"ives":5285,"last":5286,"sus":5287,"Ġing":5288,"Ġid":5289,"Ġtall":5290,"Ġtired":5291,"rect":5292,"Ġwon":5293,"Ġsqu":5294,"Ġopera":5295,"issed":5296,"eno":5297,"Ġban":5298,"Ġbare":5299,"Ġfac":5300,"Ġfla":5301,"Ġcord":5302,"Ġclaim":5303,"Ġtown":5304,"another":5305,"Ġpit":5306,"Ġpra":5307,"Ġpick":5308,"Ġpaused":5309,"Ġpacket":5310,"asons":5311,"leave":5312,"Ġelo":5313,"Ġbehold":5314,"Ġsacred":5315,"Ġthorough":5316,"adier":5317,"Ġnotwithstanding":5318,"road":5319,"ctual":5320,"tember":5321,"ament":5322,"Ġstar":5323,"resist":5324,"ilence":5325,"ĠDe":5326,"ouses":5327,"Ġornam":5328,"Ġliqu":5329,"Ġlibr":5330,"Ġvague":5331,"unged":5332,"uscan":5333,"ĠFlore":5334,"ĠFebruary":5335,"ĠHas":5336,"Ġamid":5337,"eless":5338,"ĠSelim":5339,"ĠPenelon":5340,"Ġleg":5341,"Ġfears":5342,"Ġagreement":5343,"dead":5344,"Ġdisd":5345,"ignation":5346,"Ġcontaining":5347,"Ġoutside":5348,"ĠGeno":5349,"Ġgrant":5350,"Ġdesk":5351,"perate":5352,"Ġplans":5353,"Ġclasped":5354,"plom":5355,"eptember":5356,"necess":5357,"Ġworn":5358,"Ġeverywhere":5359,"Ġeverybody":5360,"Ġassert":5361,"Ġspeech":5362,"brought":5363,"Ġparts":5364,"Ġhoarse":5365,"excell":5366,"Ġordinary":5367,"Ġendure":5368,"closure":5369,"ĠOpera":5370,"Ġcommission":5371,"arned":5372,"days":5373,"Ġindul":5374,"Ġperform":5375,"Ġprompt":5376,"Ġmiserable":5377,"ensive":5378,"Ġintentions":5379,"Ġfourth":5380,"Ġdeparted":5381,"Ġvisitors":5382,"Ġcareer":5383,"ubian":5384,"Ġcharged":5385,"Ġswall":5386,"Ġvel":5387,"Ġveil":5388,"Ġincred":5389,"Ġincome":5390,"Ġcomposed":5391,"Ġ28":5392,"Ġgetting":5393,"Ġharbor":5394,"Ġforgot":5395,"fortunately":5396,"pocket":5397,"Ġcomplexion":5398,"Ġcircle":5399,"Ġrecollected":5400,"Ġbroke":5401,"consid":5402,"ĠChamber":5403,"Ġawaiting":5404,"Ġreveal":5405,"Ġnecessity":5406,"secret":5407,"Ġintroduced":5408,"Ġbarrier":5409,"accustomed":5410,"Ġshipowner":5411,"chance":5412,"Ġjournal":5413,"Ġfurnished":5414,"Ġgallery":5415,"Ġrunning":5416,"work":5417,"Ġdegrees":5418,"Ġselfish":5419,"Thanks":5420,"Ġcollected":5421,"Ġprecautions":5422,"Ġmodern":5423,"Ġmirac":5424,"Ġeduc":5425,"conduct":5426,"Ġconveyed":5427,"Ġpursued":5428,"Ġfamiliar":5429,"Ġerror":5430,"Ġadventure":5431,"ividual":5432,"Ġfrag":5433,"Ġfatigue":5434,"Ġfarewell":5435,"stopped":5436,"Ġdocuments":5437,"Ġmournful":5438,"Ġabsorbed":5439,"Ġculpr":5440,"emonade":5441,"Ġeloqu":5442,"Ġlibrary":5443,"25":5444,"29":5445,"Dear":5446,"French":5447,"Some":5448,"away":5449,"cab":5450,"carcely":5451,"di":5452,"eune":5453,"fif":5454,"gress":5455,"lay":5456,"mad":5457,"master":5458,"ners":5459,"natur":5460,"oli":5461,"rim":5462,"sound":5463,"wind":5464,"yr":5465,"Ġtap":5466,"inite":5467,"Ġthee":5468,"Ġwo":5469,"Ġwide":5470,"Ġwretch":5471,"Ġsink":5472,"Ġmaint":5473,"Ġmatch":5474,"itions":5475,"orto":5476,"Ġbrief":5477,"Ġfisher":5478,"Ġcoun":5479,"Ġcatch":5480,"Ġtot":5481,"Ġtoken":5482,"Ġdazz":5483,"Ġhosp":5484,"esc":5485,"Ġpressing":5486,"asants":5487,"Ġinvalid":5488,"idity":5489,"lere":5490,"Ġetern":5491,"Ġbeard":5492,"Ġones":5493,"ĠMay":5494,"Ġnotes":5495,"Ġdeb":5496,"Ġantechamber":5497,"Ġweeks":5498,"ntin":5499,"keep":5500,"Ġstage":5501,"ilities":5502,"rise":5503,"Ġshown":5504,"ĠHonor":5505,"Ġamuse":5506,"Ġrepose":5507,"ordered":5508,"Ġleaped":5509,"Ġhandle":5510,"Ġadjo":5511,"Ġgoes":5512,"ĠEurope":5513,"cial":5514,"Ġotherwise":5515,"Ġplate":5516,"Ġplaces":5517,"Ġplunged":5518,"Ġbride":5519,"abs":5520,"abled":5521,"Ġaccur":5522,"Ġclub":5523,"Ġexcite":5524,"Ġthrowing":5525,"Ġassurance":5526,"Ġobed":5527,"Ġobsc":5528,"Ġimpert":5529,"Ġattached":5530,"Ġcover":5531,"conv":5532,"ranches":5533,"Ġconspir":5534,"exam":5535,"âĢľâĢĺâĢľ":5536,"tyard":5537,"Ġbegged":5538,"Ġvoy":5539,"Ġvoices":5540,"ailed":5541,"Ġpeasant":5542,"Ġlightning":5543,"lets":5544,"ĠCountess":5545,"Ġeste":5546,"Ġunderstanding":5547,"Ġrested":5548,"Ġrestored":5549,"ĠJust":5550,"Ġtraced":5551,"served":5552,"Ġ10":5553,"countenance":5554,"eclere":5555,"Ġinterposed":5556,"Ġinterview":5557,"Ġsubst":5558,"Ġdeadly":5559,"Ġstruggl":5560,"urious":5561,"Ġinterested":5562,"Ġobserve":5563,"?âĢĻâĢĶâĢĺ":5564,"utenant":5565,"formation":5566,"ĠThree":5567,"Ġdescending":5568,"uesnel":5569,"Ġlandlord":5570,"Ġutterly":5571,"attle":5572,"Ġkeeping":5573,"ĠStill":5574,"Ġprobable":5575,"Ġexecuted":5576,"Ġgrateful":5577,"Ġproduce":5578,"Ġtrying":5579,"Ġmerchant":5580,"Ġtempt":5581,"ĠLeghorn":5582,"ĠLegion":5583,"Exactly":5584,"Ġpoliteness":5585,"Ġspectators":5586,"Ġangle":5587,"Ġconcerned":5588,"Ġdescription":5589,"struck":5590,"recollect":5591,"Ġemploy":5592,"Ġluck":5593,"Ġconsequently":5594,"Ġexchange":5595,"Ġrestrain":5596,"Ġgenerous":5597,"Ġbrigand":5598,"Ġbrigadier":5599,"Ġstrove":5600,"Ġprincipal":5601,"Ġinhabited":5602,"Ġchoice":5603,"ĠKing":5604,"Ġfulfil":5605,"ology":5606,"Ġvillage":5607,"Ġdesirous":5608,"Ġappointed":5609,"Ġassembly":5610,"Ġsummoned":5611,"colored":5612,"Ġamazement":5613,"Ġperformed":5614,"Ġcoolness":5615,"worthy":5616,"Ġhorizon":5617,"Ġstupefied":5618,"Ġhorror":5619,"Ġreplaced":5620,"Ġvelvet":5621,"Cha":5622,"Can":5623,"Has":5624,"Look":5625,"ald":5626,"bur":5627,"done":5628,"down":5629,"host":5630,"ips":5631,"lain":5632,"mocc":5633,"phe":5634,"pense":5635,"uff":5636,"Ġta":5637,"inen":5638,"Ġwid":5639,"Ġsan":5640,"Ġsick":5641,"eries":5642,"Ġmor":5643,"Ġmil":5644,"enched":5645,"once":5646,"itating":5647,"Ġfreed":5648,"Ġcardinal":5649,"Ġdust":5650,"asked":5651,"asili":5652,"Ġhang":5653,"Ġinj":5654,"ĠInd":5655,"Ġreaching":5656,"leaving":5657,"stri":5658,"ental":5659,"Ġbearer":5660,"Ġbeheld":5661,"Ġgroom":5662,"Ġthou":5663,"ĠMe":5664,"ĠMed":5665,"ĠMajor":5666,"although":5667,"alities":5668,"Ġforbid":5669,"urch":5670,"Ġwear":5671,"Ġweap":5672,"pended":5673,"Ġstation":5674,"Ġsob":5675,"ilion":5676,"ĠDon":5677,"ĠDuring":5678,"thod":5679,"elling":5680,"accompan":5681,"Ġvan":5682,"Ġcounted":5683,"emet":5684,"astrop":5685,"Ġshout":5686,"ights":5687,"ĠSee":5688,"ĠSeptember":5689,"ĠPray":5690,"Ġard":5691,"Ġrum":5692,"Ġwhenever":5693,"Ġgod":5694,"ĠEach":5695,"Ġunusual":5696,"ĠTuscan":5697,"dep":5698,"Ġimm":5699,"ĠLeclere":5700,"Ġgrow":5701,"Ġgray":5702,"whose":5703,"onsense":5704,"Ġplaying":5705,"Ġbrut":5706,"Ġclosing":5707,"Ġperceiving":5708,"near":5709,"Ġoffering":5710,"ainty":5711,"Ġpresume":5712,"Ġthrust":5713,"Ġimprison":5714,"Ġmarble":5715,"pleasant":5716,"Ġattract":5717,"Ġattacked":5718,"Ġbold":5719,"Ġhollow":5720,"feeling":5721,"axe":5722,"ĠNubian":5723,".âĢĻâĢĶâĢĺ":5724,"Ġhearts":5725,"Ġdistant":5726,"does":5727,"Ġloaded":5728,"ĠJeune":5729,"Ġtraver":5730,"Ġtraces":5731,"Ġoccur":5732,"Ġutmost":5733,"Does":5734,"country":5735,"Ġstrangers":5736,"Ġcourtyard":5737,"Ġdeputy":5738,"Ġforms":5739,"Ġregister":5740,"cribed":5741,"Ġdifference":5742,"Ġuseful":5743,"Ġsixty":5744,"Ġhasten":5745,"issary":5746,"Ġforest":5747,"Ġpropose":5748,"Ġillustrious":5749,"Ġcorrect":5750,"Ġduel":5751,"Ġdetails":5752,"Ġadmit":5753,"Ġfifth":5754,"Ġfootsteps":5755,"Ġelapsed":5756,"Ġhumble":5757,"Ġprofession":5758,"fold":5759,"Ġtransp":5760,"ĠCorso":5761,"Ġstrike":5762,"ĠTepelini":5763,"Ġprepare":5764,"Ġbelonged":5765,"Ġdisposed":5766,"Ġlantern":5767,"Ġeaten":5768,"Ġcreated":5769,"Ġhungry":5770,"Ġefforts":5771,"visit":5772,"volution":5773,"Ġpreviously":5774,"Ġheavily":5775,"Ġclouds":5776,"untarily":5777,"Ġpicture":5778,"Ġrecalled":5779,"break":5780,"Ġsuspicion":5781,"Ġhardly":5782,"Ġtenderness":5783,"Ġregarded":5784,"Ġpiercing":5785,"lexand":5786,"Ġdistinctly":5787,"aturday":5788,"Ġlifted":5789,"Ġdeclared":5790,"Ġascended":5791,"Ġtheatre":5792,"Ġorigin":5793,"Ġcomrade":5794,"Ġdistinguish":5795,"Ġcoffee":5796,"Ġparalytic":5797,"Ġcopyright":5798,"ĠQuesnel":5799,"Ġmotive":5800,"Ġfolded":5801,"Ġanticipated":5802,"human":5803,"Ġweeping":5804,"Ġtremble":5805,"Ġcomprehend":5806,"ĠBeaucaire":5807,"agreeable":5808,"Ġembroidered":5809,"Ġtranquillity":5810,"Ġdisdain":5811,"Ġmiraculous":5812,"11":5813,";âĢĻ":5814,"Adieu":5815,"Car":5816,"Edward":5817,"Honor":5818,"NT":5819,"Peppino":5820,"Prec":5821,"Suddenly":5822,"Tis":5823,"_,âĢĿ":5824,"bility":5825,"cast":5826,"captain":5827,"cicer":5828,"ded":5829,"dest":5830,"dig":5831,"evid":5832,"gra":5833,"ghed":5834,"grace":5835,"ki":5836,"lict":5837,"oom":5838,"pes":5839,"pay":5840,"rat":5841,"rich":5842,"sign":5843,"succ":5844,"uable":5845,"uced":5846,"uzz":5847,"wild":5848,"whether":5849,"Ġtied":5850,"Ġavail":5851,"inv":5852,"iny":5853,"instant":5854,"reated":5855,"reason":5856,"Ġwings":5857,"Ġwrapped":5858,"Ġsize":5859,"isite":5860,"Ġbod":5861,"Ġfund":5862,"Ġcree":5863,"Ġtow":5864,"ancy":5865,"Ġdry":5866,"Ġdared":5867,"Ġdug":5868,"Ġpaint":5869,"Ġpushed":5870,"Ġhero":5871,"athed":5872,"atory":5873,"Ġlying":5874,"Ġlemonade":5875,"iculous":5876,"Ġrese":5877,"Ġrelig":5878,"Ġreasons":5879,"lev":5880,"entric":5881,"Ġbelow":5882,"Ġsack":5883,"Ġgard":5884,"Ġgild":5885,"Ġgently":5886,"utions":5887,"uties":5888,"adm":5889,"also":5890,"irmed":5891,"Ġasking":5892,"riolet":5893,"Ġmethod":5894,"etite":5895,"tol":5896,"top":5897,"Ġseizing":5898,"tering":5899,"lio":5900,"ĠAlexand":5901,"Ġcontempt":5902,"Ġkissed":5903,"ources":5904,"acher":5905,"ospo":5906,"arshal":5907,"ems":5908,"Ġaltogether":5909,"aston":5910,"Ġshr":5911,"Ġshowing":5912,"uses":5913,"aker":5914,"ĠHad":5915,"ccentric":5916,"ela":5917,"Ġrepent":5918,"Ġreputation":5919,"ĠSon":5920,"ĠSome":5921,"ĠPont":5922,"ĠPerhaps":5923,"Ġprospect":5924,"ieves":5925,"rup":5926,"Ġunited":5927,"Ġunconscious":5928,"ilet":5929,"ende":5930,"Ġimpl":5931,"Ġremove":5932,"Ġprecious":5933,"Ġprevailed":5934,"ĠRita":5935,"Ġaccess":5936,"Ġclasping":5937,"Ġpassport":5938,"plain":5939,"pless":5940,"Ġchurch":5941,"Ġcargo":5942,"Ġworked":5943,"Ġspec":5944,"Ġspend":5945,"Ġrace":5946,"Ġmarch":5947,"Ġcoast":5948,"Ġgoodness":5949,"Ġapplied":5950,"Ġinstruct":5951,"Ġmeanwhile":5952,"Ġreaders":5953,"Ġconsult":5954,"Ġconsisted":5955,"Ġwishing":5956,"command":5957,"Ġanswering":5958,"Ġterrified":5959,"Ġminds":5960,"Ġcapr":5961,"Ġmission":5962,"ouncing":5963,"Ġintimate":5964,"Ġfourteen":5965,"Ġdepths":5966,"Ġvisiting":5967,"Ġchanging":5968,"Ġfearing":5969,"Ġsmiles":5970,"Ġregular":5971,"cript":5972,"Ġsurely":5973,"Ġpointing":5974,"Ġinfam":5975,"Ġsecretaire":5976,"Ġcheck":5977,"Ġtalent":5978,"Ġdelir":5979,"govern":5980,"cureur":5981,"Ġrelative":5982,"Ġpaying":5983,"Ġfixing":5984,"Ġinvitation":5985,"Ġveins":5986,"Ġcomply":5987,"Ġadmitted":5988,"Ġ20":5989,"longer":5990,"disappeared":5991,"Ġgolden":5992,"Ġbuilt":5993,"Ġclever":5994,"Ġfreely":5995,"Ġgloves":5996,"ermain":5997,"Ġdestined":5998,"cannot":5999,"attention":6000,"Ġportra":6001,"Ġdelightful":6002,"Ġfinish":6003,"asket":6004,"Ġpunish":6005,"Ġembra":6006,"ĠYet":6007,"Ġobjects":6008,"Ġequally":6009,"Ġpaternal":6010,"Ġintroduce":6011,"box":6012,"quisite":6013,"Without":6014,"While":6015,"Ġcustoms":6016,"Ġinquiry":6017,"Ġspectacle":6018,"Ġfainted":6019,"Ġcomplain":6020,"Ġprivile":6021,"Ġsucceed":6022,"aterial":6023,"Ġstarting":6024,"Ġdeny":6025,"Ġdiscus":6026,"Ġcommunication":6027,"Ġencoun":6028,"Ġwonder":6029,"Ġwonderful":6030,"ĠMarquis":6031,"Ġventure":6032,"became":6033,"words":6034,"Ġ1815":6035,"Ġsacrifice":6036,"Ġpursue":6037,"Ġcomrades":6038,"Ġvarious":6039,"Ġprudent":6040,"plicity":6041,"Ġtorture":6042,"Ġbuilding":6043,"Ġowing":6044,"Ġhitherto":6045,"Ġelegant":6046,"Ġriches":6047,"Luigi":6048,"ĠAmÃ©lie":6049,"Ġtrifling":6050,"travell":6051,"concealed":6052,"Ġsympathy":6053,"strength":6054,"Ġfuneral":6055,"natural":6056,"Ġadjoining":6057,"emetery":6058,"Precisely":6059,"Ġgilded":6060,"ospoli":6061,"15":6062,"23":6063,"27":6064,"Am":6065,"Besides":6066,"Benedetto":6067,"Doubtless":6068,"Faria":6069,"Give":6070,"May":6071,"Say":6072,"Sinbad":6073,"Te":6074,"bing":6075,"bow":6076,"bly":6077,"bank":6078,"cour":6079,"creat":6080,"don":6081,"dering":6082,"dream":6083,"felt":6084,"hib":6085,"mur":6086,"maj":6087,"sol":6088,"sper":6089,"saw":6090,"sleep":6091,"tran":6092,"try":6093,"yl":6094,"Ġtro":6095,"heaven":6096,"Ġav":6097,"inf":6098,"inces":6099,"instead":6100,"reet":6101,"Ġsouth":6102,"eding":6103,"Ġmaid":6104,"ontain":6105,"itality":6106,"oration":6107,"Ġbills":6108,"Ġbonds":6109,"Ġbranches":6110,"Ġhide":6111,"Ġpour":6112,"Ġincon":6113,"Ġlinen":6114,"immediately":6115,"ĠeB":6116,"Ġended":6117,"Ġelder":6118,"Ġeccentric":6119,"stra":6120,"cended":6121,"Ġthieves":6122,"ldom":6123,"ading":6124,"alv":6125,"already":6126,"ĠâĢľ_":6127,"verty":6128,"rol":6129,"tee":6130,"Ġanchor":6131,"Ġseam":6132,"Ġstated":6133,"Ġstag":6134,"antity":6135,"ilhan":6136,"ousers":6137,"gered":6138,"osited":6139,"Ġliber":6140,"Ġvirt":6141,"ĠBou":6142,"Ã©r":6143,"Ġnobility":6144,"Ġshed":6145,"onde":6146,"Ġupstairs":6147,"Ġcomb":6148,"Ġabode":6149,"Ġunpleasant":6150,"ĠTH":6151,"ĠTake":6152,"Ġcontented":6153,"ĠLi":6154,"ĠWill":6155,"ĠGood":6156,"Ġgranted":6157,"covered":6158,"Ġenv":6159,"Ġprefect":6160,"Ġpassion":6161,"become":6162,"Ġworst":6163,"Ġoffend":6164,"uding":6165,"Ġexcess":6166,"Ġbless":6167,"Ġassoci":6168,"Ġrage":6169,"lessly":6170,"Ġcolle":6171,"Ġthoughtful":6172,"ĠNever":6173,"mbers":6174,"Ġreadily":6175,"Ġlasted":6176,"introdu":6177,"compl":6178,"Ġlights":6179,"Ġdraught":6180,"doir":6181,"Ġterm":6182,"Ġloves":6183,"Ġwaiter":6184,"Ġsupposing":6185,"Ġtrace":6186,"Ġindescribable":6187,"Ġindividual":6188,"Ġ15":6189,"Ġ100":6190,"Ġpromises":6191,"ension":6192,"Ġawakened":6193,"Ġacted":6194,"Ġdiplom":6195,"actor":6196,"armela":6197,"Ġsentiment":6198,"Ġransom":6199,"Ġextrem":6200,"willing":6201,"Ġbreaking":6202,"whole":6203,"Ġchemist":6204,"bye":6205,"Ġsounded":6206,"Ġrisen":6207,"Ġveh":6208,"Ġvex":6209,"Ġ27":6210,"Ġmode":6211,"understood":6212,"Ġexamine":6213,"Ġexamination":6214,"Ġexamining":6215,"Ġabsent":6216,"Ġskill":6217,"Ġskilful":6218,"Ġoccupy":6219,"eech":6220,"Ġgazing":6221,"smile":6222,"Ġartist":6223,"Ġarticle":6224,"Ġruined":6225,"Ġexisted":6226,"Ġpunctual":6227,"Ġbreathe":6228,"Ġmarrying":6229,"Ġphial":6230,"Ġsympt":6231,"Ġjoined":6232,"Ġbelongs":6233,"Ġjewels":6234,"boat":6235,"Ġclearly":6236,"Ġfurnish":6237,"Ġrival":6238,"Ġsplendor":6239,"Ġprotector":6240,"Ġanxiously":6241,"Ġdescribed":6242,"Ġadmirable":6243,"possess":6244,"Ġsupported":6245,"Ġsolitude":6246,"iterary":6247,"Ġfrown":6248,"Ġremarkable":6249,"Ġunfortunately":6250,"Ġreceiving":6251,"ĠArch":6252,"Ġconsequence":6253,"Ġsettle":6254,"Ġweakness":6255,"Ġspringing":6256,"Ġintelligent":6257,"Ġaccomplished":6258,"Ġstroke":6259,"Ġimpatience":6260,"lexible":6261,"Ġappreci":6262,"Ġdeclare":6263,"Ġresistance":6264,"Ġconnected":6265,"Ġpreparing":6266,"Ġreminded":6267,"ĠUnited":6268,"Ġaudience":6269,"Ġspirit":6270,"Ġconcluded":6271,"Ġabandoned":6272,"Ġnarrow":6273,"Ġwiped":6274,"Ġcruel":6275,"Ġcaptivity":6276,"Ġpicturesque":6277,"Ġwelcome":6278,"itchen":6279,"Ġrespons":6280,"Ġabsolutely":6281,"Ġacknowledged":6282,"Ġaristocr":6283,"baroness":6284,"Ġpickaxe":6285,"necessary":6286,"Ġobedience":6287,"Ġobscurity":6288,"HonorÃ©":6289,"cicerone":6290,"success":6291,"ontaine":6292,"Ġsymptoms":6293,"203":6294,"303":6295,"Before":6296,"Bah":6297,"De":6298,"Hush":6299,"ME":6300,"Pardon":6301,"Speak":6302,"_;":6303,"aved":6304,"bation":6305,"best":6306,"both":6307,"ca":6308,"care":6309,"during":6310,"erer":6311,"fin":6312,"gar":6313,"gall":6314,"gue":6315,"hish":6316,"honor":6317,"iom":6318,"mo":6319,"nut":6320,"pun":6321,"post":6322,"power":6323,"rand":6324,"round":6325,"sent":6326,"sure":6327,"ton":6328,"ture":6329,"ugn":6330,"vat":6331,"vous":6332,"wit":6333,"Åĵ":6334,"Ġtorn":6335,"Ġtask":6336,"Ġwis":6337,"Ġwave":6338,"Ġstern":6339,"ouched":6340,"isible":6341,"iscu":6342,"erra":6343,"eds":6344,"Ġmal":6345,"Ġmult":6346,"Ġmask":6347,"encies":6348,"âĢĿâĢĶ":6349,"orable":6350,"Ġbase":6351,"Ġbade":6352,"Ġcush":6353,"ang":6354,"anx":6355,"ante":6356,"Ġdict":6357,"Ġdining":6358,"artol":6359,"Ġhouses":6360,"Ġpred":6361,"Ġparent":6362,"Ġpiano":6363,"Ġnur":6364,"Ġlater":6365,"oting":6366,"icense":6367,"Ġreass":6368,"Ġgates":6369,"illot":6370,"ioness":6371,"iring":6372,"Ġung":6373,"urd":6374,"today":6375,"ĠCan":6376,"ĠCardinal":6377,"terror":6378,"nta":6379,"Ġstraw":6380,"Ġsupre":6381,"Ġsuitable":6382,"things":6383,"acom":6384,"Ġmanaged":6385,"augh":6386,"Ġalliance":6387,"Ġlivid":6388,"Ġalas":6389,"Ġalter":6390,"astic":6391,"Ġknee":6392,"Ġshirt":6393,"ĠFive":6394,"Ġsheet":6395,"igantic":6396,"elp":6397,"umult":6398,"umph":6399,"ĠPr":6400,"ĠPet":6401,"Ġhashish":6402,"orders":6403,"olt":6404,"Ġfeast":6405,"Ġmadman":6406,"others":6407,"Ġunivers":6408,"deep":6409,"depart":6410,"Ġdisappear":6411,"Ġremedy":6412,"ĠLucc":6413,"Ġpoet":6414,"Ġpope":6415,"ĠGu":6416,"Ġgrasped":6417,"Ġgroup":6418,"Ġdeserve":6419,"many":6420,"Ġenabled":6421,"Ġpled":6422,"ĠRospoli":6423,"Ġfriendly":6424,"Ġpersec":6425,"fulness":6426,"Ġblame":6427,"retion":6428,"Ġappeal":6429,"Ġprayed":6430,"Ġrare":6431,"Ġrail":6432,"lieved":6433,"Ġscar":6434,"Ġscream":6435,"Ġattire":6436,"Ġattribut":6437,"concern":6438,"sole":6439,"Ġpartly":6440,"Ġhole":6441,"fear":6442,"Ġvision":6443,"oubles":6444,"Ġsignified":6445,"Ġsignify":6446,"Ġcrushed":6447,"oubted":6448,"ĠOri":6449,"Ġsincere":6450,"ometimes":6451,"Ġpurple":6452,"Ġconfined":6453,"Ġconfirmed":6454,"Ġsilently":6455,"Ġtrack":6456,"Ġinduce":6457,"Ġawake":6458,"Ġrequisite":6459,"duced":6460,"Ġseconds":6461,"Ġwants":6462,"Ġgranddaughter":6463,"Ġregards":6464,"arms":6465,"Ġextent":6466,"Ġextingu":6467,"Ġinfinite":6468,"Ġsecrets":6469,"Ġsecretary":6470,"Ġdrawer":6471,"Ġproport":6472,"Ġdecor":6473,"sunta":6474,"Ġearly":6475,"Ġswim":6476,"Ġinvisible":6477,"Ġveiled":6478,"Ġcomprom":6479,"Ġharm":6480,"Ġtriump":6481,"Ġcease":6482,"Ġskin":6483,"Ġstudied":6484,"Ġhelm":6485,"Ġvessels":6486,"appoint":6487,"Ġcasting":6488,"Ġutterance":6489,"Ġeffectually":6490,"Ġexplained":6491,"Ġrespectfully":6492,"small":6493,"eye":6494,"ĠStates":6495,"scarcely":6496,"ĠChar":6497,"impossible":6498,"stantin":6499,"Ġbreathed":6500,"Ġquarrel":6501,"Ġwitnessed":6502,"Ġmotioned":6503,"second":6504,"ĠAllÃ©es":6505,"tremb":6506,"Ġsocial":6507,"Ġsadness":6508,"Ġsatisfaction":6509,"Ġprincess":6510,"Ġexcepting":6511,"Ġvaluable":6512,"Ġpolitics":6513,"ĠPalais":6514,"minutes":6515,"marriage":6516,"Ġbeseech":6517,"Ġdescribe":6518,"possession":6519,"Ġformerly":6520,"given":6521,"Ġyielded":6522,"Ġfortunes":6523,"iterranean":6524,"Ġprojects":6525,"Ġhurried":6526,"Ġanimal":6527,"Ġencir":6528,"Ġmourning":6529,"Ġcravat":6530,"Ġpenetrate":6531,"Ġsuspicions":6532,"Ġdecidedly":6533,"Ġprinciples":6534,"Ġauthority":6535,"Ġimpatiently":6536,"Ġsacrific":6537,"Ġcalculated":6538,"Ġfamilies":6539,"Ġrecommend":6540,"Ġearnestly":6541,"Ġvigor":6542,"Ġenerget":6543,"Ġambition":6544,"Ġstupid":6545,"beautiful":6546,"family":6547,"Ġflew":6548,"Ġemerald":6549,"Ġceremony":6550,"Ġgift":6551,"Ġrepresent":6552,"Ġchimney":6553,"Ġsquare":6554,"Ġthoroughly":6555,"Ġculprit":6556,"Ġconspiracy":6557,"Ġvoyage":6558,"asiliki":6559,"ĠMeilhan":6560,"Ġbrutal":6561,"wildered":6562,"Ġportrait":6563,"majesty":6564,"Ġvehicle":6565,"Ġaristocratic":6566,"Ġsupreme":6567,"18":6568,"19":6569,"Baptistin":6570,"Don":6571,"Fel":6572,"Father":6573,"Gutenberg":6574,"Ju":6575,"Pray":6576,"Pardieu":6577,"bro":6578,"cur":6579,"cry":6580,"eight":6581,"fellow":6582,"gne":6583,"husband":6584,"lad":6585,"listen":6586,"mem":6587,"money":6588,"nay":6589,"pi":6590,"pen":6591,"pent":6592,"pul":6593,"rated":6594,"rase":6595,"sen":6596,"tes":6597,"tree":6598,"taken":6599,"upp":6600,"viol":6601,"wall":6602,"watch":6603,"xic":6604,"zure":6605,"Ã¯":6606,"Ġ...":6607,"Ġtailor":6608,"hem":6609,"heme":6610,"Ġaven":6611,"Ġaug":6612,"inher":6613,"inence":6614,"inci":6615,"Ġsong":6616,"Ġsides":6617,"oust":6618,"Ġod":6619,"oring":6620,"Ġbid":6621,"Ġble":6622,"Ġbiscu":6623,"Ġfill":6624,"Ġfest":6625,"Ġfaces":6626,"Ġcav":6627,"Ġdarted":6628,"Ġdumb":6629,"Ġdashed":6630,"inging":6631,"ara":6632,"arks":6633,"arched":6634,"Ġphant":6635,"Ġyards":6636,"assemb":6637,"Ġhaught":6638,"ato":6639,"Ġnation":6640,"Ġlat":6641,"omach":6642,"otions":6643,"othal":6644,"velo":6645,"imag":6646,"Ġrele":6647,"Ġreward":6648,"Ġeating":6649,"strange":6650,"enter":6651,"entire":6652,"Ġbelief":6653,"Ġgrie":6654,"uting":6655,"ĠMeanwhile":6656,"rolled":6657,"Ġmember":6658,"Ġmembers":6659,"text":6660,"hern":6661,"ĠCl":6662,"amma":6663,"Ġweather":6664,"Ġweary":6665,"terrible":6666,"teroom":6667,"ifferent":6668,"Ġdog":6669,"Ġdozen":6670,"anth":6671,"ravo":6672,"Ġsolic":6673,"Ġexquisite":6674,"elled":6675,"Ġwilling":6676,"omeo":6677,"account":6678,"Ġorg":6679,"ulated":6680,"istr":6681,"ĠBour":6682,"ĠBorg":6683,"Ġaltered":6684,"aping":6685,"Ġrepast":6686,"ĠSund":6687,"ĠPorto":6688,"Ġarbor":6689,"Ġrush":6690,"ols":6691,"mere":6692,"meet":6693,"means":6694,"Ġhandful":6695,"Ġadvers":6696,"Ġadored":6697,"Ġrolling":6698,"Ġshake":6699,"Ġusing":6700,"mented":6701,"Ġdisagreeable":6702,"Ġspent":6703,"Ġgrowing":6704,"Ġgrasp":6705,"Ġdesperate":6706,"manteau":6707,"perceived":6708,"Ġpretended":6709,"ĠRo":6710,"Ġclass":6711,"Ġcloth":6712,"Ġrespected":6713,"Ġresigned":6714,"Ġbeforehand":6715,"Ġrarely":6716,"Ġimpro":6717,"Ġboots":6718,"Ġglancing":6719,"soon":6720,"fere":6721,"exec":6722,"hension":6723,"Ġdownstairs":6724,"Ġcontinue":6725,"Ġbegun":6726,"Ġexped":6727,"Ġaddition":6728,"ĠOF":6729,"Ġrightly":6730,"Ġlocked":6731,"Ġpersonage":6732,"Ġsupply":6733,"Ġadvise":6734,"Ġtravel":6735,"Ġpresenting":6736,"ulties":6737,"Ġawaken":6738,"Ġawoke":6739,"Ġactive":6740,"Ġactions":6741,"amped":6742,"Ġflatter":6743,"Ġflash":6744,"Ġsubter":6745,"astern":6746,"Ġwanting":6747,"Ġcareful":6748,"Ġsentence":6749,"cription":6750,"spap":6751,"Ġopposition":6752,"Ġsummit":6753,"Ġforeign":6754,"Ġmagic":6755,"Ġmasters":6756,"Ġinvest":6757,"Ġinvite":6758,"Ġduly":6759,"Ġmoving":6760,"Ġparad":6761,"Ġdiscovery":6762,"happened":6763,"ificant":6764,"Ġabsurd":6765,"Ġlaughed":6766,"Ġevidence":6767,"ermine":6768,"Ġrecollections":6769,"pray":6770,"Ġrapidity":6771,"Ġdram":6772,"Ġofficial":6773,"Ġviolence":6774,"Ġburnt":6775,"Ġhorseback":6776,"carried":6777,"Ġdreams":6778,"Ġembarr":6779,"Ġjoke":6780,"betr":6781,"Ġdisposal":6782,"speaking":6783,"apartment":6784,"black":6785,"Ġassassination":6786,"Ġguilt":6787,"Ġaffectionate":6788,"partic":6789,"friends":6790,"Ġsufferings":6791,"Ġfancies":6792,"Ġincrease":6793,"Ġdriven":6794,"Ġcabriolet":6795,"Ġinclined":6796,"Ġexpressive":6797,"iastic":6798,"Ġcommunicated":6799,"Ġassassinated":6800,"Ġbreathless":6801,"Ġbench":6802,"Ġdisplay":6803,"Ġsafely":6804,"Ġstatue":6805,"Everything":6806,"Ġpatient":6807,"Ġconvey":6808,"Ġshrugging":6809,"Ġwounds":6810,"approached":6811,"Ġtheatres":6812,"Ġoriginal":6813,"Ġsurround":6814,"polit":6815,"police":6816,"Ġfashionable":6817,"Ġafforded":6818,"Ġplainly":6819,"Ġabandon":6820,"Ġrecommended":6821,"Ġdomestic":6822,"Ġreverie":6823,"Ġenergy":6824,"servant":6825,"Ġconvulsively":6826,"Ġsparkling":6827,"answer":6828,"Ġadopted":6829,"acquaintance":6830,"Ġbenefactor":6831,"Ġmanifested":6832,"Ġcarelessly":6833,"mounted":6834,"ademark":6835,"recognized":6836,"Ġdispleased":6837,"Ġcatastrop":6838,"Ġinherit":6839,"Ġprovide":6840,"circumst":6841,"Ġdamask":6842,"Ġpilot":6843,"Ġpositively":6844,"Ġconsciousness":6845,"ĠFlorence":6846,"excellency":6847,"Ġswallowed":6848,"Ġeducation":6849,"moccolet":6850,"Ġstationed":6851,"ondego":6852,"artolomeo":6853,"Ġtriumphant":6854,"stantinople":6855,"Felice":6856,"Julie":6857,"41":6858,"93":6859,"99":6860,"Arab":6861,"En":6862,"Engl":6863,"Emmanuel":6864,"Had":6865,"Having":6866,"Jacqu":6867,"Most":6868,"None":6869,"OU":6870,"Our":6871,"Penelon":6872,"Read":6873,"Ten":6874,"Yet":6875,"aic":6876,"bou":6877,"bably":6878,"beneath":6879,"bury":6880,"bolt":6881,"cert":6882,"cled":6883,"certainly":6884,"doubtless":6885,"fric":6886,"gence":6887,"gave":6888,"gentle":6889,"grief":6890,"hor":6891,"hung":6892,"ien":6893,"iven":6894,"ially":6895,"jour":6896,"ka":6897,"lor":6898,"los":6899,"line":6900,"mid":6901,"mus":6902,"miss":6903,"moved":6904,"non":6905,"ocked":6906,"oxy":6907,"pat":6908,"pared":6909,"sal":6910,"sum":6911,"swe":6912,"shad":6913,"script":6914,"tis":6915,"vre":6916,"vive":6917,"wood":6918,"Ãª":6919,"Ġtumult":6920,"hear":6921,"Ġazure":6922,"inha":6923,"reached":6924,"Ġwin":6925,"Ġwand":6926,"Ġwax":6927,"Ġsank":6928,"outer":6929,"Ġoper":6930,"Ġmate":6931,"onne":6932,"onored":6933,"âĢľâĢĻ":6934,"ites":6935,"itations":6936,"orious":6937,"Ġbounded":6938,"Ġfer":6939,"Ġfinal":6940,"Ġfasc":6941,"Ġcaut":6942,"Ġcemetery":6943,"Ġtore":6944,"llen":6945,"ana":6946,"Ġder":6947,"Ġdried":6948,"Ġdaring":6949,"inges":6950,"arg":6951,"arte":6952,"aration":6953,"Ġhinges":6954,"Ġpris":6955,"Ġpull":6956,"Ġpasha":6957,"Ġyard":6958,"Ġhall":6959,"Ġlosing":6960,"stone":6961,"step":6962,"Ġwhither":6963,"Ġgle":6964,"Ġthin":6965,"Ġiss":6966,"verb":6967,"Ġmeas":6968,"Ġmechan":6969,"Ġunt":6970,"Ġupper":6971,"ette":6972,"Ġmyst":6973,"Ġdemon":6974,"Ġsevent":6975,"Ġsending":6976,"Ġsealed":6977,"Ġseldom":6978,"Ġwearing":6979,"terior":6980,"liest":6981,"living":6982,"chie":6983,"ĠAdieu":6984,"Ġstories":6985,"orts":6986,"Ġexagger":6987,"ranite":6988,"quick":6989,"effect":6990,"gend":6991,"acha":6992,"acious":6993,"Ġvest":6994,"emp":6995,"Ġaltern":6996,"Ġknocked":6997,"Ã©serve":6998,"ĠFontaine":6999,"aparte":7000,"Ġnephe":7001,"ĠHouse":7002,"ĠHermine":7003,"Ġthence":7004,"Ġrepugn":7005,"ĠSaturday":7006,"ĠPer":7007,"Ġarch":7008,"Ġproper":7009,"cks":7010,"merely":7011,"laves":7012,"Ġshared":7013,"Ġcane":7014,"Ġdispose":7015,"Ġquantity":7016,"ĠHelder":7017,"ĠLiterary":7018,"ĠWhere":7019,"Ġenchant":7020,"Ġprejud":7021,"Ġpretext":7022,"Ġplot":7023,"Ġbrings":7024,"Ġclim":7025,"Ġfoam":7026,"chaise":7027,"placed":7028,"Ġchose":7029,"Ġblessed":7030,"Ġours":7031,"Ġchain":7032,"pleasure":7033,"Ġattach":7034,"Ġnevertheless":7035,"Ġapply":7036,"brother":7037,"Ġglances":7038,"Ġinstr":7039,"ĠNights":7040,"Ġstopping":7041,"inted":7042,"Ġcontinually":7043,"compre":7044,"Ġexpired":7045,"Ġfollows":7046,"Ġfortress":7047,"Ġpeer":7048,"Ġpeasants":7049,"Ġcommissary":7050,"Ġlightly":7051,"icket":7052,"Ġtreated":7053,"Ġkeeper":7054,"Ġlog":7055,"Ġsufficed":7056,"Ġsupplied":7057,"Ġtroubles":7058,"Ġrefer":7059,"Ġrefuge":7060,"ighteen":7061,"Ġindepend":7062,"Ġgirls":7063,"Ġacting":7064,"Ġinterfere":7065,"Ġflame":7066,"Ġsurve":7067,"Ġsurface":7068,"Ġappearing":7069,"ottle":7070,"Ġsetting":7071,"spread":7072,"Ġpossesses":7073,"Ġbankrupt":7074,"idential":7075,"Ġcheerful":7076,"Ġpolite":7077,"rememb":7078,"Ġpropri":7079,"uries":7080,"ĠAssunta":7081,"ĠProven":7082,"Ġgracious":7083,"Ġdeepest":7084,"Ġannum":7085,"Ġ25":7086,"Ġfootman":7087,"Ġbestowed":7088,"Ġboxes":7089,"Ġtriumph":7090,"Ġbuy":7091,"Ġconversing":7092,"atience":7093,"Ġcloset":7094,"Ġlanded":7095,"foot":7096,"aspard":7097,"Ġprayer":7098,"icient":7099,"Ġpostilion":7100,"ieux":7101,"Ġdrunk":7102,"Ġcostumes":7103,"Ġartic":7104,"Ġ300":7105,"Ġcolumn":7106,"Ġpoisoned":7107,"import":7108,"Ġseats":7109,"Ġphrase":7110,"Ġrevel":7111,"Ġhighly":7112,"uileries":7113,"Ġ40":7114,"Ġdonations":7115,"better":7116,"Ġnumb":7117,"anyone":7118,"ortunately":7119,"blood":7120,"Ġcourageous":7121,"Ġgravely":7122,"Ġgalley":7123,"Ġinquiring":7124,"marry":7125,"Ġelev":7126,"replied":7127,"Ġpreserve":7128,"Ġexperience":7129,"Ġprojected":7130,"Ġcurtains":7131,"Ġrecompense":7132,"Ġringing":7133,"millions":7134,"Ġmedium":7135,"Ġpronounce":7136,"Ġcommunicate":7137,"Ġexecutioner":7138,"vived":7139,"Ġtransact":7140,"Ġdrinking":7141,"Ġmiracle":7142,"thoughts":7143,"Ġshock":7144,"........":7145,"Ġcondemn":7146,"Ġphysical":7147,"Ġstifled":7148,"Ġrestrained":7149,"Ġparticularly":7150,"Ġextremely":7151,"Ġremembrance":7152,"sometimes":7153,"Ġlimited":7154,"Ġdelicate":7155,"Ġdelicacy":7156,"Ġascend":7157,"Ġdistinguished":7158,"Ġprudence":7159,"misfortune":7160,"Ġthunderbolt":7161,"decla":7162,"Ġspirits":7163,"hensible":7164,"fallen":7165,"Ġvigil":7166,"Ġwiping":7167,"ĠComte":7168,"Ġsparkled":7169,"Ġpenetrating":7170,"ĠArabian":7171,"Ġexercise":7172,"About":7173,"Ġdignity":7174,"Ġpractice":7175,"Ġrenewed":7176,"Ġenthusiastic":7177,"Ġobstacle":7178,"satisfied":7179,"build":7180,"Ġcertainty":7181,"Ġhigher":7182,"yss":7183,"Ġdwelling":7184,"Ġsuspected":7185,"Ġprocured":7186,"grandfather":7187,"diffic":7188,"Ġfiery":7189,"Ġpearls":7190,"Ġtempest":7191,"perfectly":7192,"Impossible":7193,"ĠGenoese":7194,"Ġfragments":7195,"fifty":7196,"Ġhospitality":7197,"Ġfreedom":7198,"Ġtraversed":7199,"Ġtower":7200,"Ġmarchioness":7201,"Teresa":7202,"Ġstaggered":7203,"Ġextremity":7204,"Åĵu":7205,"ĠLucca":7206,"oubtedly":7207,"ĠCharles":7208,"anthrop":7209,"ĠBorgia":7210,"ĠSunday":7211,"Jacques":7212,"oxysm":7213,"Ġnephew":7214,"comprehensible":7215,".âĢĶ":7216,"45":7217,"49":7218,"75":7219,"Antin":7220,"Con":7221,"Com":7222,"Cocles":7223,"Eh":7224,"Ferra":7225,"Her":7226,"Help":7227,"LU":7228,"RE":7229,"Scarcely":7230,"Stop":7231,"Would":7232,"Zacc":7233,"bum":7234,"bors":7235,"corn":7236,"course":7237,"def":7238,"doubt":7239,"ele":7240,"elect":7241,"fing":7242,"fur":7243,"iasm":7244,"lost":7245,"monte":7246,"move":7247,"making":7248,"matter":7249,"narr":7250,"phan":7251,"slight":7252,"sail":7253,"suddenly":7254,"tle":7255,"tal":7256,"times":7257,"true":7258,"ww":7259,"want":7260,"wish":7261,"wished":7262,"women":7263,"Ãł":7264,"Ġouter":7265,"Ġtur":7266,"Ġtart":7267,"Ġtax":7268,"Ġtasted":7269,"Ġaim":7270,"inent":7271,"inco":7272,"intell":7273,"real":7274,"receive":7275,"Ġsorr":7276,"Ġoh":7277,"eration":7278,"erves":7279,"Ġmaterial":7280,"Ġbill":7281,"Ġbun":7282,"Ġbull":7283,"Ġbooks":7284,"Ġbattle":7285,"Ġfled":7286,"Ġcard":7287,"Ġcook":7288,"Ġcasket":7289,"Ġtoilet":7290,"anim":7291,"Ġdil":7292,"Ġdate":7293,"Ġdamp":7294,"Ġdagger":7295,"arran":7296,"Ġhy":7297,"Ġhol":7298,"eslay":7299,"Ġpir":7300,"Ġpains":7301,"Ġpowers":7302,"ashing":7303,"ashes":7304,"atist":7305,"attempt":7306,"Ġlake":7307,"Ġlaughter":7308,"omed":7309,"idable":7310,"seven":7311,"iche":7312,"icide":7313,"least":7314,"Ġep":7315,"stif":7316,"stretched":7317,"Ġbeating":7318,"Ġbewildered":7319,"Ġgranite":7320,"Ġthirst":7321,"utor":7322,"ĠMondego":7323,"alf":7324,"irg":7325,"iration":7326,"urs":7327,"Ġate":7328,"Ġdeceive":7329,"Ġanteroom":7330,"ĠCape":7331,"ames":7332,"lips":7333,"liberty":7334,"pel":7335,"people":7336,"chool":7337,"Ġdose":7338,"Ġstates":7339,"Ġstomach":7340,"antastic":7341,"Ġexhib":7342,"reshold":7343,"ranch":7344,"ilbury":7345,"Ġconstru":7346,"quar":7347,"alling":7348,"third":7349,"thirty":7350,"ache":7351,"acles":7352,"Ġmanage":7353,"ĠVen":7354,"ules":7355,"Ġvio":7356,"Ġcountries":7357,"uster":7358,"empt":7359,"emotion":7360,"ĠBartolomeo":7361,"Ġshone":7362,"unning":7363,"Ġnod":7364,"ĠHoly":7365,"Ġamusing":7366,"uments":7367,"assion":7368,"ĠSh":7369,"ĠSalv":7370,"Ġarmed":7371,"Ġprogress":7372,"Ġlevel":7373,"Ġjump":7374,"Ġrushing":7375,"Ġabyss":7376,"mend":7377,"Ġagents":7378,"Ġunjust":7379,"Ġunlimited":7380,"Ġunwilling":7381,"Ġretain":7382,"Ġretract":7383,"erfect":7384,"ĠToul":7385,"lod":7386,"Ġdislike":7387,"Ġdiscern":7388,"Ġdischar":7389,"Ġqueen":7390,"Ġspr":7391,"Ġspade":7392,"igns":7393,"ĠListen":7394,"Ġsmell":7395,"oday":7396,"ĠWas":7397,"ĠGard":7398,"Ġgrating":7399,"Ġdesert":7400,"cold":7401,"permit":7402,"Ġplants":7403,"nessed":7404,"ĠRom":7405,"Ġclenched":7406,"bear":7407,"pled":7408,"Ġresidence":7409,"Ġreserved":7410,"Ġresources":7411,"Ġcarved":7412,"Ġworking":7413,"Ġthinks":7414,"Ġassent":7415,"Ġimpress":7416,"izier":7417,"plend":7418,"Ġscru":7419,"Ġsecurity":7420,"Ġapplic":7421,"ixed":7422,"brilliant":7423,"conc":7424,"Ġwherever":7425,"Ġglit":7426,"Ġglided":7427,"Ġsteam":7428,"Ġhappily":7429,"Ġguides":7430,"Ġcrush":7431,"Ġaffirm":7432,"forth":7433,"sels":7434,"viding":7435,"Ġdrag":7436,"Ġdraft":7437,"Ġtreacher":7438,"Ġbelieving":7439,"Ġpleasant":7440,"Ġtram":7441,"Ġtrousers":7442,"Ġconfusion":7443,"Ġconfirm":7444,"Ġrefusal":7445,"Ġindisc":7446,"Ġindifferent":7447,"Ġfeels":7448,"Ġmonarch":7449,"enses":7450,"Ġactually":7451,"Ġdivided":7452,"Ġintim":7453,"Ġemotions":7454,"hope":7455,"enevol":7456,"Ġrequires":7457,"Ġdeposited":7458,"Ġflower":7459,"noon":7460,"Ġsimplicity":7461,"Ġapprobation":7462,"Ġoppose":7463,"Ġsummer":7464,"uriosity":7465,"Ġdecision":7466,"Ġcharmed":7467,"Ġrelating":7468,"Ġsatin":7469,"Ġcompared":7470,"Ġadmire":7471,"Ġobserving":7472,"Ġ200":7473,"Ġmoist":7474,"Ġcontrad":7475,"Ġladder":7476,"prise":7477,"ĠEngland":7478,"eppo":7479,"Ġcompleted":7480,"contr":7481,"Ġredoubled":7482,"Ġaccounts":7483,"ĠCarlos":7484,"protect":7485,"Ġ500":7486,"Ġeffects":7487,"Only":7488,"Ġcrying":7489,"Ġfinally":7490,"Ġruins":7491,"Ġsubjects":7492,"Ġdreamed":7493,"Ġstriving":7494,"Ġshuddering":7495,"Ġpoisoner":7496,"Ġlawy":7497,"Ġawaits":7498,"desired":7499,"Ġembrace":7500,"Ġimagined":7501,"ĠOnly":7502,"president":7503,"Ġboats":7504,"Ġoblig":7505,"ĠAlas":7506,"Ġrequested":7507,"Ġrealize":7508,"Ġdisposition":7509,"Ġmountains":7510,"Ġtemper":7511,"Ġfirmly":7512,"change":7513,"Ġreports":7514,"Stay":7515,"Ġcomplaint":7516,"Ġprotection":7517,"married":7518,"Ġobtaining":7519,"Ġadmirably":7520,"possessed":7521,"Ġpowder":7522,"Ġyielding":7523,"Ġfigures":7524,"Ġinclination":7525,"Ġsolitary":7526,"Ġridiculous":7527,"Ġexpressly":7528,"singular":7529,"bbing":7530,"Project":7531,"Providence":7532,"Ġproceeding":7533,"Ġleague":7534,"confess":7535,"Ġgenius":7536,"Ġvictims":7537,"Ġstatement":7538,"Ġstatues":7539,"chestra":7540,"Ġerect":7541,"Ġauthorities":7542,"Ġinhabit":7543,"Everyone":7544,"hours":7545,"oupÃ©":7546,"Ġlimbs":7547,"Ġpatiently":7548,"Ġneglig":7549,"Ġimperceptible":7550,"companion":7551,"Ġwooden":7552,"Ġcreatures":7553,"Ġinnocence":7554,"Ġwithdraw":7555,"Ġresembled":7556,"Ġdelivered":7557,"Ġroyalist":7558,"subject":7559,"Ġphilosoph":7560,"Ġcouch":7561,"Ġpreceded":7562,"Ġpreceding":7563,"Ġundertake":7564,"Ġestablishment":7565,"Ġpenetrated":7566,"Ġbirds":7567,"Ġconverse":7568,"Ġmanifest":7569,"Ġcorrespondent":7570,"ĠConstantinople":7571,"Ġarrangements":7572,"completely":7573,"Ġpersuade":7574,"occupied":7575,"Ġreckon":7576,"Ġsustained":7577,"Ġfeeble":7578,"Unfortunately":7579,"delmonte":7580,"Ġrigid":7581,"ineteen":7582,"Ġnoisy":7583,"Ġillumined":7584,"Ġingen":7585,"Ġornamented":7586,"Ġliquid":7587,"Ġtapest":7588,"absence":7589,"Ġesteem":7590,"Ġforbidden":7591,"accompanied":7592,"Ġfunds":7593,"levard":7594,"Ġgardener":7595,"ĠAlexander":7596,"Ġinstructions":7597,"Ġdelirium":7598,"Ġembraced":7599,"Ġcushions":7600,"Ġnurse":7601,"trembling":7602,"Ġencircled":7603,"memory":7604,"Ġbiscuit":7605,"English":7606,"gentleman":7607,"Ġprisons":7608,"Ġtroublesome":7609,"Ferrajo":7610,"Zaccone":7611,"intellig":7612,"Ġsorrows":7613,"07":7614,"79":7615,"Again":7616,"Bravo":7617,"Cucumetto":7618,"Half":7619,"IS":7620,"IT":7621,"Mar":7622,"OLU":7623,"Qu":7624,"Rem":7625,"Such":7626,"Since":7627,"Signor":7628,"Selim":7629,"ball":7630,"bac":7631,"bel":7632,"bage":7633,"cine":7634,"cost":7635,"calm":7636,"courage":7637,"dem":7638,"div":7639,"fy":7640,"fire":7641,"favor":7642,"frequently":7643,"gener":7644,"gotten":7645,"green":7646,"hili":7647,"high":7648,"ient":7649,"kers":7650,"laugh":7651,"mod":7652,"motion":7653,"nature":7654,"obe":7655,"por":7656,"pois":7657,"possible":7658,"rs":7659,"ral":7660,"rus":7661,"rina":7662,"rna":7663,"sir":7664,"sac":7665,"va":7666,"vity":7667,"woman":7668,"zy":7669,"á½":7670,"ĠZaccone":7671,"Ġtast":7672,"Ġtaught":7673,"Ġtilbury":7674,"inement":7675,"inari":7676,"reci":7677,"received":7678,"repro":7679,"Ġwise":7680,"iscount":7681,"Ġmild":7682,"Ġmoust":7683,"itive":7684,"itious":7685,"ormy":7686,"Ġbay":7687,"Ġburn":7688,"Ġbag":7689,"Ġbathed":7690,"Ġbenevol":7691,"Ġflock":7692,"Ġcart":7693,"Ġcases":7694,"Ġtools":7695,"anter":7696,"anger":7697,"Ġdined":7698,"Ġdiction":7699,"Ġduties":7700,"around":7701,"Ġhue":7702,"Ġhunt":7703,"Ġpond":7704,"Ġpause":7705,"Ġpicked":7706,"Ġnations":7707,"Ġlist":7708,"otest":7709,"vels":7710,"separ":7711,"Ġren":7712,"Ġrevived":7713,"lean":7714,"learned":7715,"Ġeighteen":7716,"stud":7717,"Ġbeast":7718,"Ġbeque":7719,"Ġbehalf":7720,"Ġgame":7721,"Ġgigantic":7722,"Ġthither":7723,"Ġthreshold":7724,"ĠMont":7725,"Ġaspect":7726,"etta":7727,"Ġdeck":7728,"Ġdepended":7729,"anded":7730,"Ġsearched":7731,"liage":7732,"ĠAc":7733,"Ġstormy":7734,"orta":7735,"Ġsobs":7736,"Ġsovere":7737,"iles":7738,"ilosop":7739,"Ġconvent":7740,"quer":7741,"ques":7742,"quiet":7743,"Ġsugg":7744,"Ġsuspect":7745,"Ġkitchen":7746,"ousin":7747,"acable":7748,"Ġorchestra":7749,"Ġalle":7750,"Ġallude":7751,"ĠVasiliki":7752,"ĠViscount":7753,"erture":7754,"osa":7755,"ulsion":7756,"Ġvamp":7757,"istic":7758,"ests":7759,"ĠBab":7760,"ĠBeppo":7761,"Ġalbum":7762,"Ġknock":7763,"Ġnearest":7764,"ĠHaving":7765,"Ġshel":7766,"igation":7767,"assass":7768,"ĠSince":7769,"ĠSmy":7770,"ĠSometimes":7771,"Ġproverb":7772,"Ġrou":7773,"Ġrate":7774,"Ġrough":7775,"Ġhanded":7776,"Ġgoat":7777,"ĠEastern":7778,"ruction":7779,"rucine":7780,"Ġunion":7781,"Ġretained":7782,"Ġretreated":7783,"ĠTuileries":7784,"dear":7785,"locked":7786,"Ġthanked":7787,"Ġdisappoint":7788,"Ġsomewhere":7789,"Ġcontain":7790,"Ġcontact":7791,"ĠLond":7792,"Ġeyel":7793,"Ġpoverty":7794,"Ġfathers":7795,"Ġgrass":7796,"Ġdesires":7797,"Ġprey":7798,"Ġpretend":7799,"Ġentertained":7800,"Ġplanted":7801,"ĠRuth":7802,"ĠRÃ©serve":7803,"Ġovertake":7804,"Ġclung":7805,"Ġclump":7806,"Ġresignation":7807,"Ġchin":7808,"forgotten":7809,"Ġperpet":7810,"Ġserpent":7811,"udes":7812,"Ġblows":7813,"Ġraces":7814,"Ġimpulse":7815,"Ġmarks":7816,"Ġattitude":7817,"Ġappl":7818,"Ġappetite":7819,"Ġboast":7820,"sold":7821,"Ġnamely":7822,"Ġparted":7823,"Ġstead":7824,"Ġexceed":7825,"Ġreadiness":7826,"expl":7827,"excuse":7828,"Ġhappens":7829,"Ġguided":7830,"ĠOur":7831,"Ġmenacing":7832,"Ġsufferer":7833,"Ġsupplic":7834,"Ġtrademark":7835,"Ġresting":7836,"Ġdoubted":7837,"Ġrefr":7838,"Ġrefresh":7839,"Ġspeaks":7840,"ulture":7841,"shot":7842,"Ġinsist":7843,"Ġinserted":7844,"rooms":7845,"Ġdeprive":7846,"Ġvisits":7847,"Ġsubstit":7848,"earth":7849,"Ġsurpass":7850,"Ġforming":7851,"proof":7852,"procureur":7853,"noble":7854,"ĠInstead":7855,"prevent":7856,"ibou":7857,"spo":7858,"gues":7859,"cession":7860,"Ġinfant":7861,"Ġsails":7862,"Ġslee":7863,"Ġeasier":7864,"Ġdelayed":7865,"oplexy":7866,"gold":7867,"Ġrelation":7868,"Ġgrapes":7869,"ormandy":7870,"Ġswam":7871,"Ġdetain":7872,"Ġobserv":7873,"Ġobservation":7874,"Ġ21":7875,"Ġbandage":7876,"Ġparoxysm":7877,"Ġharsh":7878,"Ġelbow":7879,"Ġbestow":7880,"Ġdespatch":7881,"Ġceiling":7882,"ification":7883,"Ġfacts":7884,"Island":7885,"Ġrecital":7886,"Ġcastle":7887,"folio":7888,"months":7889,"Ġpraying":7890,"Ġdestiny":7891,"Ġneeded":7892,"Ġpostscript":7893,"Ġtravellers":7894,"Once":7895,"smiling":7896,"ĠCorsinari":7897,"object":7898,"obtain":7899,"observed":7900,"ĠJuly":7901,"Although":7902,"Ġbury":7903,"Ġburden":7904,"Ġcolors":7905,"Ġhoping":7906,"Ġlowered":7907,"Ġpunished":7908,"Ġeighty":7909,"Ġbetray":7910,"Ġjudges":7911,"Ġcommanded":7912,"ferred":7913,"ĠAlb":7914,"Ġnumerous":7915,"anything":7916,"apartments":7917,"everyone":7918,"help":7919,"accur":7920,"accord":7921,"ĠGreece":7922,"afterwards":7923,"bitious":7924,"however":7925,"Ġmountain":7926,"Ġsadly":7927,"Ġpaler":7928,"!âĢĻâĢĿ":7929,"Ġshadows":7930,"Ġseriously":7931,"Ġsends":7932,"Ġriver":7933,"Ġribb":7934,"Ġspectre":7935,"Ġsorrowful":7936,"ĠPalace":7937,"Ġprotected":7938,"Ġassuredly":7939,"Ġmillionaire":7940,"minister":7941,"Ġcharacters":7942,"giving":7943,"persons":7944,"Ġbitterly":7945,"Ġsearching":7946,"Ġwhisper":7947,"ĠArgent":7948,"Ġdifficulties":7949,"Ġanimation":7950,"Ġenjoyed":7951,"Ġaccomplish":7952,"Ġdetermination":7953,"azzo":7954,"Ġtones":7955,"Ġpreferred":7956,"Ã´ne":7957,"Ġ700":7958,"Ġattendants":7959,"rendered":7960,"Ġpatience":7961,"Ġshrugged":7962,"afÃ©":7963,"Ġsmuggler":7964,"Ġresembling":7965,"Ġdeliver":7966,"Ġbutton":7967,"Ġbuttons":7968,"Ġconnection":7969,"Ġgraceful":7970,"Ġgracefully":7971,"advanced":7972,"ussÃ©e":7973,"Ġpreparations":7974,"Ġthreatened":7975,"Ġtortures":7976,"Ġmeantime":7977,"Ġappointment":7978,"Ġphilosophy":7979,"ĠQu":7980,"inquir":7981,"ascal":7982,"Ġgarb":7983,"Ġconclusion":7984,"hensions":7985,"Ġcouple":7986,"Ġannouncement":7987,"Ġboudoir":7988,"Ġcommittee":7989,"Ġconvulsive":7990,"Ġestablished":7991,"Ġfoolish":7992,"Ġtrifle":7993,"Ġpursuing":7994,"Ġpetition":7995,"opposite":7996,"Ġmixed":7997,"Ġmixture":7998,"Ġcalash":7999,"Ġdishonor":8000,"Ġenthusiasm":8001,"capital":8002,"determ":8003,"Ġhighest":8004,"faith":8005,"Ġlodge":8006,"began":8007,"Ġinvoluntarily":8008,"waiting":8009,"enetian":8010,"Ġcigar":8011,"Ġcigars":8012,"Ġdaily":8013,"Ġjealousy":8014,"Ġinspired":8015,"drawing":8016,"Ġbanks":8017,"resistible":8018,"Ġmaintain":8019,"Ġdazzled":8020,"Ġeternal":8021,"Ġsubstance":8022,"Ġbrigands":8023,"Ġmilitary":8024,"rateful":8025,"Ġreligious":8026,"Ġcaprices":8027,"Ġinfamous":8028,"court":8029,"Ġseaman":8030,"ĠArchive":8031,"Ġwisdom":8032,"Ġparents":8033,"Ġungrateful":8034,"acombs":8035,"ĠPeter":8036,"Ġenergetic":8037,"Ġhaughty":8038,"istrates":8039,"execution":8040,"frica":8041,"Ġmeasured":8042,"Ġmystery":8043,"emplo":8044,"Ġrepugnance":8045,"eleine":8046,"Ġbunch":8047,"ĠSalvieux":8048,"Ġingenious":8049,"OLUME":8050,"bacco":8051,"motionless":8052,"ĠSmyrna":8053,"ĠRuthven":8054,"ĠArgentina":8055,"35":8056,"39":8057,"53":8058,"77":8059,"CT":8060,"EN":8061,"Fo":8062,"Flore":8063,"General":8064,"Germain":8065,"HÃ©":8066,"Me":8067,"More":8068,"Nap":8069,"Poss":8070,"Rue":8071,"Silence":8072,"Tomorrow":8073,"Vampa":8074,"_?âĢĿ":8075,"_âĢĶ":8076,"ahis":8077,"ailles":8078,"bal":8079,"bra":8080,"bus":8081,"bons":8082,"cra":8083,"curiosity":8084,"coupÃ©":8085,"dro":8086,"died":8087,"dark":8088,"double":8089,"ev":8090,"event":8091,"fac":8092,"furn":8093,"fig":8094,"free":8095,"full":8096,"filled":8097,"field":8098,"gard":8099,"gutenberg":8100,"hip":8101,"ipe":8102,"iÃ¨re":8103,"kish":8104,"lit":8105,"lance":8106,"large":8107,"mmediately":8108,"mission":8109,"mosp":8110,"nor":8111,"nes":8112,"ox":8113,"ope":8114,"oble":8115,"pret":8116,"pressed":8117,"pardon":8118,"run":8119,"rink":8120,"sy":8121,"situ":8122,"scure":8123,"slave":8124,"taking":8125,"turning":8126,"uity":8127,"vor":8128,"vas":8129,"vices":8130,"wishes":8131,"Ġident":8132,"Ġtig":8133,"Ġalighted":8134,"Ġavenue":8135,"Ġarise":8136,"Ġachie":8137,"inst":8138,"inate":8139,"Ġwaking":8140,"Ġwaving":8141,"Ġsou":8142,"Ġsom":8143,"Ġsoup":8144,"hair":8145,"hamed":8146,"istered":8147,"erman":8148,"Ġmut":8149,"enes":8150,"onies":8151,"onial":8152,"itan":8153,"itors":8154,"ora":8155,"Ġbac":8156,"Ġbars":8157,"Ġbree":8158,"Ġbranch":8159,"Ġfishing":8160,"Ġfrank":8161,"Ġfurious":8162,"Ġchat":8163,"Ġcousin":8164,"arition":8165,"arches":8166,"arrived":8167,"Ġpant":8168,"Ġprel":8169,"Ġpaced":8170,"Ġincomprehensible":8171,"athe":8172,"atre":8173,"athered":8174,"Ġnay":8175,"Ġlit":8176,"Ġling":8177,"Ġlately":8178,"ĠIndeed":8179,"sect":8180,"Ġreven":8181,"Ġrela":8182,"Ġrecess":8183,"Ġreappeared":8184,"Ġrevive":8185,"lead":8186,"Ġecon":8187,"stem":8188,"enth":8189,"entrance":8190,"owry":8191,"Ġsand":8192,"Ġgn":8193,"cend":8194,"Ġthread":8195,"ĠMan":8196,"ĠMess":8197,"ĠMarch":8198,"ĠMany":8199,"Ġwaste":8200,"Ġashamed":8201,"Ġug":8202,"Ġatmosp":8203,"ctors":8204,"Ġdearest":8205,"herself":8206,"herry":8207,"told":8208,"ĠCarmela":8209,"ĠCafÃ©":8210,"ams":8211,"andrÃ©":8212,"Ġselect":8213,"Ġselected":8214,"âĢĶ_":8215,"ifully":8216,"ĠApri":8217,"ĠAdelmonte":8218,"Ġstayed":8219,"Ġstables":8220,"rap":8221,"raised":8222,"rapid":8223,"Ġsofa":8224,"ilty":8225,"Ġconstit":8226,"Ġcongrat":8227,"quite":8228,"Ġkings":8229,"ĠDu":8230,"ĠDes":8231,"ĠDep":8232,"thus":8233,"accompl":8234,"Ġmansion":8235,"Ġmankind":8236,"Ġorphan":8237,"ĠVenetian":8238,"ĠTheir":8239,"Ġliked":8240,"Ġvow":8241,"Ġvivid":8242,"emperor":8243,"estrina":8244,"astian":8245,"Ġshield":8246,"unless":8247,"apse":8248,"indifference":8249,"igli":8250,"venience":8251,"Ġamused":8252,"Ġamiable":8253,"elcome":8254,"Ġreplace":8255,"ĠSic":8256,"ĠSuddenly":8257,"ĠPe":8258,"ĠPres":8259,"ĠPlace":8260,"Ġupright":8261,"Ġaroused":8262,"Ġproving":8263,"Ġprovis":8264,"Ġprosper":8265,"Ġrain":8266,"Ġrust":8267,"Ġratt":8268,"laid":8269,"Ġaged":8270,"agues":8271,"agna":8272,"Ġshares":8273,"Ġuncom":8274,"Ġunheard":8275,"Ġanywhere":8276,"Ġanybody":8277,"delight":8278,"Ġdiss":8279,"Ġdisgrace":8280,"Ġdisinher":8281,"Ġintoxic":8282,"ĠLook":8283,"ĠLicense":8284,"Ġoutward":8285,"Ġgrown":8286,"avement":8287,"Ġaperture":8288,"Ġenable":8289,"Ġenclosure":8290,"abbÃ©":8291,"ĠRh":8292,"ĠRoy":8293,"oping":8294,"opening":8295,"Ġoverheard":8296,"Ġclut":8297,"Ġpasses":8298,"behind":8299,"Ġresc":8300,"Ġresource":8301,"forget":8302,"neigh":8303,"Ġcarries":8304,"Ġimprud":8305,"ilial":8306,"Ġscattered":8307,"Ġattain":8308,"Ġattired":8309,"conn":8310,"consequ":8311,"Ġsteel":8312,"ĠNormandy":8313,"Ġconsist":8314,"expect":8315,"Ġgulf":8316,"Ġguards":8317,"Ġsignals":8318,"Ġbegins":8319,"Ġpace":8320,"Ġexpressing":8321,"Ġthroughout":8322,"rested":8323,"ugust":8324,"Ġintending":8325,"clothes":8326,"Ġsonorous":8327,"ĠOf":8328,"Ġexcellencies":8329,"icken":8330,"Ġpleases":8331,"Ġwaters":8332,"Ġlob":8333,"Ġloc":8334,"Ġchildhood":8335,"Ġtrade":8336,"Ġconfession":8337,"Ġconfidential":8338,"raction":8339,"Ġdoubts":8340,"Ġopens":8341,"ebrows":8342,"Ġindis":8343,"Ġinduced":8344,"Doctor":8345,"Ġarrives":8346,"ecch":8347,"Ġactivity":8348,"Ġinsens":8349,"Ġinscribed":8350,"Ġinterval":8351,"Ġflattered":8352,"Ġsubmit":8353,"Ġnewspap":8354,"Ġformalities":8355,"prof":8356,"prop":8357,"Ġlawn":8358,"Ġsentry":8359,"Ġsentiments":8360,"preced":8361,"previous":8362,"prepared":8363,"iboul":8364,"Ġpoints":8365,"Ġinflexible":8366,"Ġbankers":8367,"Ġcheek":8368,"remember":8369,"Ġdecanter":8370,"mediate":8371,"Ġrelations":8372,"Ġreasoning":8373,"Ġreasonable":8374,"Ġpayable":8375,"Ġveget":8376,"Ġcompassion":8377,"Ġadmired":8378,"?âĢĻâĢĿ":8379,"Ġcontrast":8380,"Ġforgiven":8381,"disp":8382,"ĠThose":8383,"Ġjoyous":8384,"Ġjoyfully":8385,"content":8386,"contract":8387,"Ġgloom":8388,"Ġconvince":8389,"Ġpockets":8390,"Ġsweat":8391,"Ġtransm":8392,"Ġstepmother":8393,"Ġtea":8394,"Ġdestruction":8395,"Ġtravelled":8396,"Ġportmanteau":8397,"Ġportfolio":8398,"Ġdrown":8399,"obli":8400,"Ġmidnight":8401,"Ġconsideration":8402,"Ġbroad":8403,"Ġfinishing":8404,"Ġsaluted":8405,"Ġrude":8406,"Ġcolored":8407,"Ġkilling":8408,"Ġleads":8409,"Ġcorners":8410,"Ġchairs":8411,"Ġsystem":8412,"Ġexpectation":8413,"Ġbetrothal":8414,"Ġfairly":8415,"presence":8416,"someone":8417,"Ġhumanity":8418,"Ġoblige":8419,"occasion":8420,"Ġnobleman":8421,"Ġ48":8422,"Ġequip":8423,"Ġmerited":8424,"Ġdispute":8425,"offered":8426,"blue":8427,"Ġfirmness":8428,"Ġattempted":8429,"Excell":8430,"Ġcreaked":8431,"Ġrenders":8432,"Ġempire":8433,"Ġoccasioned":8434,"Ġoccasionally":8435,"Ġthickly":8436,"Ġthicket":8437,"Ġreported":8438,"ĠPalazzo":8439,"Ġcompliments":8440,"Ġgenerosity":8441,"Ġdefect":8442,"following":8443,"express":8444,"Ġincreasing":8445,"ĠAnother":8446,"Ġfortunately":8447,"Ġcabin":8448,"Ġincluding":8449,"Ġkeys":8450,"Ġpaths":8451,"seeing":8452,"Ġfatality":8453,"Ġemptied":8454,"Ġcollection":8455,"ebastian":8456,"viary":8457,"Ġignorance":8458,"Ġanimals":8459,"Ġconsequences":8460,"Ġcrack":8461,"Ġcrossing":8462,"Ġwarned":8463,"Ġgrottos":8464,"Ġaccomplice":8465,"Ġneighborhood":8466,"incre":8467,"Ġpierced":8468,"Ġattendant":8469,"Ġneglected":8470,"Ġapprehensions":8471,"Ġgroaned":8472,"Ġ900":8473,"Ġfulfilled":8474,"charming":8475,"Ġchestnut":8476,"Ġparalyzed":8477,"regard":8478,"Ġsuperiority":8479,"Ġcriminals":8480,"Ġmaternal":8481,"Ġphilosopher":8482,"Ġmotives":8483,"added":8484,"Ġassembled":8485,"interested":8486,"Ġrichest":8487,"Ġdesignated":8488,"exclaimed":8489,"suppose":8490,"Ġscrutinizing":8491,"Ġtremulous":8492,"promise":8493,"prisoner":8494,"Ġexercised":8495,"purcha":8496,"Ġtimidly":8497,"Ġdignified":8498,"Ġlieutenant":8499,"Ġcivili":8500,"ĠMalta":8501,"precisely":8502,"satisfaction":8503,"Ġcontemplated":8504,"Ġdeclaration":8505,"ĠTurkish":8506,"Ġconsolation":8507,"direction":8508,"Ġreckoned":8509,"Ġdawn":8510,"arrival":8511,"Ġdisguise":8512,"Ġpromptly":8513,"Ġeloquent":8514,"Ġeloquence":8515,"madame":8516,"window":8517,"Ġsinking":8518,"Ġfisherman":8519,"Ġaccursed":8520,"burst":8521,"Ġtavern":8522,"Ġwidow":8523,"Ġmoral":8524,"Ġcardinals":8525,"ĠMediterranean":8526,"Ġweapons":8527,"Ġshouted":8528,"ĠTuscany":8529,"Ġimprisoned":8530,"folded":8531,"Ġcreek":8532,"Ġpainted":8533,"Ġprospects":8534,"endeavor":8535,"Ġimplacable":8536,"Ġspecim":8537,"government":8538,"Ġdiscussion":8539,"Ġencountered":8540,"trans":8541,"Ã©rard":8542,"ĠLike":8543,"Ġoffended":8544,"Ġexcessive":8545,"Ġassociated":8546,"Ġvexed":8547,"Ġpunctuality":8548,"Ġresponsible":8549,"departure":8550,"ĠOriental":8551,"Ġproportion":8552,"curtain":8553,"pulch":8554,"veloped":8555,"Ġorgan":8556,"betrothed":8557,"Ġissued":8558,"Ġmechanically":8559,"Ġenchanted":8560,"Ġinstrument":8561,"Ġarticles":8562,"Ġrevelation":8563,"Ġvigilance":8564,"Åĵuvre":8565,"further":8566,"Ġtartan":8567,"Ġpirates":8568,"Ġviolets":8569,"ĠToulon":8570,"ĠRomaic":8571,"hilip":8572,"Ġdictionary":8573,"Ġexceedingly":8574,"Possibly":8575,"Ġbreeze":8576,"Ġrelax":8577,"Ġatmosphere":8578,"ĠApril":8579,"iboulen":8580,"**":8581,"13":8582,"21":8583,"33":8584,"55":8585,"65":8586,"69":8587,"83":8588,"AR":8589,"Beau":8590,"Bring":8591,"Cors":8592,"ER":8593,"Elba":8594,"Four":8595,"Five":8596,"Fortunately":8597,"IV":8598,"Mother":8599,"ND":8600,"Nonsense":8601,"SE":8602,"Sp":8603,"Today":8604,"bell":8605,"bun":8606,"bted":8607,"cre":8608,"city":8609,"cup":8610,"caused":8611,"calcul":8612,"called":8613,"din":8614,"dened":8615,"drew":8616,"eat":8617,"each":8618,"fle":8619,"fred":8620,"flo":8621,"fare":8622,"faint":8623,"gone":8624,"gment":8625,"girl":8626,"gaz":8627,"iation":8628,"iest":8629,"iav":8630,"ika":8631,"jail":8632,"kin":8633,"kill":8634,"killed":8635,"knew":8636,"len":8637,"lers":8638,"lons":8639,"mine":8640,"mons":8641,"maid":8642,"marshal":8643,"net":8644,"nine":8645,"ops":8646,"pity":8647,"pict":8648,"pardieu":8649,"rd":8650,"rit":8651,"sight":8652,"saying":8653,"tor":8654,"tar":8655,"till":8656,"tri":8657,"tese":8658,"uing":8659,"ule":8660,"vann":8661,"wal":8662,"wond":8663,"wife":8664,"water":8665,"yons":8666,"yield":8667,"zvous":8668,"Ã§":8669,"ĠâĢĻ":8670,"Ġess":8671,"Ġty":8672,"Ġtour":8673,"Ġaided":8674,"Ġavenge":8675,"intended":8676,"repe":8677,"recom":8678,"renew":8679,"Ġwages":8680,"Ġwicket":8681,"Ġscience":8682,"Ġslaves":8683,"Ġorange":8684,"erity":8685,"Ġmould":8686,"Ġmach":8687,"enem":8688,"enough":8689,"onful":8690,"onia":8691,"orary":8692,"Ġfed":8693,"Ġfile":8694,"Ġfired":8695,"Ġfug":8696,"Ġfield":8697,"Ġfury":8698,"Ġferv":8699,"Ġfantastic":8700,"Ġfilial":8701,"Ġcared":8702,"Ġcaves":8703,"Ġcunning":8704,"Ġtobacco":8705,"lli":8706,"llo":8707,"llar":8708,"llation":8709,"llenge":8710,"anese":8711,"Ġdance":8712,"Ġdoubled":8713,"Ġhill":8714,"esy":8715,"Ġpill":8716,"Ġpav":8717,"Ġpuzz":8718,"Ġheated":8719,"Ġinner":8720,"Ġinsect":8721,"attend":8722,"Ġnab":8723,"Ġnails":8724,"Ġlion":8725,"Ġlots":8726,"omer":8727,"omte":8728,"idel":8729,"sea":8730,"send":8731,"seated":8732,"icing":8733,"icity":8734,"icomte":8735,"Ġrent":8736,"Ġeh":8737,"sters":8738,"staircase":8739,"entertain":8740,"ential":8741,"entertained":8742,"Ġbever":8743,"Ġwhim":8744,"Ġsauce":8745,"Ġgather":8746,"Ġgla":8747,"ceased":8748,"cending":8749,"celain":8750,"adr":8751,"illa":8752,"ĠMore":8753,"ĠMeslay":8754,"alty":8755,"Ġasyl":8756,"rifice":8757,"verance":8758,"etti":8759,"Ġdefe":8760,"Ġanti":8761,"ĠCo":8762,"ĠCertainly":8763,"Ġsees":8764,"Ġseason":8765,"Ġsepulch":8766,"lies":8767,"liance":8768,"ifying":8769,"chosen":8770,"ĠAvenue":8771,"ĠAfrica":8772,"Ġdogs":8773,"Ġdoctors":8774,"Ġstab":8775,"Ġstretch":8776,"racc":8777,"Ġconj":8778,"Ġsuspe":8779,"Ġsuicide":8780,"Ġhers":8781,"effort":8782,"efully":8783,"Ġkid":8784,"ĠDen":8785,"ĠDandrÃ©":8786,"threw":8787,"ardin":8788,"bleu":8789,"rised":8790,"Ġmanners":8791,"osi":8792,"oser":8793,"ulating":8794,"Ġlivery":8795,"Ġvac":8796,"Ġvine":8797,"ĠBois":8798,"ĠBracc":8799,"Ġshri":8800,"unis":8801,"unknown":8802,"unnel":8803,"Ġwheels":8804,"ĠFour":8805,"ĠFather":8806,"apit":8807,"apor":8808,"ĠHait":8809,"Ġsheets":8810,"Ġambitious":8811,"umm":8812,"assist":8813,"ĠSe":8814,"ĠShall":8815,"ĠSpeak":8816,"ĠSupp":8817,"ĠSebastian":8818,"ĠPl":8819,"ĠPorta":8820,"Ġarr":8821,"Ġarsen":8822,"Ġproves":8823,"Ġprolong":8824,"Ġlend":8825,"Ġlever":8826,"Ġjars":8827,"Ġjug":8828,"Ġjacket":8829,"Ġabund":8830,"Ġabroad":8831,"cking":8832,"rels":8833,"encement":8834,"Ġroll":8835,"Ġrooted":8836,"ĠEpir":8837,"Ġshape":8838,"Ġunlike":8839,"Ġuncle":8840,"Ġunworthy":8841,"Ġunnecessary":8842,"erfully":8843,"Ġcannon":8844,"Ġimplic":8845,"loÃ¯":8846,"Ġdishes":8847,"Ġquay":8848,"Ġloose":8849,"idea":8850,"ciety":8851,"ĠLyons":8852,"ĠWould":8853,"ĠGir":8854,"ĠGive":8855,"ĠGÃ©rard":8856,"Ġapolog":8857,"white":8858,"ossibility":8859,"Ġplu":8860,"Ġbrown":8861,"Ġbrains":8862,"ĠRosp":8863,"ĠRuss":8864,"Ġoverpow":8865,"notary":8866,"Ġfoliage":8867,"charact":8868,"berries":8869,"Ġresume":8870,"Ġchibou":8871,"Ġperish":8872,"acknow":8873,"need":8874,"Ġcarpet":8875,"Ġafternoon":8876,"Ġexclaim":8877,"Ġappellation":8878,"Ġmomentarily":8879,"Ġthrice":8880,"Ġassuming":8881,"Ġobscure":8882,"Ġoldest":8883,"please":8884,"Italian":8885,"vessel":8886,"Ġscand":8887,"Ġattained":8888,"cony":8889,"contain":8890,"Ġglistened":8891,"society":8892,"Ġholy":8893,"few":8894,"feel":8895,"exha":8896,"Ġstool":8897,"Ġstooped":8898,"Ġstolen":8899,"intention":8900,"Ġpaved":8901,"Ġcommenced":8902,"Ġdistr":8903,"Ġplead":8904,"Ġpleasing":8905,"Ġrecover":8906,"Ġfinds":8907,"arnished":8908,"Ġkeen":8909,"Ġlovers":8910,"Ġpersonally":8911,"Ġsuffoc":8912,"Ġconfided":8913,"Ġsilken":8914,"Ġrefund":8915,"ĠChÃ¢":8916,"Ġspeaker":8917,"Ġindef":8918,"Ġperfume":8919,"Ġperfumes":8920,"Ġindebted":8921,"iovann":8922,"short":8923,"Ġactors":8924,"Ġactual":8925,"Ġdiver":8926,"Ġinside":8927,"Ġinterior":8928,"Ġdepth":8929,"Ġdeposit":8930,"Ġdepicted":8931,"Ġflood":8932,"Ġflung":8933,"early":8934,"Ġchances":8935,"Ġformal":8936,"project":8937,"Ġgrandchild":8938,"Ġapprove":8939,"ceptibly":8940,"Ġranks":8941,"Ġextinct":8942,"Ġextric":8943,"Ġconditions":8944,"guard":8945,"guilty":8946,"Ġhasty":8947,"Ġdrawers":8948,"velled":8949,"Ġopposed":8950,"remain":8951,"Ġslender":8952,"Ġprophe":8953,"Ġproposition":8954,"Ġnative":8955,"Ġsounds":8956,"Ġillness":8957,"Ġtablets":8958,"Ġprize":8959,"Ġinches":8960,"Ġcomposure":8961,"Ġduels":8962,"Ġdetailed":8963,"Ġmurmur":8964,"Ġharmon":8965,"Ġsinging":8966,"Ġastonishing":8967,"Ġacquire":8968,"disco":8969,"Ġprofits":8970,"poet":8971,"ificate":8972,"Ġaffecting":8973,"Ġirresistible":8974,"Ġrecognizing":8975,"control":8976,"Ġsket":8977,"Ġholds":8978,"knife":8979,"Ġrecent":8980,"Ġhelpless":8981,"apparent":8982,"mont":8983,"Ġstrangely":8984,"Were":8985,"proud":8986,"princi":8987,"Ġneeds":8988,"Ġposted":8989,"attack":8990,"Ġcoldness":8991,"Ġrespectful":8992,"obb":8993,"Ġ34":8994,"Ġlowering":8995,"Ġexists":8996,"Ġdreadfully":8997,"impression":8998,"affair":8999,"affairs":9000,"affection":9001,"desp":9002,"descended":9003,"onym":9004,"Ġsyrup":9005,"mingled":9006,"ĠSpahis":9007,"Ġjailers":9008,"oniard":9009,"Ġaccordance":9010,"Ġstronger":9011,"Ġstrongly":9012,"Ġcommands":9013,"Ġconducting":9014,"occurred":9015,"Ġsorts":9016,"Ġjewel":9017,"ggard":9018,"Ġ45":9019,"ĠUpon":9020,"Ġplanks":9021,"Ġbadly":9022,"Ġintroducing":9023,"shoulders":9024,"Ġbargain":9025,"Ġfrighten":9026,"Ġfrightened":9027,"blest":9028,"thanks":9029,"Ġeagerness":9030,"ciences":9031,"laws":9032,"ieth":9033,"Ġbottles":9034,"Ġpaleness":9035,"Ġgravel":9036,"Ġrive":9037,"Whom":9038,"Ġballs":9039,"Ġballet":9040,"Ġsorrowfully":9041,"ĠPalestrina":9042,"ĠPalika":9043,"Ġhiding":9044,"Ġdefence":9045,"Ġamounted":9046,"Ġsighs":9047,"possibly":9048,"Ġcopies":9049,"paper":9050,"Ġvainly":9051,"reply":9052,"Ġincluded":9053,"struct":9054,"Thus":9055,"Three":9056,"Thousand":9057,"ĠBonaparte":9058,"Ġfaithfully":9059,"Ġregretted":9060,"Ġdenounce":9061,"Ġhonored":9062,"Ġrendering":9063,"Ġsmoking":9064,"Ġsmooth":9065,"Willingly":9066,"Ġentreaties":9067,"Ġsuccessful":9068,"Probably":9069,"Ġmasses":9070,"ĠSpani":9071,"Ġindicate":9072,"Ġwarning":9073,"confidence":9074,"Ġphilanthrop":9075,"ĠParisians":9076,"incerity":9077,"Ġloudly":9078,"Ġstyled":9079,"Ġswords":9080,"Ġtenderly":9081,"flowers":9082,"mighty":9083,"Ġventured":9084,"Ġproudly":9085,"Ġimpatient":9086,"Ġ1814":9087,"Ġpierce":9088,"Ġdealer":9089,"Ġstuff":9090,"Ġsolemnity":9091,"Ġmessage":9092,"Ġshrubs":9093,"Ġblinds":9094,"Ġfruits":9095,"Ġbuttoned":9096,"advice":9097,"Ġinstinctive":9098,"Ġinstinctively":9099,"putting":9100,"Ġtearing":9101,"Ġadventures":9102,"Ġguns":9103,"quette":9104,"inquired":9105,"Ġelegance":9106,"rÃ©port":9107,"Ġmasks":9108,"Ġnarrative":9109,"uttering":9110,"Ġdepends":9111,"ĠBelieve":9112,"ĠEveryone":9113,"ĠEverything":9114,"Ġtranquil":9115,"Ġfatigued":9116,"humor":9117,"magistrate":9118,"Ġscrutiny":9119,"minded":9120,"prisoners":9121,"Ġsnatch":9122,"Ġslipped":9123,"Ġrobbed":9124,"Ġpursuit":9125,"acquainted":9126,"AbbÃ©":9127,"similar":9128,"Ġtimid":9129,"Ġtreatment":9130,"Ġflying":9131,"Ġpressure":9132,"pointed":9133,"Ġstiffened":9134,"powerful":9135,"Ġbolt":9136,"Ġdishonored":9137,"ĠMaltese":9138,"Ġrubbed":9139,"Ġhabits":9140,"begin":9141,"extraordinary":9142,"Ġcarbineers":9143,"correspond":9144,"devoted":9145,"Ġdisguised":9146,"gotist":9147,"suspic":9148,"Ġcordial":9149,"Ġselfishness":9150,"rimony":9151,"Ġwoe":9152,"Ġcounsel":9153,"Ġstruggling":9154,"Ġtempted":9155,"Ġlucky":9156,"Champs":9157,"itatingly":9158,"ĠIndia":9159,"Ġweapon":9160,"Ġardent":9161,"nearly":9162,"Carlini":9163,"evident":9164,"evidently":9165,"Ġresearches":9166,"astonishment":9167,"rupulous":9168,"Ġconsulted":9169,"Ġprivilege":9170,"creatures":9171,"Ġpouring":9172,"ĠeBook":9173,"Ġvirtue":9174,"carefully":9175,"finished":9176,"anxiety":9177,"Ġreassured":9178,"illotine":9179,"Ġuniversal":9180,"Ġrailway":9181,"Ġextinguished":9182,"Ġfestival":9183,"Ġcaval":9184,"Ġphantom":9185,"assembly":9186,"ĠClub":9187,"Ġadversary":9188,"ĠRobert":9189,"Ġexpedition":9190,"Ġsubterranean":9191,"Ġparadise":9192,"Ġembarrassed":9193,"politeness":9194,"Ġcatastrophe":9195,"Ġgleam":9196,"Ġseventeen":9197,"Ġalternately":9198,"footsteps":9199,"Ġgalleys":9200,"Ġelevated":9201,"sailors":9202,"ĠVenice":9203,"Ġnodded":9204,"ĠShould":9205,"Ġjumped":9206,"Ġscruples":9207,"Ġaffirmative":9208,"Ġinhabitants":9209,"Ġreckoning":9210,"Englishman":9211,"Ġmoustache":9212,"ĠAcadem":9213,"Ġvampire":9214,"employed":9215,"Follow":9216,"Ġsombre":9217,"Ġugly":9218,"igliosi":9219,"ĠRhÃ´ne":9220,"Ġnabob":9221,"idelity":9222,"Ġsaucepan":9223,"Ġasylum":9224,"Ġsuspended":9225,"ĠBracciano":9226,"ĠEpirus":9227,"loÃ¯se":9228,"ĠRospigliosi":9229,"iovanni":9230,"ĠPalikares":9231,"09":9232,"12":9233,"22":9234,"43":9235,"47":9236,"51":9237,"85":9238,"App":9239,"Baron":9240,"CÃ¦sar":9241,"ES":9242,"Ed":9243,"Happ":9244,"Hold":9245,"Immediately":9246,"Louis":9247,"Pr":9248,"RA":9249,"Sure":9250,"Truly":9251,"UT":9252,"Und":9253,"VOLUME":9254,"Woman":9255,"Yanina":9256,"ben":9257,"bound":9258,"bottle":9259,"cest":9260,"cular":9261,"custom":9262,"dra":9263,"dish":9264,"dread":9265,"ease":9266,"earn":9267,"fit":9268,"fted":9269,"fashion":9270,"fÃª":9271,"fixed":9272,"gre":9273,"gest":9274,"groom":9275,"gentlemen":9276,"hore":9277,"hist":9278,"horse":9279,"ias":9280,"ios":9281,"iress":9282,"jac":9283,"kward":9284,"lamp":9285,"loud":9286,"lted":9287,"mat":9288,"mal":9289,"mamma":9290,"nched":9291,"oid":9292,"ober":9293,"pular":9294,"rough":9295,"rounded":9296,"ritated":9297,"sort":9298,"sil":9299,"sake":9300,"sorrow":9301,"silence":9302,"splend":9303,"tomorrow":9304,"upt":9305,"ufact":9306,"wed":9307,"welt":9308,"wenty":9309,"watched":9310,"xir":9311,"yard":9312,"zing":9313,"ĠčĊ":9314,"Ġrom":9315,"Ġze":9316,"Ġted":9317,"Ġtread":9318,"Ġtip":9319,"Ġtunnel":9320,"hearted":9321,"Ġalight":9322,"Ġavailed":9323,"inu":9324,"inous":9325,"inno":9326,"informed":9327,"information":9328,"Ġtheme":9329,"reck":9330,"render":9331,"resemb":9332,"Ġwet":9333,"Ġwww":9334,"Ġsed":9335,"Ġsinister":9336,"Ġsherry":9337,"Ġox":9338,"Ġoars":9339,"haet":9340,"Ġmart":9341,"Ġmorrow":9342,"Ġmental":9343,"onious":9344,"itly":9345,"itical":9346,"orte":9347,"Ġbig":9348,"Ġbath":9349,"Ġbaker":9350,"Ġfem":9351,"Ġfel":9352,"Ġfab":9353,"Ġfles":9354,"Ġfarm":9355,"Ġfavored":9356,"Ġcher":9357,"Ġcoo":9358,"Ġchis":9359,"Ġcod":9360,"Ġcards":9361,"Ġcement":9362,"llable":9363,"animate":9364,"Ġdowry":9365,"arc":9366,"arrange":9367,"Ġhind":9368,"especially":9369,"Ġpious":9370,"Ġpens":9371,"Ġpub":9372,"Ġpins":9373,"Ġpages":9374,"Ġpacing":9375,"Ġpushing":9376,"Ġpulse":9377,"Ġpavement":9378,"Ġphaet":9379,"asions":9380,"asks":9381,"Ġhaggard":9382,"atacombs":9383,"Ġnort":9384,"Ġnice":9385,"Ġnav":9386,"Ġnonsense":9387,"Ġlent":9388,"Ġlust":9389,"Ġlance":9390,"Ġlav":9391,"omp":9392,"omin":9393,"idd":9394,"idings":9395,"several":9396,"severance":9397,"icy":9398,"icious":9399,"icial":9400,"Ġrelief":9401,"Ġrevolution":9402,"Ġrelieved":9403,"Ġreduced":9404,"Ġeag":9405,"stal":9406,"stay":9407,"station":9408,"start":9409,"Ġbeha":9410,"Ġbears":9411,"Ġbending":9412,"owal":9413,"Ġsav":9414,"Ġsale":9415,"Ġgong":9416,"Ġgilt":9417,"Ġghost":9418,"Ġgathered":9419,"cerem":9420,"Ġthief":9421,"adiant":9422,"illy":9423,"ithrid":9424,"ithmet":9425,"ĠMr":9426,"ĠMur":9427,"ĠMake":9428,"ĠMaster":9429,"Ġnoticing":9430,"Ġashes":9431,"rigues":9432,"verse":9433,"robor":9434,"Ġmeal":9435,"urry":9436,"urbed":9437,"Ġattended":9438,"cturn":9439,"ctober":9440,"Ġmyr":9441,"Ġdeign":9442,"Ġdeemed":9443,"Ġdemean":9444,"Ġant":9445,"Ġancest":9446,"ĠCons":9447,"amb":9448,"among":9449,"amps":9450,"ands":9451,"Ġseal":9452,"Ġsever":9453,"Ġseize":9454,"Ġwept":9455,"liano":9456,"lixir":9457,"cho":9458,"ĠAugust":9459,"Ġstars":9460,"rable":9461,"raved":9462,"Ġexpend":9463,"ilions":9464,"ilfully":9465,"Ġconsole":9466,"qued":9467,"quitted":9468,"Ġsup":9469,"Ġsuited":9470,"alle":9471,"alley":9472,"ĠDau":9473,"ĠDays":9474,"ĠDante":9475,"Ġwills":9476,"acci":9477,"Ġmanufact":9478,"outhern":9479,"Ġallusion":9480,"ĠVI":9481,"ĠVirg":9482,"osion":9483,"Ġvases":9484,"onel":9485,"ersed":9486,"ĠBet":9487,"ĠBelle":9488,"Ġaltar":9489,"Ġships":9490,"unte":9491,"unci":9492,"unfortun":9493,"apes":9494,"Ġnose":9495,"Ġnocturn":9496,"aks":9497,"indul":9498,"artic":9499,"atered":9500,"eled":9501,"ondin":9502,"Ã¨res":9503,"assad":9504,"ĠSouth":9505,"ĠScarcely":9506,"ĠPoor":9507,"Ġproble":9508,"Ġprovo":9509,"Ġrascal":9510,"olacci":9511,"Ġfeigned":9512,"aging":9513,"Ġadore":9514,"Ġadorable":9515,"ĠEl":9516,"Ġshaken":9517,"ruined":9518,"Ġthereby":9519,"Ġunmoved":9520,"ĠTran":9521,"ĠThan":9522,"ĠTiboulen":9523,"Ġcanal":9524,"Ġimmediate":9525,"logne":9526,"Ġdisorder":9527,"Ġdisclosure":9528,"Ġquality":9529,"Ġspared":9530,"igning":9531,"Ġcontribut":9532,"Ġcontrive":9533,"Ġcontrol":9534,"Ġpopular":9535,"itti":9536,"ĠGermain":9537,"ĠGaspard":9538,"ĠMadeleine":9539,"Ġapoplexy":9540,"avail":9541,"Ġdescent":9542,"cope":9543,"collect":9544,"pery":9545,"Ġenveloped":9546,"Ġbrows":9547,"above":9548,"ierre":9549,"Ġaccuse":9550,"Ġclinging":9551,"Ġpassions":9552,"played":9553,"places":9554,"Ġreserve":9555,"force":9556,"forward":9557,"Ġperv":9558,"Ġperil":9559,"Ġperseverance":9560,"neither":9561,"next":9562,"Ġcarp":9563,"Ġoffers":9564,"Ġhousehold":9565,"aints":9566,"Ġexcl":9567,"Ġexcav":9568,"Ġexciting":9569,"Ġexcuses":9570,"Ġblushed":9571,"Ġblush":9572,"Ġassizes":9573,"Ġseeming":9574,"Ġrab":9575,"Ġtells":9576,"Ġpersist":9577,"Ġimposed":9578,"Ġimpressed":9579,"Ġimpossibility":9580,"ilight":9581,"Ġscore":9582,"Ġscheme":9583,"Ġscenes":9584,"Ġcoquet":9585,"Heaven":9586,"within":9587,"Ġapprised":9588,"Ġgliding":9589,"soever":9590,"unex":9591,"Ġsteady":9592,"ĠNort":9593,"arison":9594,"exist":9595,"Ġsigning":9596,"Ġcontinual":9597,"comprehe":9598,"Ġexposed":9599,"Ġexpense":9600,"Ġexpiration":9601,"restr":9602,"Ġfoundation":9603,"vention":9604,"ugia":9605,"Ġintellect":9606,"fortable":9607,"close":9608,"cluded":9609,"ĠOctober":9610,"Ġlighting":9611,"Ġdistress":9612,"Ġdistrust":9613,"ickering":9614,"herent":9615,"omething":9616,"Ġterri":9617,"Ġloan":9618,"Ġloyal":9619,"Ġsuffused":9620,"Ġadvised":9621,"Ġtrick":9622,"Ġturns":9623,"Ġconfused":9624,"Ġconfinement":9625,"Ġnights":9626,"Ġdoubtful":9627,"Ġtraitor":9628,"ĠChina":9629,"Ġpromising":9630,"Ġmonument":9631,"counted":9632,"shud":9633,"Ġawful":9634,"Ġacts":9635,"mysterious":9636,"Ġinsign":9637,"oths":9638,"Ġflow":9639,"Ġflour":9640,"Ġflaming":9641,"Ġsurrendered":9642,"Ġfearfully":9643,"Ġformidable":9644,"prob":9645,"profound":9646,"produced":9647,"Ġgrandmamma":9648,"Ġregained":9649,"Ġregiment":9650,"Ġescort":9651,"prepar":9652,"Ġstream":9653,"Ġsmallest":9654,"spite":9655,"Ġkindly":9656,"cessantly":9657,"Ġpossessing":9658,"Ġinfall":9659,"irectly":9660,"Ġsailed":9661,"Ġperfection":9662,"Ġrepeating":9663,"Ġpolished":9664,"Ġdarker":9665,"Ġtales":9666,"Ġtalks":9667,"Ġdecide":9668,"Ġsoundly":9669,"Ġcharity":9670,"Ġcharitable":9671,"suing":9672,"super":9673,"Ġmagistrates":9674,"ormice":9675,"Ġsworn":9676,"Ġmajestic":9677,"Ġcoral":9678,"Ġcorrupt":9679,"Ġincur":9680,"Ġcomparison":9681,"Ġdetest":9682,"Ġdetach":9683,"Ġdevour":9684,"Ġannouncing":9685,"Ġannuity":9686,"grotto":9687,"stones":9688,"Ġharnessed":9689,"former":9690,"twelve":9691,"headed":9692,"handkerchief":9693,"Ġlesson":9694,"Ġdespise":9695,"Ġdespatched":9696,"happily":9697,"Ġprofess":9698,"philosop":9699,"pocr":9700,"ificial":9701,"engage":9702,"contained":9703,"Ġrecord":9704,"Ġrecently":9705,"appled":9706,"Ġoccupants":9707,"Ġpowerless":9708,"Ġexplosion":9709,"ouraged":9710,"Ġslumber":9711,"smuggl":9712,"passion":9713,"askets":9714,"Ġsaluting":9715,"Ġarts":9716,"Ġartificial":9717,"Ġrule":9718,"carry":9719,"Ġstrikes":9720,"Ġreflecting":9721,"Ġdemands":9722,"Ġdemanding":9723,"ĠChaussÃ©e":9724,"imply":9725,"Ġparticip":9726,"Ġbusy":9727,"Ġbushes":9728,"desire":9729,"Ġuneasily":9730,"Ġcourtesy":9731,"Ġjoining":9732,"Ġcommander":9733,"Ġcommanding":9734,"Ġobjection":9735,"Ġministers":9736,"ogliano":9737,"ĠAlmighty":9738,"Ġsunk":9739,"Ġopinions":9740,"Ġislands":9741,"office":9742,"treasure":9743,"shoulder":9744,"Any":9745,"Another":9746,"Ġironical":9747,"Ġtemples":9748,"Ġpalaces":9749,"Ġattempts":9750,"Ġattempting":9751,"Ġhesitate":9752,"Ġ1829":9753,"Ġcutting":9754,"Ġgallant":9755,"vision":9756,"Ġcustomary":9757,"Ġseparation":9758,"Ġdepartment":9759,"Ġaffectionately":9760,"Ġdungeons":9761,"Ġcentury":9762,"Ġvictory":9763,"Ġamounting":9764,"knowledge":9765,"Ġbesought":9766,"Ġfaults":9767,"Forgive":9768,"untary":9769,"Ġdriver":9770,"Ġgroans":9771,"reputation":9772,"Ġsolid":9773,"clear":9774,"Ġriding":9775,"single":9776,"million":9777,"ĠArles":9778,"Ġalarming":9779,"Ġdiscuss":9780,"Ġsuccessive":9781,"ebiÃ¨re":9782,"Ġanimated":9783,"yesterday":9784,"Ġshoes":9785,"Ġshores":9786,"Ġedge":9787,"Ġenjoying":9788,"Ġyouthful":9789,"chet":9790,"moments":9791,"Ġfetched":9792,"embarr":9793,"Ġchoking":9794,"Ġ1811":9795,"annes":9796,"umbled":9797,"umbling":9798,"Ġdistinction":9799,"sufficient":9800,"Ġdiscovering":9801,"Ġsolemnly":9802,"Ġcupboard":9803,"ĠWithout":9804,"Ġapprehension":9805,"Ġguardian":9806,"Ġvolcan":9807,"surprise":9808,"surrounded":9809,"questions":9810,"Ġdivine":9811,"truth":9812,"Ġfrontier":9813,"Ġthreatening":9814,"named":9815,"Ġspeculation":9816,"Ġfrock":9817,"Ġgarments":9818,"Ġclerks":9819,"interesting":9820,"Ġcorridors":9821,"aneously":9822,"Ġhateful":9823,"Ġexhaust":9824,"ĠBehind":9825,"Ġdescendants":9826,"magnificent":9827,"ĠReally":9828,"servants":9829,"Ġundertone":9830,"Ġdocument":9831,"Ġannoyed":9832,"Ġbalance":9833,"ĠArabic":9834,"Ġtestator":9835,"Ġgayly":9836,"Ġdeeds":9837,"Ġconversed":9838,"Ġcomprehended":9839,"ĠNothing":9840,"opportunity":9841,"Ġbolted":9842,"Ġbolts":9843,"Ġcalumn":9844,"Ġcandor":9845,"Ġcivil":9846,"Ġinvented":9847,"Ġrejoined":9848,"Ġdistributing":9849,"precaut":9850,"Ġcontemplation":9851,"Ġdimin":9852,"Ġretreating":9853,"ĠTurkey":9854,"Ġrespite":9855,"Ġpersuaded":9856,"Ġconsoled":9857,"Ġinsulted":9858,"Ġmurderers":9859,"occupation":9860,"finding":9861,"skin":9862,"skins":9863,"Ġdigging":9864,"Ġhabitu":9865,"meaning":9866,"Ġluxury":9867,"Ġluxuries":9868,"different":9869,"picuous":9870,"Ġfierce":9871,"Ġurgent":9872,"Ġnoiseless":9873,"ĠExcuse":9874,"Ġinspire":9875,"Ġinterrogate":9876,"Ġilluminated":9877,"Leave":9878,"Ġidlers":9879,"Ġfaculties":9880,"Ġflavor":9881,"Ġpraise":9882,"Ġliquor":9883,"ĠGenoa":9884,"Ġindulge":9885,"Ġincredulous":9886,"Ġjournalist":9887,"conducted":9888,"Ġwolf":9889,"Ġmaintained":9890,"Ġfishermen":9891,"Ġamusement":9892,"Ġimpertinent":9893,"convinced":9894,"ĠJustice":9895,"Ġstruggled":9896,"Ġhanging":9897,"Ġimprisonment":9898,"Ġdisdainful":9899,"Ġavailable":9900,"Ġbodies":9901,"astonished":9902,"Ġunconsciously":9903,"traveller":9904,"travelling":9905,"creature":9906,"Ġhideous":9907,"ĠeBooks":9908,"Ġcombat":9909,"ĠTHE":9910,"Ġenvoy":9911,"introduced":9912,"Ġdiplomatist":9913,"Ġappreciate":9914,"Ġappreciated":9915,"Ġmalady":9916,"Ġmultitude":9917,"ĠCanebiÃ¨re":9918,"ĠPrinces":9919,"Ġpledge":9920,"Ġattribute":9921,"Ġcompromising":9922,"Ġsacrificed":9923,"broken":9924,"Ġrelease":9925,"entirely":9926,"Ġflattering":9927,"Ġforeigner":9928,"particular":9929,"circumstances":9930,"moccoletto":9931,"Arabian":9932,"Enough":9933,"journey":9934,"music":9935,"Ġoperation":9936,"Ġfascinated":9937,"Ġpulled":9938,"quickly":9939,"Ġclimbed":9940,"Ġindependence":9941,"Ġsurvey":9942,"Ġpropriet":9943,"ĠProvence":9944,"Ġnumbered":9945,"corner":9946,"electronic":9947,"finger":9948,"narrow":9949,"incogn":9950,"arranged":9951,"Ġconstruction":9952,"erfectly":9953,"Ġdischarge":9954,"Ġsprung":9955,"Ġapplication":9956,"Ġtreachery":9957,"Ġindiscreet":9958,"contrary":9959,"Ġtapestry":9960,"Remember":9961,"costume":9962,"generally":9963,"Ġtastes":9964,"study":9965,"Ġsovereign":9966,"Ġshelter":9967,"Ġroute":9968,"Ġeyelids":9969,"Ġapplause":9970,"faithful":9971,"business":9972,"cracy":9973,"garde":9974,"Ġachieved":9975,"Ġbachel":9976,"Ġprelim":9977,"Ġprovisions":9978,"Ġrattling":9979,"Ġuncommon":9980,"Ġlocated":9981,"Ġspecimen":9982,"iavolacci":9983,"Ġmachine":9984,"Ġabundantly":9985,"character":9986,"Ġdistrict":9987,"onymous":9988,"Ġriveted":9989,"Prince":9990,"Ġtedious":9991,"Ġpubl":9992,"Ġphaeton":9993,"Ġeagle":9994,"ithridates":9995,"Ġdemeanor":9996,"unfortunate":9997,"Ġnocturnal":9998,"iavolaccio":9999,").":10000,"17":10001,"20":10002,"30":10003,"37":10004,"57":10005,"59":10006,"81":10007,"89":10008,"97":10009,"Both":10010,"Could":10011,"Colosseum":10012,"Carmela":10013,"Dead":10014,"Faubourg":10015,"Gaetano":10016,"Lord":10017,"Lacha":10018,"Make":10019,"Major":10020,"Neither":10021,"OT":10022,"Put":10023,"Pastrini":10024,"Roman":10025,"Vecch":10026,"awn":10027,"afe":10028,"brig":10029,"burning":10030,"cam":10031,"cand":10032,"cif":10033,"cch":10034,"call":10035,"cers":10036,"cus":10037,"claim":10038,"coun":10039,"ciful":10040,"cross":10041,"dri":10042,"dict":10043,"dressed":10044,"dunge":10045,"eh":10046,"eap":10047,"eps":10048,"eep":10049,"ezvous":10050,"fan":10051,"far":10052,"fow":10053,"fish":10054,"fright":10055,"fying":10056,"firm":10057,"gen":10058,"gro":10059,"gate":10060,"home":10061,"hop":10062,"hoped":10063,"iate":10064,"iated":10065,"jew":10066,"lin":10067,"lose":10068,"length":10069,"mir":10070,"mble":10071,"mitted":10072,"ocious":10073,"oannes":10074,"pha":10075,"pable":10076,"pron":10077,"pisto":10078,"public":10079,"porter":10080,"pale":10081,"rical":10082,"sun":10083,"sens":10084,"tone":10085,"tish":10086,"uary":10087,"until":10088,"vain":10089,"vig":10090,"vable":10091,"worn":10092,"wretched":10093,"xiom":10094,"zer":10095,"ĠâĢ":10096,"Ġice":10097,"Ġting":10098,"Ġtutor":10099,"heav":10100,"Ġaut":10101,"Ġaris":10102,"Ġawe":10103,"Ġails":10104,"Ġaxiom":10105,"inarily":10106,"inisc":10107,"Ġtheory":10108,"rene":10109,"recked":10110,"Ġwilful":10111,"Ġwatered":10112,"Ġschool":10113,"Ġsincerity":10114,"ouch":10115,"ouching":10116,"ero":10117,"erated":10118,"erving":10119,"Ġment":10120,"Ġmand":10121,"Ġmoss":10122,"Ġmarshal":10123,"enances":10124,"onous":10125,"ito":10126,"itic":10127,"itle":10128,"itself":10129,"itect":10130,"itiz":10131,"orne":10132,"orace":10133,"orcelain":10134,"Ġbas":10135,"Ġbond":10136,"Ġblo":10137,"Ġbund":10138,"Ġbordered":10139,"Ġfre":10140,"Ġfought":10141,"Ġfitted":10142,"Ġfrequ":10143,"Ġcro":10144,"Ġcam":10145,"Ġcli":10146,"Ġcau":10147,"Ġcel":10148,"Ġcure":10149,"Ġcave":10150,"Ġcrest":10151,"Ġcured":10152,"Ġcities":10153,"llowed":10154,"Ġdag":10155,"Ġdru":10156,"Ġdash":10157,"Ġdwelt":10158,"aro":10159,"arger":10160,"Ġhired":10161,"Ġhush":10162,"Ġhuge":10163,"este":10164,"Ġpine":10165,"Ġpensive":10166,"Ġponiard":10167,"Ġpomp":10168,"Ġporcelain":10169,"asy":10170,"asmuch":10171,"ascended":10172,"Ġhell":10173,"Ġhera":10174,"Ġhears":10175,"Ġheiress":10176,"Ġham":10177,"Ġinef":10178,"Ġinex":10179,"Ġinoff":10180,"atig":10181,"Ġnin":10182,"Ġnet":10183,"Ġnap":10184,"Ġnaked":10185,"Ġnineteen":10186,"otes":10187,"otonous":10188,"ider":10189,"idious":10190,"seur":10191,"seems":10192,"ico":10193,"icks":10194,"icited":10195,"Ġreap":10196,"Ġreci":10197,"Ġrevol":10198,"Ġreview":10199,"Ġreconc":10200,"lequ":10201,"state":10202,"stever":10203,"Ġbeto":10204,"Ġbelt":10205,"Ġwhit":10206,"Ġwhist":10207,"Ġwhirl":10208,"Ġgent":10209,"Ġgird":10210,"lying":10211,"Ġthir":10212,"ads":10213,"adieu":10214,"ĠMon":10215,"ĠMid":10216,"ĠMil":10217,"ĠMare":10218,"ĠMithridates":10219,"alo":10220,"along":10221,"alog":10222,"Ġasks":10223,"Ġashore":10224,"Ġforwards":10225,"ĠâĢľâĢĻ":10226,"ĠâĢľâĢĺ":10227,"Ġmelod":10228,"ursion":10229,"Ġattending":10230,"tears":10231,"telegraph":10232,"Ġdeuce":10233,"ĠCle":10234,"ĠCont":10235,"amount":10236,"amine":10237,"Ġsex":10238,"Ġseating":10239,"Ġweigh":10240,"Ġweeds":10241,"terrified":10242,"lien":10243,"liked":10244,"liva":10245,"ifice":10246,"ifies":10247,"peculiar":10248,"ĠAnt":10249,"ĠApp":10250,"ĠAcc":10251,"ĠAustri":10252,"Ġstared":10253,"Ġstair":10254,"Ġstick":10255,"Ġstagger":10256,"orting":10257,"raged":10258,"races":10259,"raising":10260,"Ġyourselves":10261,"Ġexert":10262,"Ġexterior":10263,"resol":10264,"resolute":10265,"thest":10266,"Ġcontend":10267,"quered":10268,"Ġsuperf":10269,"ĠDuc":10270,"ĠDiavolaccio":10271,"thy":10272,"elly":10273,"geon":10274,"accept":10275,"Ġmanly":10276,"aunt":10277,"ĠVers":10278,"ulity":10279,"ulpt":10280,"ulsed":10281,"ulgar":10282,"Ġlip":10283,"Ġlikes":10284,"Ġvener":10285,"Ġvault":10286,"Ġvizier":10287,"istry":10288,"estial":10289,"ĠBor":10290,"ĠBourse":10291,"Ġalpha":10292,"Ġknot":10293,"Ġknelt":10294,"Ġshows":10295,"Ġshining":10296,"unhappy":10297,"unlimited":10298,"usions":10299,"ushes":10300,"Ġnoon":10301,"artin":10302,"artial":10303,"glo":10304,"glad":10305,"glance":10306,"igr":10307,"ounds":10308,"Ġample":10309,"ections":10310,"uminous":10311,"Ã¨gne":10312,"asso":10313,"assure":10314,"ĠPian":10315,"ĠPardon":10316,"ĠPÃ¨re":10317,"ĠPhilip":10318,"ĠĠĠĠčĊ":10319,"Ġarg":10320,"Ġproviding":10321,"Ġprocession":10322,"Ġleap":10323,"Ġleaf":10324,"Ġjet":10325,"Ġrul":10326,"Ġride":10327,"Ġrash":10328,"Ġabated":10329,"Ġabrupt":10330,"olent":10331,"Ġtwilight":10332,"Ġages":10333,"Ġagonies":10334,"Ġroast":10335,"Ġrobe":10336,"Ġrobb":10337,"Ġroses":10338,"Ġgoats":10339,"Ġuncertain":10340,"Ġunnatural":10341,"ĠTen":10342,"ĠTor":10343,"ĠTries":10344,"ĠTunis":10345,"ĠTrÃ©port":10346,"Ġcanvas":10347,"mention":10348,"loc":10349,"loves":10350,"Ġdiscom":10351,"Ġdisappe":10352,"Ġdisappro":10353,"Ġdisappearance":10354,"Ġdisquiet":10355,"Ġquitting":10356,"Ġquadr":10357,"oft":10358,"cia":10359,"cip":10360,"cied":10361,"Ġcontrived":10362,"ĠLake":10363,"Ġeyebrows":10364,"Ġsmelling":10365,"Ġdaybreak":10366,"Ġoutburst":10367,"ĠGerman":10368,"ĠGiovanni":10369,"Ġgrain":10370,"Ġdesol":10371,"wear":10372,"wealth":10373,"week":10374,"manif":10375,"Ġens":10376,"Ġenclosed":10377,"Ġentry":10378,"Ġentreated":10379,"Ġplenty":10380,"Ġbrid":10381,"ĠRem":10382,"ĠRocc":10383,"ĠRogliano":10384,"athy":10385,"opin":10386,"Ġaccustom":10387,"Ġoverspread":10388,"Ġclum":10389,"beat":10390,"believed":10391,"noticed":10392,"play":10393,"bery":10394,"Ġreside":10395,"Ġresounded":10396,"Ġrespon":10397,"Ġresuming":10398,"forced":10399,"Ġperished":10400,"Ġperused":10401,"Ġperceptible":10402,"Ġperchance":10403,"Ġmayor":10404,"Ġoffence":10405,"Ġblade":10406,"retired":10407,"retches":10408,"Ġassuring":10409,"Ġassigned":10410,"lieu":10411,"Ġimpose":10412,"Ġjustify":10413,"mph":10414,"Ġcollar":10415,"Ġthoughtfully":10416,"gedy":10417,"Ġapprise":10418,"Ġapparition":10419,"concierge":10420,"Ġglim":10421,"Ġglorious":10422,"Ġpartis":10423,"Ġparting":10424,"Ġpartner":10425,"feet":10426,"Ġvisage":10427,"Ġvisions":10428,"ĠNeap":10429,"Ġconscient":10430,"Ġconspicuous":10431,"exception":10432,"hesitatingly":10433,"rences":10434,"ints":10435,"Ġsignific":10436,"Ġsignificant":10437,"Ġcontinuing":10438,"Ġending":10439,"Ġendowed":10440,"comed":10441,"commit":10442,"Ġcrouched":10443,"Ġexpose":10444,"resting":10445,"venture":10446,"ugg":10447,"forty":10448,"clam":10449,"clining":10450,"clenched":10451,"ĠOR":10452,"ĠOr":10453,"Ġanswers":10454,"undered":10455,"Ġdragging":10456,"Ġdrapery":10457,"Ġfellows":10458,"Ġtreason":10459,"Ġtremend":10460,"Ġwrink":10461,"Ġtermin":10462,"itherto":10463,"Ġsuffice":10464,"Ġsupposition":10465,"Ġtrain":10466,"Ġconfid":10467,"Ġconfide":10468,"Ġrestless":10469,"Ġrestoration":10470,"ĠJap":10471,"ĠJoc":10472,"Ġrefres":10473,"Ġopenings":10474,"Ġindignation":10475,"ultan":10476,"ultiv":10477,"Ġperfumed":10478,"Ġ13":10479,"countess":10480,"shine":10481,"whatever":10482,"Ġmissed":10483,"Ġmischief":10484,"Ġwinding":10485,"ecided":10486,"version":10487,"Ġflat":10488,"Ġflashed":10489,"Ġsurmounted":10490,"antial":10491,"Ġformality":10492,"produ":10493,"prosper":10494,"noise":10495,"Ġescaping":10496,"ibilities":10497,"Ġcondes":10498,"spot":10499,"spring":10500,"Ġbreviary":10501,"Ġpossessor":10502,"Ġinflict":10503,"Ġsailing":10504,"Ġfalls":10505,"Ġhastening":10506,"RenÃ©e":10507,"Ġkingdom":10508,"arcel":10509,"uriously":10510,"ĠAsk":10511,"ĠProcureur":10512,"Ġworkman":10513,"Ġcharms":10514,"Ġgravity":10515,"suc":10516,"Ġinviting":10517,"Ġvend":10518,"Ġcorrobor":10519,"Ġ26":10520,"Ġ250":10521,"Ġdirecting":10522,"Ġlively":10523,"understanding":10524,"Ġparlor":10525,"Ġtrials":10526,"Ġhumili":10527,"Ġdespised":10528,"ĠThough":10529,"ĠThink":10530,"Ġbuck":10531,"Ġbuzz":10532,"ivita":10533,"Ġirre":10534,"Ġirony":10535,"sheet":10536,"Ġskilfully":10537,"Ġstudies":10538,"Ġstudded":10539,"Ġrecurred":10540,"Ġglobe":10541,"Ġlaunched":10542,"uesday":10543,"Ġfanciful":10544,"Ġhusbands":10545,"Ġfloated":10546,"Ġfloating":10547,"appetite":10548,"Ġoccupant":10549,"Ġoccupation":10550,"pride":10551,"prince":10552,"Ġpenc":10553,"Ġrespective":10554,"Ġgrounds":10555,"Ġlearning":10556,"Ġengraved":10557,"passage":10558,"Ġfinest":10559,"Ġsalute":10560,"Ġsalutation":10561,"Ġgriefs":10562,"ĠStay":10563,"Ġresolute":10564,"carious":10565,"cargo":10566,"Ġflooring":10567,"console":10568,"consisted":10569,"Ġstrive":10570,"Ġstriped":10571,"scene":10572,"Ġpoisoning":10573,"Ġcuriously":10574,"Ġdreaded":10575,"Ġremembering":10576,"Ġbreathing":10577,"Ġprecise":10578,"Ġexecute":10579,"Ġmentioning":10580,"Ġgratify":10581,"Ġgentlemanly":10582,"luence":10583,"Ġbetraying":10584,"ĠItalians":10585,"Ġfairy":10586,"Ġjoking":10587,"Ġelsewhere":10588,"presented":10589,"aptism":10590,"ĠYOU":10591,"Ġfireplace":10592,"Ġjudgment":10593,"Ġdancing":10594,"Ġhighness":10595,"Ġacquaintances":10596,"steward":10597,"stepped":10598,"Ġarranging":10599,"Ġsimpleton":10600,"Ġproduces":10601,"Ġrequests":10602,"request":10603,"officer":10604,"speed":10605,"specul":10606,"Ġarresting":10607,"Ġrequirements":10608,"thank":10609,"Ġmounting":10610,"Ġsatisfy":10611,"sequently":10612,"ĠLeave":10613,"Ġpriests":10614,"lanc":10615,"Ġcreate":10616,"Ġcreaking":10617,"Ġcrevices":10618,"Ġprinces":10619,"Ġgallop":10620,"Ġgalloped":10621,"viscount":10622,"Ġseparate":10623,"nificence":10624,"Ġtorches":10625,"Ġcompliment":10626,"awake":10627,"await":10628,"Ġconcerns":10629,"Ġviewed":10630,"marks":10631,"Ġcentred":10632,"follow":10633,"expressed":10634,"works":10635,"Ġmusk":10636,"Ġmusician":10637,"Ġcopied":10638,"pecial":10639,"Ġclouded":10640,"persu":10641,"papers":10642,"unted":10643,"culine":10644,"struggle":10645,"Ġkneeling":10646,"Ġpreserving":10647,"Those":10648,"Thomson":10649,"Ġmemories":10650,"Ġbursting":10651,"Ġneighbors":10652,"Ġremarkably":10653,"Ġbounds":10654,"Ġdenied":10655,"Ġdenunci":10656,"Ġhonors":10657,"verend":10658,"strong":10659,"ĠRomans":10660,"Ġlanguages":10661,"Ġhurt":10662,"Ġshutting":10663,"factory":10664,"Ġtitles":10665,"Ġmeditation":10666,"Ġmodest":10667,"Ġalarms":10668,"Ġentreaty":10669,"Proceed":10670,"viate":10671,"interred":10672,"interrog":10673,"ĠSoon":10674,"Ġtransformed":10675,"Nevertheless":10676,"ovable":10677,"Ġestim":10678,"Ġestate":10679,"Ġmirth":10680,"Ġshooting":10681,"Ġconfessor":10682,"portion":10683,"nevertheless":10684,"Ġneighboring":10685,"ĠMarquise":10686,"Ġsuspicious":10687,"Ġfails":10688,"Ġfailure":10689,"ĠBonapartists":10690,"Ġearned":10691,"azzol":10692,"condition":10693,"pieces":10694,"announced":10695,"Ġdelicious":10696,"suffering":10697,"Ġlift":10698,"Ġlifeless":10699,"Ġnegot":10700,"Ġimperial":10701,"Ġimperceptibly":10702,"Ġguarded":10703,"Ġ60":10704,"ĠKeep":10705,"Ġwarmly":10706,"Ġcalculation":10707,"Ġcalculate":10708,"Ġvolume":10709,"approaching":10710,"Ġfulfilling":10711,"Ġresembles":10712,"Ġresemblance":10713,"Ġoverwhelming":10714,"Ġdivan":10715,"trouble":10716,"advant":10717,"advance":10718,"Ġvaried":10719,"Ġpreparation":10720,"Ġerr":10721,"Ġsentinels":10722,"Ġfowls":10723,"missed":10724,"Ġsupercargo":10725,"relessly":10726,"decided":10727,"Ġdesiring":10728,"Ġdesirable":10729,"Ġspeculations":10730,"Ġowed":10731,"Ġowes":10732,"Ġmingle":10733,"Ġgarrison":10734,"reflect":10735,"Ġmasculine":10736,"ĠHerb":10737,"excitement":10738,"Ġcashier":10739,"Ġcashmere":10740,"Lucien":10741,"promised":10742,"Ġslip":10743,"Ġslipping":10744,"hastly":10745,"Ġbalcony":10746,"Ġwealthy":10747,"Ġverge":10748,"Ġsenseless":10749,"hard":10750,"iscretion":10751,"Ġpetrified":10752,"Ġgayety":10753,"Ġcarelessness":10754,"Ġrejoin":10755,"Ġrubies":10756,"Ġmarket":10757,"Ġdistribute":10758,"recognize":10759,"itchens":10760,"Ġdeclaring":10761,"equal":10762,"Ġhabitation":10763,"Ġsustain":10764,"coachman":10765,"Ġpositive":10766,"Ġurged":10767,"gratitude":10768,"Ġtemporary":10769,"Ġhurrying":10770,"Ġfacility":10771,"Ġflag":10772,"Ġamidst":10773,"Ġlegal":10774,"Ġassertion":10775,"Ġperformance":10776,"Ġincredible":10777,"Ġincredulity":10778,"Ġfragment":10779,"diamond":10780,"rimonial":10781,"Ġtotally":10782,"Ġhospital":10783,"escaped":10784,"Ġdebt":10785,"keepers":10786,"Ġimpertinence":10787,"Ġsickly":10788,"Ġinjure":10789,"striking":10790,"Ġardently":10791,"Ġimmovable":10792,"Ġthrusting":10793,"Ġcorrectly":10794,"breakfast":10795,"Carconte":10796,"destro":10797,"Ġreligion":10798,"Ġshroud":10799,"Ġcaprice":10800,"Ġinfamy":10801,"bankrupt":10802,"Ġtroops":10803,"Ġavar":10804,"influence":10805,"Ġinconvenience":10806,"ĠBoulogne":10807,"Ġresponsibility":10808,"successful":10809,"carelessly":10810,"surely":10811,"angle":10812,"Ġstrawberries":10813,"ĠPrince":10814,"Ġuniversally":10815,"Ġpledged":10816,"Ġscarf":10817,"Ġdecorated":10818,"Ġcompromise":10819,"Ġrecommendation":10820,"piÃ¨gne":10821,"watching":10822,"Ġodor":10823,"Ġlatest":10824,"imagination":10825,"ĠBourbons":10826,"Ġadditional":10827,"Ġinvestigation":10828,"Ġdrama":10829,"Ġinheritance":10830,"moccoletti":10831,"Ġtriumphantly":10832,"midst":10833,"sweet":10834,"inhabited":10835,"Ġwandered":10836,"Ġcaution":10837,"gendarmes":10838,"achable":10839,"ĠPerugia":10840,"Ġprejudice":10841,"important":10842,"declared":10843,"difficult":10844,"animous":10845,"Ġhypocr":10846,"Ġepau":10847,"stifled":10848,"Ġglittering":10849,"Ġcontradict":10850,"Ġlawyers":10851,"Ġobligations":10852,"Ġnegligence":10853,"belong":10854,"poison":10855,"russels":10856,"sacrifice":10857,"recian":10858,"reproachable":10859,"Ġbenevolent":10860,"Ġknocking":10861,"ĠLondres":10862,"Ġsteadfast":10863,"Ġrefrain":10864,"Ġrefreshment":10865,"determined":10866,"Florence":10867,"Napoleon":10868,"situation":10869,"Ġtiger":10870,"instinct":10871,"Ġmutual":10872,"Ġrevenged":10873,"Ġrecesses":10874,"Ġgnaw":10875,"ĠManfred":10876,"Ġcongratulate":10877,"ĠDuke":10878,"Ġintoxicated":10879,"neighbor":10880,"connected":10881,"Ġconsisting":10882,"Ġlobby":10883,"Ġinsensible":10884,"Ġnewspapers":10885,"obliged":10886,"purchase":10887,"curtains":10888,"Corsic":10889,"bunal":10890,"floor":10891,"jailer":10892,"Ġbeverage":10893,"Ġarsenic":10894,"ĠRussian":10895,"Ġoverpowered":10896,"Ġscandal":10897,"ĠChÃ¢lons":10898,"Ġprophet":10899,"Ġharmony":10900,"gotistical":10901,"Undoubtedly":10902,"history":10903,"Ġmartyr":10904,"Ġflesh":10905,"Ġchisel":10906,"Ġseverity":10907,"Ġexcavation":10908,"Ġrabbit":10909,"Ġcoquettish":10910,"unexpected":10911,"othschild":10912,"Ġbachelor":10913,"Lachaise":10914,"fancied":10915,"Ġmentally":10916,"Ġclient":10917,"Ġcelestial":10918,"Ġdaggers":10919,"Ġherald":10920,"ĠVersailles":10921,"Ġalphabet":10922,"ĠPianosa":10923,"Ġabruptly":10924,"Ġrobbers":10925,"ĠTrieste":10926,"ĠRocca":10927,"Ġresponse":10928,"ĠNeapol":10929,"Ġtremendous":10930,"ĠJockey":10931,")âĢĶâĢľ":10932,"16":10933,"32":10934,"61":10935,"71":10936,"87":10937,"91":10938,":âĢĶ":10939,"Auteuil":10940,"Bon":10941,"Bet":10942,"Che":10943,"Courage":10944,"Captain":10945,"Den":10946,"Diable":10947,"ED":10948,"Fif":10949,"Gree":10950,"Gaspard":10951,"Him":10952,"Jac":10953,"Kobb":10954,"LI":10955,"Med":10956,"Mal":10957,"OR":10958,"Pal":10959,"Perm":10960,"Porto":10961,"Peste":10962,"RO":10963,"Rome":10964,"Sh":10965,"Section":10966,"Saturday":10967,"Supp":10968,"Something":10969,"Try":10970,"Twenty":10971,"Wilmore":10972,"_âĢĿ":10973,"aist":10974,"aired":10975,"bes":10976,"bred":10977,"breat":10978,"bod":10979,"bowed":10980,"bright":10981,"boy":10982,"bows":10983,"bino":10984,"bounded":10985,"cong":10986,"cause":10987,"credit":10988,"ckey":10989,"ds":10990,"dam":10991,"dess":10992,"dress":10993,"dressing":10994,"doms":10995,"duty":10996,"eu":10997,"eager":10998,"epend":10999,"fet":11000,"fine":11001,"fable":11002,"fail":11003,"fault":11004,"fresh":11005,"gust":11006,"gown":11007,"hon":11008,"hosp":11009,"ibr":11010,"ipped":11011,"iator":11012,"jug":11013,"kitchen":11014,"lest":11015,"late":11016,"louis":11017,"lines":11018,"leness":11019,"lonia":11020,"mard":11021,"mpl":11022,"maint":11023,"mates":11024,"matic":11025,"memb":11026,"mantle":11027,"mma":11028,"nat":11029,"nic":11030,"num":11031,"number":11032,"ores":11033,"ollen":11034,"ping":11035,"pain":11036,"pound":11037,"pull":11038,"paint":11039,"pens":11040,"parent":11041,"prud":11042,"phys":11043,"penet":11044,"rons":11045,"rings":11046,"rusted":11047,"sle":11048,"south":11049,"soul":11050,"signed":11051,"saved":11052,"tried":11053,"ties":11054,"trem":11055,"touched":11056,"ui":11057,"uated":11058,"uino":11059,"vill":11060,"vil":11061,"vest":11062,"vag":11063,"valet":11064,"wing":11065,"wound":11066,"wanted":11067,"warned":11068,"welcome":11069,"waist":11070,"yle":11071,"zla":11072,"zia":11073,"Î½":11074,"Î¿":11075,"Ġiv":11076,"Ġ........":11077,"Ġicy":11078,"Ġtar":11079,"Ġtac":11080,"Ġtack":11081,"Ġtidings":11082,"Ġalien":11083,"inn":11084,"inine":11085,"inately":11086,"inates":11087,"intend":11088,"instr":11089,"reve":11090,"reation":11091,"repid":11092,"reality":11093,"relled":11094,"reception":11095,"represent":11096,"revolution":11097,"Ġwake":11098,"Ġwrist":11099,"Ġwinter":11100,"Ġwretches":11101,"Ġshat":11102,"Ġsous":11103,"Ġsons":11104,"Ġsciences":11105,"oups":11106,"Ġoil":11107,"Ġoaken":11108,"Ġolive":11109,"island":11110,"erary":11111,"erings":11112,"erical":11113,"error":11114,"edest":11115,"Ġmood":11116,"Ġmaxim":11117,"Ġmuzz":11118,"Ġmamma":11119,"env":11120,"encing":11121,"enjoy":11122,"onation":11123,"itative":11124,"itudes":11125,"ori":11126,"Ġbast":11127,"Ġbind":11128,"Ġbla":11129,"Ġbite":11130,"Ġburned":11131,"Ġblock":11132,"Ġbased":11133,"Ġbiting":11134,"Ġbrucine":11135,"Ġbaptism":11136,"Ġfain":11137,"Ġfoo":11138,"Ġfath":11139,"Ġfaster":11140,"Ġfitting":11141,"Ġfaded":11142,"Ġfilling":11143,"Ġfidelity":11144,"Ġfuriously":11145,"Ġcred":11146,"Ġcris":11147,"Ġclaimed":11148,"Ġcott":11149,"Ġclaws":11150,"Ġcultiv":11151,"Ġtos":11152,"Ġtoil":11153,"Ġtops":11154,"Ġtooth":11155,"lla":11156,"anch":11157,"ange":11158,"anity":11159,"anations":11160,"anges":11161,"ancholy":11162,"antechamber":11163,"anchor":11164,"ancial":11165,"Ġdies":11166,"Ġdili":11167,"arking":11168,"arling":11169,"Ġhut":11170,"Ġhues":11171,"esp":11172,"Ġpin":11173,"Ġpile":11174,"Ġpip":11175,"Ġpiety":11176,"Ġpills":11177,"Ġpedest":11178,"Ġheaving":11179,"Ġhence":11180,"Ġhack":11181,"Ġhated":11182,"Ġinit":11183,"Ġinanimate":11184,"ata":11185,"atan":11186,"Ġnon":11187,"Ġlid":11188,"Ġlink":11189,"Ġlug":11190,"Ġlung":11191,"Ġlament":11192,"ĠImp":11193,"otic":11194,"sell":11195,"seized":11196,"seek":11197,"icable":11198,"icule":11199,"imper":11200,"immed":11201,"Ġreject":11202,"Ġreception":11203,"Ġrevenue":11204,"Ġrevisit":11205,"lease":11206,"leaves":11207,"Ġec":11208,"Ġet":11209,"Ġeman":11210,"Ġeti":11211,"Ġelixir":11212,"stro":11213,"stern":11214,"stream":11215,"strate":11216,"stories":11217,"entive":11218,"entering":11219,"entals":11220,"Ġbend":11221,"Ġbeam":11222,"Ġsag":11223,"Ġge":11224,"Ġgy":11225,"Ġgal":11226,"Ġgains":11227,"Ġgreed":11228,"Ġgems":11229,"Ġgidd":11230,"Ġghastly":11231,"celer":11232,"celebrated":11233,"utral":11234,"Ġonwards":11235,"adle":11236,"adopt":11237,"ĠMac":11238,"aling":11239,"alas":11240,"alive":11241,"alarm":11242,"iron":11243,"Ġnotaries":11244,"Ġforces":11245,"ria":11246,"riv":11247,"rial":11248,"ribly":11249,"roach":11250,"Ġmeat":11251,"Ġmeasure":11252,"urbable":11253,"âĢĻâĢĿ":11254,"Ġatoms":11255,"cture":11256,"Ġmyster":11257,"Ġdew":11258,"Ġdefer":11259,"Ġanonymous":11260,"hers":11261,"toe":11262,"toine":11263,"toler":11264,"ĠCity":11265,"ĠCol":11266,"ĠCair":11267,"ĠCamp":11268,"ĠCatacombs":11269,"ĠCivita":11270,"Ġsequ":11271,"Ġserene":11272,"Ġwebs":11273,"Ġweighed":11274,"âĢĶâĢĻ":11275,"termin":11276,"lier":11277,"ift":11278,"chin":11279,"chid":11280,"chim":11281,"choo":11282,"essamine":11283,"ĠAv":11284,"Ġdoomed":11285,"kept":11286,"kelet":11287,"Ġstir":11288,"Ġstun":11289,"Ġstrew":11290,"Ġstaring":11291,"Ġstature":11292,"Ġstamped":11293,"anty":11294,"ountain":11295,"Ġsoot":11296,"Ġsocket":11297,"Ġexile":11298,"Ġexper":11299,"Ġexerted":11300,"Ġexempt":11301,"resumed":11302,"reserved":11303,"ilst":11304,"iless":11305,"Ġconc":11306,"Ġconven":11307,"Ġconceive":11308,"Ġconference":11309,"Ġconstr":11310,"Ġconquered":11311,"quished":11312,"quets":11313,"allo":11314,"Ġkios":11315,"threat":11316,"Ġwillingly":11317,"ours":11318,"ourselves":11319,"ourchid":11320,"ooh":11321,"ĠmanÅĵuvre":11322,"aumard":11323,"Ġallows":11324,"Ġalluded":11325,"ĠVal":11326,"ĠVene":11327,"ĠVicomte":11328,"ulog":11329,"Ġlire":11330,"Ġvulture":11331,"Ġvapor":11332,"Ġcountenances":11333,"ustry":11334,"emaire":11335,"emned":11336,"istribut":11337,"estics":11338,"establ":11339,"ĠBay":11340,"ĠBall":11341,"ĠBell":11342,"ĠBast":11343,"ĠBefore":11344,"ĠBottle":11345,"Ġalert":11346,"Ġshine":11347,"unks":11348,"unken":11349,"unction":11350,"ĠFr":11351,"ĠFort":11352,"ĠFirst":11353,"apable":11354,"Ġnostri":11355,"Ġnoblest":11356,"indic":11357,"indescribable":11358,"independ":11359,"arts":11360,"ĠHar":11361,"ĠHundred":11362,"ĠHorace":11363,"ivered":11364,"igo":11365,"igate":11366,"vening":11367,"elancholy":11368,"Ġrepay":11369,"Ġrepress":11370,"Ġrepair":11371,"Ġrepressed":11372,"Ġrepaid":11373,"assment":11374,"assured":11375,"ĠSuch":11376,"ĠPa":11377,"ĠPied":11378,"ĠPrison":11379,"ĠPiom":11380,"ĠPorte":11381,"Ġarc":11382,"Ġprodig":11383,"Ġcomment":11384,"Ġcomedy":11385,"Ġcompel":11386,"Ġrouse":11387,"Ġroused":11388,"Ġrules":11389,"Ġradiant":11390,"Ġability":11391,"olas":11392,"olated":11393,"olence":11394,"ngthen":11395,"meats":11396,"Ġfeather":11397,"related":11398,"labor":11399,"Ġhandles":11400,"aga":11401,"ago":11402,"agon":11403,"Ġrope":11404,"ĠEm":11405,"Ġsharing":11406,"Ġshades":11407,"Ġunperceived":11408,"Ġunhesitatingly":11409,"Ġyounger":11410,"Ġretaining":11411,"Ġretorted":11412,"ĠTomorrow":11413,"ĠTuesday":11414,"deb":11415,"deli":11416,"deceived":11417,"depend":11418,"Ġimage":11419,"Ġimpelled":11420,"Ġdissim":11421,"Ġdisinterested":11422,"Ġdisinterred":11423,"Ġdismissed":11424,"pses":11425,"Ġquid":11426,"Ġsport":11427,"Ġsports":11428,"igne":11429,"ignon":11430,"Ġremo":11431,"Ġremarks":11432,"Ġreminisc":11433,"Ġtheirs":11434,"Ġcontracted":11435,"owns":11436,"ĠLat":11437,"ĠLÃ©":11438,"ĠGra":11439,"Ġgrays":11440,"Ġgroups":11441,"Ġapology":11442,"Ġdeserves":11443,"weap":11444,"coff":11445,"ossoms":11446,"permission":11447,"Ġenvious":11448,"Ġenables":11449,"Ġpreference":11450,"Ġpreoccupation":11451,"Ġprecarious":11452,"Ġenters":11453,"Ġplant":11454,"Ġplunge":11455,"Ġbrandy":11456,"aband":11457,"abilities":11458,"ĠRet":11459,"ĠRothschild":11460,"Ġovercame":11461,"Ġcling":11462,"bearing":11463,"Ġundertook":11464,"Ġunderwent":11465,"notwithstanding":11466,"champs":11467,"challenge":11468,"plan":11469,"Ġletting":11470,"Ġresided":11471,"Ġrespiration":11472,"Ġperusal":11473,"eping":11474,"ainties":11475,"Ġexcursion":11476,"Ġblushing":11477,"Ġblossoms":11478,"Ġprescription":11479,"Ġlonged":11480,"retire":11481,"Ġprot":11482,"Ġpricked":11483,"Ġprinted":11484,"Ġprotest":11485,"Ġthrong":11486,"Ġassign":11487,"Ġspecial":11488,"Ġolder":11489,"Ġrapped":11490,"Ġrabb":11491,"lieutenant":11492,"Ġpersisted":11493,"ornÃ©lie":11494,"ianced":11495,"reading":11496,"Ġowned":11497,"Italy":11498,"Ġscra":11499,"Ġscrupulous":11500,"Ġsculpt":11501,"Ġattentions":11502,"Ġcode":11503,"Ġcovering":11504,"Ġcopper":11505,"Ġgoods":11506,"butt":11507,"button":11508,"Ġsecured":11509,"bric":11510,"brow":11511,"conies":11512,"constant":11513,"Ġglory":11514,"Ġglowing":11515,"Ġglisten":11516,"rances":11517,"Ġpartially":11518,"Ġhereafter":11519,"Ġhovering":11520,"Ġhollowed":11521,"ferences":11522,"ĠNight":11523,"ĠNice":11524,"ĠNumber":11525,"Ġconsented":11526,"Ġconsists":11527,"Ġconsumm":11528,"extended":11529,"exclam":11530,"âĢľâĢĺ_":11531,"Ġordinarily":11532,"sword":11533,"renoble":11534,"intim":11535,"Ġsignatures":11536,"Ġsignora":11537,"Ġends":11538,"comer":11539,"comes":11540,"comfortable":11541,"Ġbegging":11542,"Ġcrum":11543,"Ġcradle":11544,"Ġexplo":11545,"Ġexposing":11546,"Ġexpenses":11547,"Ġexpanded":11548,"Ġfollies":11549,"Ġvoid":11550,"upiter":11551,"ictment":11552,"Ġafflict":11553,"cloud":11554,"closing":11555,"ĠOld":11556,"Ġcommer":11557,"Ġcommencement":11558,"Ġdistracted":11559,"Ġways":11560,"Ġrecoiled":11561,"Ġwrung":11562,"Ġwringing":11563,"doing":11564,"doors":11565,"Ġterrace":11566,"Ġacute":11567,"Ġloving":11568,"Ġadvis":11569,"Ġtrusted":11570,"Ġespecial":11571,"Ġgiant":11572,"Ġconfer":11573,"Ġconfessed":11574,"Ġconfiding":11575,"Ġreturns":11576,"ĠJew":11577,"ĠJupiter":11578,"Ġtragedy":11579,"Ġpresents":11580,"Ġoccasions":11581,"Ġ14":11582,"Ġ16":11583,"Ġ149":11584,"iogn":11585,"Ġmonkey":11586,"Ġmonotonous":11587,"sho":11588,"show":11589,"shut":11590,"ships":11591,"Ġmiss":11592,"ensity":11593,"ensions":11594,"Ġarriving":11595,"eches":11596,"Ġactor":11597,"Ġactuated":11598,"Ġdivision":11599,"Ġintently":11600,"Ġintrigues":11601,"Ġintrepid":11602,"Ġinsure":11603,"Ġinsisted":11604,"Ġinsinu":11605,"Ġinsanity":11606,"ĠAtt":11607,"Ġinterf":11608,"Ġintercept":11609,"Ġintervention":11610,"Ġdepri":11611,"Ġbedchamber":11612,"Ġflowed":11613,"Ġflowing":11614,"Ġflushed":11615,"Ġflames":11616,"Ġsubmiss":11617,"Ġsurgeon":11618,"avenge":11619,"Ġchanges":11620,"Ġnewly":11621,"prove":11622,"proposed":11623,"Ġregistered":11624,"Ġcareworn":11625,"Ġescorted":11626,"Ġeffaced":11627,"otted":11628,"cribe":11629,"preter":11630,"Ġstrengthen":11631,"Ġextra":11632,"spir":11633,"Ġstructure":11634,"Ġkindled":11635,"guage":11636,"Ġsixteen":11637,"Ġspoon":11638,"Ġspoil":11639,"Ġchem":11640,"Ġkingdoms":11641,"Ġsummons":11642,"Ġdarkened":11643,"remind":11644,"remove":11645,"remaining":11646,"Ġhorribly":11647,"Ġcharm":11648,"Ġcharges":11649,"Ġreluct":11650,"Ġrelinqu":11651,"Ġpays":11652,"Ġearliest":11653,"Ġswelled":11654,"Ġvehem":11655,"Ġstrain":11656,"Ġcomplied":11657,"insult":11658,"Ġduelling":11659,"Ġdetected":11660,"Ġdevote":11661,"Ġadminister":11662,"grant":11663,"gradually":11664,"Ġ24":11665,"Ġdirections":11666,"Ġbeautifully":11667,"Ġparch":11668,"Ġharlequ":11669,"Ġladen":11670,"Ġglasses":11671,"Ġtribunal":11672,"Ġastonish":11673,"Ġwalks":11674,"Ġhumility":11675,"Ġquestioning":11676,"ĠThrough":11677,"Ġprofited":11678,"poverty":11679,"Ġcleared":11680,"Ġjoyful":11681,"Ġaffections":11682,"Ġirritated":11683,"Ġdroll":11684,"Ġfixedly":11685,"Ġskull":11686,"atiating":11687,"knows":11688,"Ġrecourse":11689,"Ġglove":11690,"Ġconvulsed":11691,"ermo":11692,"price":11693,"Ġ59":11694,"Ġteach":11695,"iciently":11696,"Ġneedless":11697,"licante":11698,"Ġpenit":11699,"attorney":11700,"Ġexplains":11701,"period":11702,"Ġportico":11703,"Ġhates":11704,"Ġhatchet":11705,"overwhel":11706,"smo":11707,"Ġdrunken":11708,"likely":11709,"Ġpoisons":11710,"passing":11711,"Ġconsiderably":11712,"Ġfinancial":11713,"Ġsalut":11714,"Ġresolve":11715,"carb":11716,"easily":11717,"Ġcursed":11718,"Ġforgetting":11719,"impatience":11720,"ĠAbout":11721,"Ġbusily":11722,"Ġprecision":11723,"Ġphleg":11724,"Ġgratefully":11725,"luck":11726,"Ġshortly":11727,"ternal":11728,"ĠSpagna":11729,"Ġjockey":11730,"Ġimagining":11731,"ĠOnce":11732,"ricious":11733,"Ġaccorded":11734,"ĠAlmost":11735,"ĠAlthough":11736,"ĠAladd":11737,"seconds":11738,"required":11739,"Ġmerry":11740,"Ġmerits":11741,"Ġrealized":11742,"Ġdispersed":11743,"Ġassistants":11744,"offer":11745,"contempt":11746,"contempl":11747,"everywhere":11748,"inese":11749,"Ġbarber":11750,"Ġbarren":11751,"Ġclearness":11752,"blow":11753,"blind":11754,"Ġpurposely":11755,"Ġsatisfactory":11756,"Ġmouthful":11757,"ributed":11758,"Ġbreakfasted":11759,"changed":11760,"Explain":11761,"Ġcreation":11762,"Ġhesitating":11763,"Reverend":11764,"Ġmovements":11765,"Ġcares":11766,"centrated":11767,"visible":11768,"Ġruns":11769,"Ġinquiringly":11770,"Ġtorrent":11771,"Ġspectacles":11772,"Ġfainting":11773,"Ġfaintly":11774,"ĠPalermo":11775,"aware":11776,"party":11777,"Ġundoubtedly":11778,"Ġdefy":11779,"Ġexactitude":11780,"friendship":11781,"Ġsighing":11782,"Ġelement":11783,"Ġelevation":11784,"ĠCatalane":11785,"exposed":11786,"crime":11787,"giers":11788,"ervation":11789,"Ġfastidious":11790,"ĠAny":11791,"Ġcabbage":11792,"Ġinfluenced":11793,"Ġstartled":11794,"Ġprojecting":11795,"Ġinterrupting":11796,"merchant":11797,"Ġbearings":11798,"thrown":11799,"Ġrider":11800,"Countess":11801,"Ġbrightened":11802,"Ġdenounced":11803,"stration":11804,"strict":11805,"stricken":11806,"Ġcrowned":11807,"Ġcollecting":11808,"Ġmodel":11809,"Ġwhiskers":11810,"Ġpronouncing":11811,"Ġsuccessively":11812,"Ġcrowded":11813,"interrupt":11814,"Ġmassive":11815,"Ġencourage":11816,"Ġtransl":11817,"Ġmirror":11818,"Ġfurr":11819,"Ġshoot":11820,"vengeance":11821,"ĠHeavens":11822,"Ġindicates":11823,"......":11824,"Parisian":11825,"iums":11826,"Ġphysiogn":11827,"ĠBaroness":11828,"confession":11829,"Ġrecalling":11830,"Ġcharacteristic":11831,"Ġdisplaying":11832,"Ġprincely":11833,"flickering":11834,"condemned":11835,"Ġmerciful":11836,"Ġresults":11837,"Ġadvantages":11838,"Ġtopic":11839,"annoy":11840,"Ġlimits":11841,"Ġlampre":11842,"Ġdelicately":11843,"sufficiently":11844,"greater":11845,"Ġelectric":11846,"Ġsoftly":11847,"Ġsoftened":11848,"Ġimperious":11849,"Ġimperative":11850,"Ġgroaning":11851,"distance":11852,"distinct":11853,"ĠKourchid":11854,"Ġwarmth":11855,"Ġascending":11856,"Ġvolumes":11857,"olutely":11858,"approach":11859,"Behind":11860,"shame":11861,"Ġcoffer":11862,"Ġerrand":11863,"regular":11864,"Ġthreatens":11865,"thinking":11866,"ĠUnfortunately":11867,"Ġhonestly":11868,"misfortunes":11869,"mistaken":11870,"Ġaudible":11871,"Ġsuperhuman":11872,"Ġspeculate":11873,"addressing":11874,"Ġdesigns":11875,"Ġsympathe":11876,"ridges":11877,"Ġbouquet":11878,"Ġtolerable":11879,"ĠRecollect":11880,"Ġscrutinized":11881,"Ġgladly":11882,"Ġstockbro":11883,"service":11884,"Ġdisturbance":11885,"ĠCompiÃ¨gne":11886,"ĠAmong":11887,"Ġannoyance":11888,"personage":11889,"4027":11890,"Ġsnatched":11891,"answered":11892,"Ġamazed":11893,"purpose":11894,"simple":11895,"simplicity":11896,"Ġveracity":11897,"Ġpetty":11898,"Ġambassad":11899,"kindness":11900,"Ġcalmed":11901,"Ġcandle":11902,"Ġcandidly":11903,"Ġcowardly":11904,"Ġrejoiced":11905,"Ġwelcomed":11906,"Ġdistributed":11907,"Ġdistribution":11908,"Ġarrangement":11909,"details":11910,"wrote":11911,"written":11912,"Ġcertificate":11913,"Ġpang":11914,"Ġcomforted":11915,"Ġcomfortable":11916,"Ġdisplease":11917,"beauty":11918,"Ġheirs":11919,"Ġlodged":11920,"Ġkissing":11921,"Ġinvoluntary":11922,"Ġmoonlight":11923,"questionably":11924,"barrelled":11925,"corpse":11926,"Ġaristocracy":11927,"respecting":11928,"Ġshepherds":11929,"Ġrepresented":11930,"ĠExcept":11931,"devotion":11932,"Ġpearly":11933,"Ġinterrogated":11934,"suspected":11935,"Ġpitied":11936,"Ġpraises":11937,"Ġornaments":11938,"Ġindulgence":11939,"Ġ287":11940,"consider":11941,"considerable":11942,"Ġeducated":11943,"Ġculprits":11944,"yram":11945,"Ġtaper":11946,"Ġcounter":11947,"Ġtotal":11948,"Ġdazzling":11949,"escension":11950,"Ġdebts":11951,"ĠEuropean":11952,"Ġbridegroom":11953,"Ġaccurately":11954,"Ġimperturbable":11955,"Ġesteemed":11956,"Ġsubstances":11957,"Ġtempting":11958,"Ġemployment":11959,"Ġsangu":11960,"Ġsanction":11961,"Ġdusty":11962,"Ġvanity":11963,"Ġvanquished":11964,"Ġgoddess":11965,"departed":11966,"Ġgrowth":11967,"Ġboldly":11968,"Ġtraverse":11969,"Ġtransport":11970,"Ġtranspired":11971,"Ġoriginally":11972,"diggers":11973,"graceful":11974,"payment":11975,"instantly":11976,"reasonable":11977,"Ġpaintings":11978,"Ġresemble":11979,"Ġgardens":11980,"commands":11981,"Ġdelirious":11982,"governor":11983,"Ġembracing":11984,"Ġprivileged":11985,"dreams":11986,"murder":11987,"Ġtrod":11988,"Ġliberal":11989,"Ġvirtues":11990,"ĠBoulevard":11991,"Ġcolleague":11992,"Ġcolleagues":11993,"Ġtermination":11994,"Ġindividuals":11995,"Ġdiplomacy":11996,"Ġchemistry":11997,"Ġfrowning":11998,"bestowed":11999,"galley":12000,"punished":12001,"witness":12002,"concerning":12003,"fearful":12004,"ĠOrientals":12005,"Ġproportions":12006,"Ġsacrificing":12007,"Ġrepresenting":12008,"ladder":12009,"Ġaugment":12010,"Ġbidding":12011,"Ġnational":12012,"Ġgrieved":12013,"ĠBourges":12014,"Ġhandfuls":12015,"Ġawakening":12016,"Ġparadox":12017,"particulars":12018,"Ġcatastrophes":12019,"circumstance":12020,"boudoir":12021,"summon":12022,"swear":12023,"shadow":12024,"inhabit":12025,"Ġwinked":12026,"Ġwandering":12027,"Ġfervent":12028,"Ġfascination":12029,"argonne":12030,"Ġexaggerate":12031,"Ġproperly":12032,"remembered":12033,"remembrance":12034,"Ġpropriety":12035,"ĠProvenÃ§":12036,"Ġgraciously":12037,"Ġcolumns":12038,"importance":12039,"Ġnumbers":12040,"declare":12041,"builder":12042,"REE":12043,"Ġturf":12044,"Ġdilated":12045,"ichelieu":12046,"quarters":12047,"Ġimpressions":12048,"Ġglittered":12049,"Ġtrampled":12050,"Ġmonarchy":12051,"Ġintimacy":12052,"Ġlawyer":12053,"Ġobligation":12054,"Ġphilosophically":12055,"IST":12056,"Quite":12057,"Quick":12058,"Ġbayon":12059,"Ġbequeath":12060,"Ġsuggest":12061,"Ġsuggested":12062,"Ġdisappointment":12063,"soldiers":12064,"explanation":12065,"Ġsupplicating":12066,"Ġsubstitute":12067,"spoken":12068,"Ġobservations":12069,"ĠAlban":12070,"accurate":12071,"according":12072,"Ġribbon":12073,"Ġribbons":12074,"inquiries":12075,"executioner":12076,"HÃ©ron":12077,"events":12078,"furnish":12079,"preted":12080,"Ġidentity":12081,"Ġfrankly":12082,"Ġeconomy":12083,"Ġconstitution":12084,"ĠSicilian":12085,"ĠPeers":12086,"ĠPresident":12087,"Ġprosperity":12088,"ĠRoyal":12089,"Ġclutching":12090,"Ġrescue":12091,"Ġimprudent":12092,"consequence":12093,"Ġintervals":12094,"Ġtransmitted":12095,"Ġequipage":12096,"Excellency":12097,"increasing":12098,"Ġcivilized":12099,"farewell":12100,"pictures":12101,"repeat":12102,"enemy":12103,"Ġfugitive":12104,"Ġpillow":12105,"Ġgathering":12106,"Ġglare":12107,"Ġdefeat":12108,"ĠCoq":12109,"Ġstabbed":12110,"Ġvineyard":12111,"Ġshriek":12112,"ĠSuppose":12113,"Ġarrow":12114,"ĠGirondin":12115,"exhausted":12116,"despair":12117,"ĠSpaniards":12118,"beginning":12119,"correspondent":12120,"Ġcavalier":12121,"ĠAcademy":12122,"Approach":12123,"Ġfeminine":12124,"Ġfabulous":12125,"Ġcherished":12126,"Ġcemented":12127,"arrangements":12128,"Ġnorthern":12129,"Ġlustre":12130,"Ġbehaved":12131,"ĠMurat":12132,"Ġancestors":12133,"ĠBellegarde":12134,"unteers":12135,"Ġproblem":12136,"ĠTranstever":12137,"ĠThank":12138,"availing":12139,"Ġpervaded":12140,"existence":12141,"comprehend":12142,"Ġinsignificant":12143,"Ġdevouring":12144,"Ġvolcano":12145,"precaution":12146,"Ġnoiselessly":12147,"incognito":12148,"Vecchio":12149,"dungeon":12150,"Ġtinged":12151,"heavy":12152,"Ġmandate":12153,"itizen":12154,"Ġfrequent":12155,"Ġcauses":12156,"Ġineffable":12157,"Ġinoffensive":12158,"Ġninety":12159,"Ġgirdle":12160,"Ġthirteen":12161,"ĠMilan":12162,"Ġstaggering":12163,"Ġsuperflu":12164,"aunted":12165,"Ġruled":12166,"Ġquadrille":12167,"manifested":12168,"opinion":12169,"Ġpartisans":12170,"Ġsignificantly":12171,"committee":12172,"Ġrefreshed":12173,"ecidedly":12174,"ĠHerbault":12175,"ĠNeapolitan":12176,"Fifty":12177,"Kobbir":12178,"Mediterranean":12179,"members":12180,"natured":12181,"Ġfools":12182,"Ġcrisis":12183,"Ġpipes":12184,"Ġlungs":12185,"Ġetiquette":12186,"Ġgalop":12187,"Ġmysteries":12188,"ĠCairo":12189,"Ġconvenient":12190,"Ġkiosk":12191,"ĠVenezia":12192,"Ġnostrils":12193,"independent":12194,"ĠPiedmont":12195,"ĠPiombino":12196,"Ġrabbits":12197,"Ġsubmissive":12198,"Ġvehemence":12199,"ĠAladdin":12200,"Ġsympathetic":12201,"ĠProvenÃ§al":12202,".;":12203,"05":12204,"06":12205,"050":12206,"10":12207,"14":12208,"24":12209,"28":12210,"31":12211,"38":12212,"48":12213,"56":12214,"63":12215,"67":12216,"600":12217,"73":12218,"700":12219,"94":12220,"95":12221,"AG":12222,"AT":12223,"Ag":12224,"Acc":12225,"Abs":12226,"Bl":12227,"BER":12228,"CE":12229,"CH":12230,"Call":12231,"Cap":12232,"Des":12233,"Directly":12234,"Decidedly":12235,"Ext":12236,"ECT":12237,"Fa":12238,"Hum":12239,"Hope":12240,"IL":12241,"IN":12242,"Jean":12243,"JECT":12244,"Kill":12245,"Must":12246,"Martin":12247,"NY":12248,"Nor":12249,"Nearly":12250,"ON":12251,"Opera":12252,"ONT":12253,"Pre":12254,"Per":12255,"Popolo":12256,"Patience":12257,"Perfectly":12258,"Pooh":12259,"Ro":12260,"Se":12261,"San":12262,"Send":12263,"Span":12264,"Sometimes":12265,"Simply":12266,"Towards":12267,"Vasiliki":12268,"Whether":12269,"Welcome":12270,"_!":12271,"_!âĢĿ":12272,"_,âĢĻ":12273,"_.âĢĻâĢĿ":12274,"aqu":12275,"aires":12276,"aÃ¯":12277,"bul":12278,"bish":12279,"bled":12280,"bless":12281,"bread":12282,"bling":12283,"bbed":12284,"bird":12285,"bony":12286,"bills":12287,"battle":12288,"brucine":12289,"cer":12290,"cat":12291,"cher":12292,"cation":12293,"cart":12294,"cig":12295,"cru":12296,"cod":12297,"cried":12298,"cull":12299,"cash":12300,"crossed":12301,"certained":12302,"curious":12303,"dr":12304,"dv":12305,"dan":12306,"ders":12307,"dated":12308,"dued":12309,"dying":12310,"ere":12311,"eor":12312,"eble":12313,"east":12314,"eating":12315,"eceive":12316,"eleg":12317,"fr":12318,"fir":12319,"fra":12320,"food":12321,"flight":12322,"fund":12323,"fused":12324,"future":12325,"fulf":12326,"front":12327,"gic":12328,"gle":12329,"gay":12330,"gained":12331,"gments":12332,"gigantic":12333,"hort":12334,"hunger":12335,"houses":12336,"hitherto":12337,"ii":12338,"ike":12339,"iard":12340,"ived":12341,"iary":12342,"iber":12343,"iacom":12344,"job":12345,"kened":12346,"lion":12347,"lÃ©":12348,"laughter":12349,"lower":12350,"liction":12351,"licted":12352,"lasted":12353,"mess":12354,"mort":12355,"mour":12356,"mate":12357,"mass":12358,"mity":12359,"merc":12360,"mark":12361,"monsieur":12362,"mode":12363,"mazzol":12364,"melancholy":12365,"none":12366,"nui":12367,"pant":12368,"press":12369,"pract":12370,"paid":12371,"pati":12372,"poned":12373,"posit":12374,"phole":12375,"ruth":12376,"rays":12377,"sn":12378,"sin":12379,"sis":12380,"sit":12381,"sav":12382,"sud":12383,"shap":12384,"slaves":12385,"safe":12386,"tim":12387,"tte":12388,"tall":12389,"taste":12390,"title":12391,"uine":12392,"uces":12393,"vant":12394,"viv":12395,"war":12396,"wine":12397,"wice":12398,"ware":12399,"whis":12400,"waves":12401,"wrist":12402,"year":12403,"zes":12404,"zard":12405,"zier":12406,"Î±":12407,"Î¼":12408,"ÏĢ":12409,"ÏĦ":12410,"á¼":12411,"Ġign":12412,"Ġtu":12413,"Ġtie":12414,"Ġties":12415,"Ġtapp":12416,"Ġtunic":12417,"hero":12418,"health":12419,"hevelled":12420,"Ġast":12421,"Ġaus":12422,"inj":12423,"inth":12424,"inone":12425,"inable":12426,"incl":12427,"inner":12428,"inations":12429,"insp":12430,"incing":12431,"inform":12432,"inaries":12433,"inara":12434,"instruct":12435,"rez":12436,"remed":12437,"rection":12438,"relig":12439,"Ġwager":12440,"Ġsin":12441,"Ġsne":12442,"Ġsarc":12443,"Ġsilly":12444,"Ġsouthern":12445,"Ġskelet":12446,"Ġoy":12447,"Ġoak":12448,"Ġogre":12449,"hable":12450,"handed":12451,"hakes":12452,"isure":12453,"isition":12454,"era":12455,"erior":12456,"edies":12457,"Ġmit":12458,"Ġmain":12459,"Ġmast":12460,"Ġmail":12461,"Ġmuse":12462,"Ġmuttering":12463,"enne":12464,"enator":12465,"enabled":12466,"ennui":12467,"onnet":12468,"ithe":12469,"itch":12470,"itution":12471,"orial":12472,"orbed":12473,"Ġburi":12474,"Ġbitten":12475,"Ġbaskets":12476,"Ġborne":12477,"Ġfist":12478,"Ġfost":12479,"Ġfable":12480,"Ġfict":12481,"Ġcu":12482,"Ġcough":12483,"Ġcla":12484,"Ġcrop":12485,"anus":12486,"Ġdur":12487,"Ġdess":12488,"Ġdated":12489,"Ġdanced":12490,"Ġdates":12491,"Ġdense":12492,"Ġdandy":12493,"Ġdaunted":12494,"arose":12495,"aroused":12496,"Ġhit":12497,"Ġhilar":12498,"Ġhorrid":12499,"Ġpard":12500,"Ġpau":12501,"Ġpla":12502,"Ġpage":12503,"Ġpink":12504,"Ġpension":12505,"Ġpipe":12506,"Ġyawn":12507,"asiness":12508,"ascending":12509,"Ġhed":12510,"Ġheed":12511,"Ġheap":12512,"Ġheaped":12513,"Ġheels":12514,"Ġheaved":12515,"Ġhail":12516,"Ġhailed":12517,"Ġinward":12518,"Ġinexpress":12519,"Ġinartic":12520,"Ġincessantly":12521,"Ġinasmuch":12522,"Ġinmates":12523,"atro":12524,"athing":12525,"atively":12526,"atches":12527,"Ġnut":12528,"Ġnail":12529,"Ġnets":12530,"Ġnerves":12531,"Ġlot":12532,"Ġlun":12533,"Ġlions":12534,"Ġliter":12535,"Ġloses":12536,"Ġlicense":12537,"Ġlarg":12538,"Ġlamps":12539,"Ġlarger":12540,"Ġlasso":12541,"omÃ¨":12542,"ĠIII":12543,"othing":12544,"vey":12545,"verely":12546,"icking":12547,"imented":12548,"Ġrear":12549,"Ġrect":12550,"Ġreign":12551,"Ġrevo":12552,"Ġreference":12553,"Ġreigned":12554,"Ġreclining":12555,"ley":12556,"legr":12557,"Ġeve":12558,"Ġejac":12559,"Ġecho":12560,"Ġeulog":12561,"stat":12562,"stop":12563,"storm":12564,"stices":12565,"started":12566,"string":12567,"style":12568,"entreat":12569,"entieth":12570,"Ġbeach":12571,"Ġbeaming":12572,"Ġwhiter":12573,"Ġwhilst":12574,"Ġsapp":12575,"Ġsalt":12576,"Ġsabre":12577,"Ġgust":12578,"Ġgross":12579,"Ġgaining":12580,"Ġgreet":12581,"lymp":12582,"Ġonions":12583,"Ġonline":12584,"ado":12585,"adays":12586,"illon":12587,"illum":12588,"illery":12589,"ĠMat":12590,"ĠMus":12591,"ĠMag":12592,"ĠMÃ©d":12593,"ales":12594,"alse":12595,"alted":12596,"iry":12597,"Ġwithheld":12598,"Ġnotions":12599,"Ġascertained":12600,"Ġfork":12601,"Ġfors":12602,"riori":12603,"Ġissuing":12604,"verted":12605,"royal":12606,"Ġult":12607,"eting":12608,"etic":12609,"etition":12610,"urous":12611,"urable":12612,"urances":12613,"âĢĻ,":12614,"âĢĻ;":12615,"redoubled":12616,"tear":12617,"Ġdei":12618,"Ġdegr":12619,"Ġdeception":12620,"Ġdella":12621,"Ġangl":12622,"ĠCor":12623,"ĠCould":12624,"ĠCast":12625,"ĠCap":12626,"ĠCemetery":12627,"amble":12628,"amily":12629,"aments":12630,"terms":12631,"lived":12632,"iff":12633,"ifth":12634,"pear":12635,"peare":12636,"peace":12637,"pending":12638,"peasant":12639,"pelle":12640,"peasants":12641,"ĠAra":12642,"ĠAqu":12643,"ĠAig":12644,"ĠAix":12645,"ĠANY":12646,"Ġstal":12647,"Ġstain":12648,"Ġstall":12649,"Ġstations":12650,"Ġstaying":12651,"Ġstumbled":12652,"ortes":12653,"Ġwhoever":12654,"raise":12655,"rarely":12656,"Ġsoil":12657,"Ġextend":12658,"Ġexalted":12659,"resight":12660,"romise":12661,"Ġconcert":12662,"Ġconcentrated":12663,"Ġsult":12664,"Ġsugar":12665,"Ġherbs":12666,"allowed":12667,"eflect":12668,"Ġkids":12669,"Ġkitchens":12670,"ĠDel":12671,"ĠDup":12672,"ĠDieu":12673,"ĠDiable":12674,"tho":12675,"thick":12676,"thirst":12677,"geant":12678,"oop":12679,"bleau":12680,"ppers":12681,"risk":12682,"acon":12683,"acies":12684,"across":12685,"Ġmania":12686,"auspic":12687,"Ġorator":12688,"Ġallowing":12689,"ĠVill":12690,"ĠVizier":12691,"ulp":12692,"ulation":12693,"ulations":12694,"Ġlies":12695,"Ġvice":12696,"Ġvase":12697,"Ġvote":12698,"Ġvirg":12699,"Ġvarnished":12700,"Ġvulgar":12701,"Ġcounting":12702,"ational":12703,"ersbur":12704,"istinct":12705,"estim":12706,"ĠBag":12707,"ĠBey":12708,"ĠBrut":12709,"ĠBarri":12710,"ĠBlanc":12711,"ĠBrussels":12712,"Ġknots":12713,"Ġshi":12714,"Ġshots":12715,"unity":12716,"uniform":12717,"usurper":12718,"Ã©s":12719,"Ã©ah":12720,"Ã©loÃ¯se":12721,"ĠFer":12722,"ĠFen":12723,"ĠFortunately":12724,"ĠFamily":12725,"ĠFifth":12726,"Ġnobody":12727,"individual":12728,"indiscretion":12729,"arture":12730,"ĠHast":12731,"ĠHav":12732,"ĠHomer":12733,"ĠHÃ©loÃ¯se":12734,"ateur":12735,"Ġamend":12736,"Ġamassed":12737,"Ġamateur":12738,"else":12739,"umor":12740,"assing":12741,"associ":12742,"ĠSal":12743,"ĠServ":12744,"ĠSultan":12745,"ĠPon":12746,"ĠPers":12747,"ĠPast":12748,"ĠPol":12749,"ĠPamp":12750,"ĠPope":12751,"ĠPRO":12752,"ĠMorgi":12753,"Ġarched":12754,"Ġarrog":12755,"Ġarithmet":12756,"Ġprosec":12757,"Ġprostrate":12758,"ordeau":12759,"ordinates":12760,"Ġcompre":12761,"Ġcommented":12762,"Ġlease":12763,"Ġlegend":12764,"Ġjib":12765,"Ġrow":12766,"Ġabst":12767,"Ġabuse":12768,"oliness":12769,"iece":12770,"ieutenant":12771,"Ġtwisted":12772,"Ġtwentieth":12773,"meant":12774,"measure":12775,"Ġfeed":12776,"Ġfees":12777,"Ġfeud":12778,"Ġfeature":12779,"Ġmadly":12780,"lago":12781,"agreement":12782,"Ġadjust":12783,"Ġroot":12784,"Ġrode":12785,"Ġshaped":12786,"otherwise":12787,"Yesterday":12788,"Ġuses":12789,"Ġunw":12790,"Ġuncovered":12791,"Ġunhappily":12792,"Ġunsuccessful":12793,"Ġunanimous":12794,"Ġunpunished":12795,"ilemma":12796,"ended":12797,"Ġretard":12798,"ĠTa":12799,"ĠTruly":12800,"ĠTerror":12801,"mentaries":12802,"deg":12803,"youth":12804,"Ġthanking":12805,"Ġdissol":12806,"Ġdisobe":12807,"Ġdisease":12808,"Ġdisliked":12809,"Ġdisgust":12810,"psy":12811,"psies":12812,"Ġquits":12813,"Ġqualities":12814,"Ġtwofold":12815,"Ġloophole":12816,"Ġspl":12817,"Ġspank":12818,"Ġspasm":12819,"ideas":12820,"Ġlikewise":12821,"Ġdidn":12822,"warded":12823,"often":12824,"Ġremedies":12825,"cili":12826,"cipl":12827,"cibly":12828,"foreseen":12829,"Ġcontains":12830,"owned":12831,"ĠLI":12832,"ĠLast":12833,"ĠLions":12834,"ĠLang":12835,"ĠLemaire":12836,"Ġpopul":12837,"ĠWater":12838,"ĠWAR":12839,"Ġoutline":12840,"Ġoutstretched":12841,"ittance":12842,"ĠGUT":12843,"ĠGrecian":12844,"ĠGanges":12845,"ĠMadrid":12846,"Ġgrim":12847,"Ġgrated":12848,"Ġgrows":12849,"Ġgrasping":12850,"avors":12851,"Ġdesper":12852,"Ġdesigned":12853,"weight":12854,"inking":12855,"cop":12856,"coaches":12857,"mann":12858,"perished":12859,"Ġenlight":12860,"Ġenact":12861,"Ġenraged":12862,"Ġenmity":12863,"Ġprem":12864,"Ġpremed":12865,"Ġpreval":12866,"Ġentries":12867,"Ġfiring":12868,"Ġplaster":12869,"Ġplays":12870,"Ġplundered":12871,"ceded":12872,"ceding":12873,"abri":12874,"Ġdoorway":12875,"ĠRE":12876,"ĠRic":12877,"ĠRest":12878,"ĠRichelieu":12879,"oplect":12880,"opold":12881,"Ġaccost":12882,"Ġaccum":12883,"Ġovertook":12884,"Ġclad":12885,"Ġclap":12886,"Ġcloses":12887,"Ġcloser":12888,"beian":12889,"behold":12890,"becoming":12891,"Ġundergoing":12892,"Ġfoaming":12893,"Ġforesight":12894,",âĢĶâĢĺ":12895,"Ġresiding":12896,"Ġchill":12897,"Ġchord":12898,"forgive":12899,"Ġperception":12900,"neg":12901,"neck":12902,"Whatever":12903,"Ġserving":12904,"udge":12905,"Ġexcused":12906,"Ġblown":12907,"Ġblowing":12908,"Ġprescribed":12909,"Ġprow":12910,"Ġassid":12911,"Ġassurances":12912,"Ġspeeches":12913,"Ġraven":12914,"ĠâĢĺ_":12915,"Ġchased":12916,"Ġchained":12917,"Ġchaste":12918,"Ġimpr":12919,"Ġimply":12920,"Ġimpass":12921,"Ġimplied":12922,"ization":12923,"lessness":12924,"Ġowns":12925,"kingdom":12926,"pleased":12927,"Ġjustly":12928,"Ġscound":12929,"Ġscale":12930,"Ġcoin":12931,"Ġcovers":12932,"Ġcoarse":12933,"Ġapprent":12934,"bring":12935,"brain":12936,"brings":12937,"Ġboon":12938,"Ġboot":12939,"Ġgreatcoat":12940,"rightly":12941,"conquer":12942,"concluded":12943,"Ġwhereas":12944,"Ġwherefore":12945,"Ġgloss":12946,"Ġinstalled":12947,"Ġstillness":12948,"ĠMorcerfs":12949,"Ġparties":12950,"Ġpartition":12951,"Ġpartridges":12952,"feigned":12953,"feeble":12954,"Ġsteered":12955,"uedoc":12956,"Ġvisibly":12957,"ceivable":12958,"ĠNear":12959,"ĠNargonne":12960,"Ġconsumed":12961,"Ġconserv":12962,"exactly":12963,"explain":12964,"hence":12965,"hesitated":12966,"Ġlastly":12967,"Ġstole":12968,"Ġsignifies":12969,"Ġpossibilities":12970,"Ġendured":12971,"comers":12972,"gnette":12973,"Ġfounded":12974,"Ġadding":12975,"ictions":12976,"Ġhearty":12977,"Ġaffianced":12978,"Ġpeas":12979,"Ġpebb":12980,"cloth":12981,"oisseur":12982,"âĢĶâĢĶ,":12983,"âĢĶâĢĶâĢĻ":12984,"ĠOff":12985,"ĠOther":12986,"ĠOliva":12987,"ĠOlymp":12988,"Ġcommitting":12989,"Ġsincerely":12990,"ialect":12991,"Ġbelieves":12992,"Ġmines":12993,"Ġministry":12994,"Ġrecovering":12995,"Ġwrought":12996,"Ġwrites":12997,"doctor":12998,"Ġkeeps":12999,"nervous":13000,"Ġload":13001,"Ġloaf":13002,"Ġwaits":13003,"Ġchildlike":13004,"Ġtrunks":13005,"0009":13006,"Ġcapricious":13007,"Ġpurity":13008,"Ġconfine":13009,"Ġconfounded":13010,"Ġconflict":13011,"Ġconfetti":13012,"ĠJoh":13013,"ĠJoannes":13014,"Ġdoubting":13015,"Ġrefuses":13016,"Ġbackwards":13017,"Ġbackground":13018,"Ġopenly":13019,"Ġtrap":13020,"Ġtravels":13021,"author":13022,"ĠChinese":13023,"Ġindustrious":13024,"Ġindustry":13025,"serious":13026,"Ġpromotion":13027,"showed":13028,"Ġmiser":13029,"Ġawkward":13030,"Ġdived":13031,"Ġtenant":13032,"Ġemetic":13033,"Ġinsuff":13034,"Ġinsolent":13035,"action":13036,"actors":13037,"enealog":13038,"Ġinternal":13039,"Ġintercourse":13040,"Ġinterpreted":13041,"Ġinterstices":13042,"Ġdeputed":13043,"Ġbeds":13044,"Ġflush":13045,"Ġsubs":13046,"Ġsubtle":13047,"Ġchanced":13048,"asters":13049,"duel":13050,"Ġthousands":13051,"useless":13052,"Ġformat":13053,"proc":13054,"propose":13055,"proceeded":13056,"propri":13057,"probably":13058,"Ġregain":13059,"Ġregions":13060,"Ġsimult":13061,"Ġescapes":13062,"ĠInformation":13063,"ĠInterior":13064,"Ġapproved":13065,"yours":13066,"yourselves":13067,"prefer":13068,"Ġranged":13069,"Ġextract":13070,"spoke":13071,"guide":13072,"guillotine":13073,"Ġbreeding":13074,"Ġpossessions":13075,"Ġmistrust":13076,"Ġinflam":13077,"Ġinferior":13078,"ceeds":13079,"Ġsecretly":13080,"Ġcheer":13081,"Ġchecked":13082,"Ġremainder":13083,"Ġoppon":13084,"Ġoppressed":13085,"Ġsums":13086,"acello":13087,"remarked":13088,"Ġforeseen":13089,"Ġforewarned":13090,"Ġproposal":13091,"ĠAss":13092,"Ġsounding":13093,"Ġworkmen":13094,"Ask":13095,"Ġillusions":13096,"Ġrelic":13097,"Ġrelapse":13098,"bandit":13099,"Ġmagn":13100,"rosinone":13101,"Ġpayment":13102,"Ġpayments":13103,"Ġearthen":13104,"Ġswallow":13105,"Ġswollen":13106,"Ġswift":13107,"Ġfullest":13108,"Ġcorpor":13109,"Ġincident":13110,"Ġincapable":13111,"tempered":13112,"Ġstrained":13113,"Ġstricken":13114,"Ġcompliance":13115,"inspect":13116,"Ġdeter":13117,"Ġdetect":13118,"Ġdetached":13119,"Ġdevoured":13120,"Ġdevoid":13121,"Ġadmin":13122,"gray":13123,"grown":13124,"Ãīti":13125,"Ġ22":13126,"Ġ23":13127,"Ġmoistened":13128,"Ġbandaged":13129,"Ġconsidering":13130,"Ġrichly":13131,"alyzed":13132,"Ġpartook":13133,"Ġfooting":13134,"Ġfootmen":13135,"Ġfootstep":13136,"Ġharness":13137,"uteness":13138,"prises":13139,"Ġtrip":13140,"Ġacquisition":13141,"discovered":13142,"displayed":13143,"Ġcelebr":13144,"Ġprofessed":13145,"phin":13146,"Ġclemat":13147,"Ġirreproachable":13148,"Ġirregular":13149,"shepherd":13150,"Ġcircum":13151,"Ġcircles":13152,"Ġcircular":13153,"contad":13154,"contents":13155,"Ġskiff":13156,"Ġreddish":13157,"Ġstudying":13158,"Ġholder":13159,"knowing":13160,"Ġfreezing":13161,"mandaÃ¯":13162,"iceship":13163,"Ġconvulsion":13164,"Ġpocketbook":13165,"Ġfarthest":13166,"Ġlands":13167,"month":13168,"Ġ55":13169,"Ġeffected":13170,"Ġpenalty":13171,"Ġposting":13172,"Ġexplaining":13173,"Ġexplanations":13174,"Ġallowance":13175,"perienced":13176,"ĠTherefore":13177,"Ġrocky":13178,"Ġrespects":13179,"overcome":13180,"smell":13181,"Ġcrystal":13182,"Ġdelights":13183,"ĠDoes":13184,"ĠDoctor":13185,"obin":13186,"Ġcosts":13187,"Alone":13188,"Always":13189,"passes":13190,"ĠLafit":13191,"Ġbrood":13192,"Ġsalons":13193,"Ġsalvation":13194,"ĠStr":13195,"carriages":13196,"Ġ32":13197,"consol":13198,"conspir":13199,"Ġcurate":13200,"Ġcursing":13201,"Ġcountrymen":13202,"ĠTeatro":13203,"Ġreflections":13204,"scaffold":13205,"scheme":13206,"Ġleaden":13207,"Ġforgetfulness":13208,"imprison":13209,"Ġstands":13210,"Ġlaughingly":13211,"whence":13212,"Ġcoveted":13213,"Ġquickness":13214,"affected":13215,"Ġembarked":13216,"Ġgratified":13217,"Ġsyn":13218,"Ġsycam":13219,"Ġexpectations":13220,"Ġacceptable":13221,"Ġwitnessing":13222,"Ġmotioning":13223,"presents":13224,"aptivity":13225,"Ġaccordingly":13226,"Ġworthwhile":13227,"Ġroads":13228,"Ġcircumstantial":13229,"Ġobjections":13230,"Ġtruths":13231,"ograph":13232,"pendous":13233,"Ġchamberlain":13234,"Ġdinners":13235,"ĠAlready":13236,"ĠAlgiers":13237,"Ġreplying":13238,"ĠUntil":13239,"Ġsensations":13240,"security":13241,"Ġequality":13242,"Ġproduct":13243,"Ġproducing":13244,"require":13245,"joined":13246,"Ġpatrimony":13247,"Ġassisted":13248,"boards":13249,"boats":13250,"Ġbarrels":13251,"ĠGreeks":13252,"Ġmouths":13253,"ĠLevant":13254,"Ġpaltry":13255,"language":13256,"Ġfurnishing":13257,"Ġshaded":13258,"Ġrendezvous":13259,"beforehand":13260,"Ġvalid":13261,"Ġquarters":13262,"volous":13263,"voluntarily":13264,"Ġlaying":13265,"Ġseparating":13266,"States":13267,"Ġtorment":13268,"Ġprotecting":13269,"minute":13270,"Ġcreditor":13271,"inguish":13272,"Ġviews":13273,"Ġcenturies":13274,"Ġgeneration":13275,"telling":13276,"Ġsuccor":13277,"Ġvictorious":13278,"newspap":13279,"Ġmuslin":13280,"Ġbrace":13281,"Ġbravo":13282,"Ġcopying":13283,"gives":13284,"Ġbells":13285,"ĠAnge":13286,"ĠAntoine":13287,"Ġsupporting":13288,"Ġsingularly":13289,"report":13290,"Ġsolidity":13291,"Ġkeyhole":13292,"Ġsweetest":13293,"Ġsweetness":13294,"Ġstartling":13295,"Ġaddresses":13296,"throw":13297,"throwing":13298,"Ġregrets":13299,"ĠXVI":13300,"Ġbrightest":13301,"Ġbrightness":13302,"Ġevince":13303,"Ġevinced":13304,"Ġshutters":13305,"Ġmedic":13306,"Ġmeditated":13307,"Ġmeddle":13308,"Ġmoder":13309,"Ġmodesty":13310,"Ġreceives":13311,"acquired":13312,"Ġdisclaim":13313,"Ġdiscourse":13314,"Ġdiscretion":13315,"Ġassassinate":13316,"Ġsuccessor":13317,"interview":13318,"Ġwretchedness":13319,"Ġtransfer":13320,"Ġtransformation":13321,"spectators":13322,"Ġcrazy":13323,"Ġindication":13324,"Arch":13325,"Around":13326,"Child":13327,"Christ":13328,"portmanteau":13329,"Ġweakened":13330,"Ġrestraining":13331,"breast":13332,"Ġgenuine":13333,"Ġenjoyment":13334,"Ġremembers":13335,"Ġlouder":13336,"Ġstrokes":13337,"ulsation":13338,"Ġintends":13339,"ĠBonapartism":13340,"chest":13341,"embarked":13342,"Ġchoked":13343,"suffered":13344,"continue":13345,"Ġsoftest":13346,"Ġneglect":13347,"Ġapprehe":13348,"companions":13349,"afraid":13350,"distinguish":13351,"Ġ80":13352,"Ġ90":13353,"Ġwarmest":13354,"Ġclover":13355,"Ġcalculating":13356,"Ġpublicly":13357,"Ġgestures":13358,"Ġvolunteers":13359,"Ġpretence":13360,"Ġblindfolded":13361,"surpris":13362,"Ġavoiding":13363,"Ġdeliber":13364,"Ġconnoisseur":13365,"Ġreproaches":13366,"ological":13367,"Ġsharply":13368,"Ġbrilliantly":13369,"Ġdivide":13370,"4007":13371,"priv":13372,"priest":13373,"trousers":13374,"recital":13375,"Ġvariety":13376,"Ġroyalists":13377,"Ġcoffin":13378,"Ġcoffins":13379,"Ġadvantageous":13380,"sublime":13381,"regret":13382,"Ġthreats":13383,"Ġvilla":13384,"Ġadventurous":13385,"letters":13386,"4016":13387,"names":13388,"namely":13389,"Ġaudacity":13390,"Ġauditors":13391,"Ġmathem":13392,"Ġmatrimonial":13393,"Ġthunderstruck":13394,"Ġsuperstit":13395,"Ġsupernatural":13396,"Ġsupernum":13397,"decapit":13398,"Ġspeculator":13399,"Ġbuilder":13400,"limity":13401,"Ġfrozen":13402,"Ġelegantly":13403,"addressed":13404,"Ġspeedy":13405,"Ġearnestness":13406,"refuse":13407,"reflected":13408,"refusal":13409,"Ġmasked":13410,"Ġcourier":13411,"Ġdomino":13412,"Ġdomestics":13413,"Ġpallid":13414,"ĠBeing":13415,"Ġfolds":13416,"supper":13417,"supposed":13418,"ridiculous":13419,"Ġtongues":13420,"Ġboulevard":13421,"Ġbouquets":13422,"Ġrevert":13423,"Ġstockings":13424,"Ġconvulsions":13425,"Ġundertaken":13426,"Ġestablish":13427,"ĠChristians":13428,"Ġfondly":13429,"Ġcrucif":13430,"Ġcruelly":13431,"Ġlosses":13432,"stopping":13433,"Ġaccidentally":13434,"Ġcarbines":13435,"Ġpeaceful":13436,"Ġcommonplace":13437,"Ġannoying":13438,"Ġdestroys":13439,"personal":13440,"Ġmournfully":13441,"echo":13442,"hastily":13443,"answers":13444,"Ġsafest":13445,"Ġexercises":13446,"acquaintances":13447,"Ġbenefit":13448,"Above":13449,"Ġtimber":13450,"hargy":13451,"ĠNotwithstanding":13452,"Ġcaptured":13453,"Ġcorrespondents":13454,"turnkey":13455,"Ġcivility":13456,"Ġpracticed":13457,"Ġrejoice":13458,"ĠMalaga":13459,"ĠConsequently":13460,"anticip":13461,"Ġrubbing":13462,"Ġobstinate":13463,"Ġsympathize":13464,"buried":13465,"detected":13466,"sombre":13467,"sixteen":13468,"wrong":13469,"write":13470,"worth":13471,"Ġpanes":13472,"street":13473,"rieked":13474,"ĠTurks":13475,"Ġhorizons":13476,"equally":13477,"famili":13478,"judge":13479,"Ġinherits":13480,"Ġsusceptible":13481,"Ġkisses":13482,"Ġprovinces":13483,"Ġ114":13484,"Ġemerged":13485,"grandmother":13486,"Ġacknowledging":13487,"Unhappy":13488,"barrier":13489,"inette":13490,"enetrable":13491,"arriving":13492,"Ġgifts":13493,"respects":13494,"Ġjesting":13495,"Ġchimerical":13496,"commod":13497,"committed":13498,"Leghorn":13499,"Ġidle":13500,"Ġsquee":13501,"Ġbanking":13502,"Ġfaculty":13503,"Ġpitiless":13504,"Ġpraised":13505,"Ġbeholding":13506,"ctuality":13507,"Ġstarving":13508,"Ġstarvation":13509,"ĠDeath":13510,"ĠFlorentin":13511,"Ġcommissioned":13512,"Ġindulgent":13513,"Ġswallowing":13514,"cabbage":13515,"divided":13516,"fifteen":13517,"oliÃ¨re":13518,"windows":13519,"Ġtottered":13520,"escape":13521,"Ġeternity":13522,"Ġeternally":13523,"absorbed":13524,"Ġaccuracy":13525,"Ġcoverlet":13526,"convuls":13527,"examine":13528,"example":13529,"examination":13530,"recollection":13531,"recollections":13532,"Ġgenerously":13533,"burnt":13534,"moccoli":13535,"Ġsickness":13536,"Ġhangings":13537,"Ġinjured":13538,"Ġinjury":13539,"ĠIndian":13540,"astrophe":13541,"Ġgods":13542,"deposited":13543,"Ġattraction":13544,"Ġoccurrence":13545,"Ġregisters":13546,"humanity":13547,"Ġdisdainfully":13548,"Ġmiraculously":13549,"digger":13550,"grave":13551,"Ġavailing":13552,"invited":13553,"invitation":13554,"Ġbodice":13555,"Ġheroic":13556,"levards":13557,"admire":13558,"admiration":13559,"Ġshrink":13560,"endeavored":13561,"Ġimplore":13562,"Ġspecified":13563,"Ġcleverly":13564,"Ġdiscussing":13565,"banker":13566,"solitude":13567,"sleeping":13568,"trying":13569,"ylon":13570,"Ġavowal":13571,"Ġmaiden":13572,"Ġseamen":13573,"Ġliberated":13574,"Ġshedding":13575,"Ġenvy":13576,"Ġblessing":13577,"Ġblessings":13578,"Ġcollege":13579,"introduce":13580,"Ġfrowned":13581,"Ġsettlement":13582,"moon":13583,"punishment":13584,"Ġdictate":13585,"Ġdictated":13586,"Ġpredicted":13587,"Ġalteration":13588,"Ġpersecuted":13589,"Ġscreamed":13590,"Ġvisionary":13591,"Ġextinguish":13592,"Ġdecorations":13593,"Ġswimmer":13594,"Ġenergetically":13595,"Ġemeralds":13596,"Ġrepresentative":13597,"ladies":13598,"violent":13599,"violence":13600,"walls":13601,"Ġavenged":13602,"Ġavenger":13603,"Ġsongs":13604,"Ġodious":13605,"Ġblew":13606,"Ġbleeding":13607,"Ġphantoms":13608,"assembled":13609,"Ġlatitudes":13610,"Ġreleased":13611,"Ġgrieve":13612,"Ġgrieves":13613,"Ġorgans":13614,"meeting":13615,"Ġimprove":13616,"prayers":13617,"Ġdramatic":13618,"Ġsurrounding":13619,"bouquet":13620,"horrible":13621,"middle":13622,"patron":13623,"salts":13624,"shadows":13625,"Ġtumultuous":13626,"onneau":13627,"Ġferocious":13628,"llenged":13629,"Ġderive":13630,"Ġarchitect":13631,"Ġprejudices":13632,"Ġlogic":13633,"Ġindependent":13634,"Ġsurveyed":13635,"Ġbankruptcy":13636,"Ġcondemnation":13637,"building":13638,"cornered":13639,"fingers":13640,"movement":13641,"slightest":13642,"Ġmaterials":13643,"Ġbullet":13644,"Ġbullets":13645,"Ġdilate":13646,"arranging":13647,"Ġholiness":13648,"Ġthirsty":13649,"Ġexhibited":13650,"quarter":13651,"Ġdiscernible":13652,"Ġsteamboat":13653,"Ġtreacherous":13654,"Ġconfirmation":13655,"Ġindiscretion":13656,"Ġcontradicted":13657,"protected":13658,"Ġnegligently":13659,"Ġphilosophical":13660,"Ġtapestried":13661,"intelligence":13662,"intelligible":13663,"ITY":13664,"balls":13665,"demand":13666,"favorable":13667,"laughing":13668,"Ġbenevolence":13669,"Ġponder":13670,"Ġpondered":13671,"separate":13672,"separated":13673,"leaned":13674,"leaning":13675,"Ġalleviate":13676,"ĠBabuino":13677,"ĠLondon":13678,"Ġperpetual":13679,"Ġperpetually":13680,"Ġrefrained":13681,"Ġsubstituted":13682,"Ġsurpasses":13683,"prevented":13684,"golden":13685,"objects":13686,"ĠAlbano":13687,"accursed":13688,"Ġwhispering":13689,"ENBER":13690,"HÃ©loÃ¯se":13691,"Merely":13692,"balconies":13693,"drove":13694,"darkness":13695,"figure":13696,"ipelago":13697,"Ġsouls":13698,"Ġchatting":13699,"Ġpanting":13700,"Ġlingered":13701,"Ġeconom":13702,"ĠMessrs":13703,"rapidly":13704,"ĠDeschamps":13705,"ĠDeparture":13706,"Ġorphans":13707,"Ġvividly":13708,"ĠSicily":13709,"delightful":13710,"Ġdisinherited":13711,"Ġrescued":13712,"preceded":13713,"preceding":13714,"Ġvegetables":13715,"Ġforgiveness":13716,"regarding":13717,"Ġdawned":13718,"endeavoring":13719,"Ġrelaxed":13720,"***":13721,"Beaucaire":13722,"IVE":13723,"calculations":13724,"dinner":13725,"fainting":13726,"sighted":13727,"walk":13728,"wonder":13729,"yielded":13730,"Ġfervor":13731,"Ġfervently":13732,"Ġpavilion":13733,"Ġpavilions":13734,"Ġantiqu":13735,"Ġsepulchre":13736,"Ġstretching":13737,"Ġvacant":13738,"ĠHaitian":13739,"assistance":13740,"Ġapologized":13741,"Ġplucking":13742,"Ġchibouque":13743,"Ġchibouques":13744,"acknowled":13745,"acknowledge":13746,"Ġexclaiming":13747,"containing":13748,"Ġsuffocated":13749,"Ġextricate":13750,"discover":13751,"poetry":13752,"apparently":13753,"principal":13754,"Ġphilanthropic":13755,"Ġstuffs":13756,"Ġsnatching":13757,"suspicion":13758,"Happy":13759,"RANT":13760,"Surely":13761,"benef":13762,"earnest":13763,"fÃªte":13764,"splendid":13765,"uptuous":13766,"Ġzealous":13767,"Ġtiptoe":13768,"innocence":13769,"resembling":13770,"Ġfelicity":13771,"Ġcoolly":13772,"Ġcodes":13773,"Ġlavish":13774,"Ġmyrtle":13775,"amongst":13776,"Ġmanufacture":13777,"ĠVirgil":13778,"ĠBetween":13779,"indulgence":13780,"Ġcarpets":13781,"Ġexclusion":13782,"ĠNorth":13783,"Ġintellectual":13784,"Ġloyalty":13785,"probability":13786,"preparation":13787,"Ġinfallible":13788,"formerly":13789,"engagement":13790,"smugglers":13791,"carrying":13792,"Ġhabituate":13793,"Ġproprietor":13794,"Ġpreliminaries":13795,"candidly":13796,"hopes":13797,"pronounce":13798,"pistol":13799,"vigorous":13800,"ĠâĢ¢":13801,"Ġbasin":13802,"Ġbundle":13803,"Ġpompous":13804,"Ġhammer":13805,"Ġinexorable":13806,"atigable":13807,"Ġnapkin":13808,"Ġrecipe":13809,"ĠMiddle":13810,"aloons":13811,"gloomy":13812,"ĠTorlonia":13813,"mentioned":13814,"Ġdisappears":13815,"Ġdisquietude":13816,"Ġdesolate":13817,"Ġbridle":13818,"Ġwrinkles":13819,"Ġconfidant":13820,"ĠJapanese":13821,"prosperity":13822,"Ġvendetta":13823,"Ġhumiliation":13824,"Ġbuckles":13825,"Ġpencil":13826,"awaiting":13827,"Ġdenunciation":13828,"Ġnegotiation":13829,"advantage":13830,"Ġavarice":13831,"Ġepaulets":13832,"belonged":13833,"Corsica":13834,"Ġheraldry":13835,"Bonaparte":13836,"Jacopo":13837,"Permit":13838,"congrat":13839,"dsman":13840,"jugal":13841,"tremble":13842,"Ġivory":13843,"Ġtarget":13844,"innkeeper":13845,"instrument":13846,"Ġshattered":13847,"Ġmuzzle":13848,"Ġfathoms":13849,"Ġhackney":13850,"Ġlugger":13851,"ĠImpossible":13852,"Ġecst":13853,"stroke":13854,"sternation":13855,"Ġgypsies":13856,"ĠColonel":13857,"Ġsequins":13858,"Ġwebsite":13859,"chimney":13860,"Ġstunned":13861,"Ġsockets":13862,"Ġconcerted":13863,
[...]
