#version: 0.2
č Ċ
Ġ t
h e
Ġ a
â Ģ
i n
Ġt he
r e
Ġ w
Ġ s
o u
Ġ o
h a
i s
n d
e r
e d
Ġ m
e n
o n
âĢ ľ
âĢ Ŀ
i t
o r
Ġ b
Ġ f
Ġ c
Ġt o
l l
a n
Ġ d
Ġo f
in g
a r
Ġ h
e s
Ġ p
Ġa nd
Ġ y
a s
Ġ he
Ġy ou
Ġ ha
Ġ in
a t
Ġ n
Ġ l
o m
ha t
Ġ I
o t
v e
i d
s e
i c
i m
Ġ re
l e
Ġ e
s t
en t
Ġb e
. âĢĿ
o w
Ġw h
Ġs a
Ġ g
Ġh is
l y
c e
Ġt h
u t
Ġo n
l d
Ġt hat
a d
i ll
it h
i on
Ġ M
a l
Ġw as
i r
g h
Ġw ith
Ġn ot
Ġa s
, âĢĿ
Ġ it
Ġf or
r i
Ġ âĢľ
Ġ is
v er
r o
a y
Ġm e
? âĢĿ
Ġsa id
Ġ u
e t
u r
âĢ Ļ
Ġha d
re d
Ġa t
c t
t e
Ġm y
Ġd e
Ġa n
gh t
he r
t o
T he
Ġha ve
Ġh im
Ġ C
a in
a m
ic h
a nd
Ġs e
Ġw e
âĢ Ķ
t er
l i
n t
ou ld
i f
p e
c h
Ġwh ich
es s
Ġ A
Ġd o
k e
Ġs t
or t
an t
ou nt
Ġwh o
r a
Ġ Ġ
Ġs o
Ġyou r
Ġe x
re s
t he
r om
r an
Ġb ut
i l
Ġth is
Ġc on
Ġb y
q u
Ġs u
Ġhe r
a ll
o re
e f
Ġ k
Ġ D
ou s
t h
e ll
Ġw ill
g e
ar d
ou r
om e
o o
b le
l f
p p
r is
a c
Ġm an
ou t
a u
Ġo r
Ġa ll
Ġ V
er t
am e
Ġf rom
Ġa re
o s
u l
Ġ The
Ġl i
Ġ v
on e
ar s
Ġc ount
u st
at ion
se lf
e m
er s
is t
es t
Ġ B
Ġa l
as t
Ġk n
Ġs h
u n
u s
Ġw he
in e
Ġon e
Ã ©
Ġ F
a p
ur n
Ġn o
ver y
a k
in d
ar t
Ġn e
on te
Ġ H
Ġthe n
g l
Ġwe re
Ġs he
at e
o st
i ve
i g
v en
ris to
ou nd
k ed
ha n
Ġa m
he d
v ed
c c
i ght
Ġw ould
! âĢĿ
ill ef
illef ort
e l
e ct
Ġre p
ĠC risto
o nd
u re
u m
Ã ¨
Ġkn ow
Ġw hat
as s
Ġthe y
Ġ S
Ġ P
ĠM or
Ġbe en
Ġ if
ĠĠ ĠĠ
Ã¨ s
Ġu p
Ġa r
Ġp ro
at her
ĠM onte
it y
is h
Ġha s
or d
on g
Ġc om
Ġl e
Ġ j
Ġ r
f f
Ġa b
o l
n g
i e
c k
an gl
Ġt w
angl ars
ĠV illefort
a ke
ic e
m e
Ġf e
N o
re l
im e
Ġwhe n
b ert
e red
Ġm ad
Ġse e
at ed
en ce
ou gh
l a
Ġa g
an ce
Y ou
âĢ ĺ
Ġthe m
Ġha nd
a ble
o se
a g
Ġa d
res s
Ġ ro
Ġg o
Ġ E
Ġs ha
r u
ot her
i re
Y es
li ed
p t
re e
l bert
Ġthe re
Ġm ore
ĠD anglars
Ġu s
Ġu n
Ġyou ng
Ġan y
i le
oo d
e nd
Ġre t
er f
ou ght
ant Ã¨s
Ġ T
Ġc an
Ġrep lied
v ing
Ġon ly
t her
m ent
d e
y ou
Ġ im
it e
a ge
A nd
0 0
nd er
l o
Ġt han
Ġd is
p s
r y
Ġ qu
Ġsa y
Ġtw o
Ġl oo
ĠH e
ent ine
Ġs p
Ġs ome
id e
Ġli ke
ig n
Ġt ime
Ġd id
w ard
re at
o f
ĠMor rel
a re
Ġsh ould
Ġre m
all y
ĠA lbert
c i
f ore
Ġthe ir
h ing
al entine
Ġcon t
Ġin to
h is
t hat
ow n
Ġ L
en ed
Ġe y
Ġs m
Ġp o
Ġd ay
o d
Ġ W
Ġ out
it t
Ġ G
ĠM ad
Ġf ather
Ġhim self
urn ed
ri ed
Ġg r
a ve
Ġa p
Ġ very
ĠD antÃ¨s
a v
Ġd es
ĠF ran
f ter
w e
Ġc ould
Ġto o
in k
c o
m an
ar y
w h
on s
os s
p er
Ġ en
Ġo ther
Ġp re
Ġf ri
Ġ ent
ou se
Ġf ir
Ġp l
O h
ion s
a ch
Ġb r
c ed
Ġn ow
Ġmad e
n ess
a b
Ġm ust
Ġdo or
i er
Ġ R
at h
Ġag ain
o p
if e
pe ct
u ch
Ġa cc
a red
Ġsha ll
w ay
Ġo ver
Ġc l
Ġp ass
b e
Ġs ir
Ġu nder
n ot
Ġf o
c ha
ĠV alentine
p l
Ġo p
b er
, âĢĶ
a ir
Ġfri end
Ġl et
Ġre s
Ġc h
Ġfir st
f or
Ġp er
is e
e p
i es
ac k
f ul
Ġw ord
er ous
i ous
w n
Ġe ven
Ġbe fore
n e
Ġey es
Ġc ar
Ġm ay
Ġa fter
om ent
ĠFran z
i ed
Ġw or
o ve
Ġof f
Ġbe c
W hat
Ġthe se
Ġh ouse
or s
u ll
W ell
Ġs er
ain t
m ed
u d
u e
Ġex c
Ġb l
ĠI t
Ġp res
ĠMad ame
Ġe very
Ġl ong
Ġas ked
re t
Ġap pe
i ble
ĠĠĠĠ ĠĠĠĠ
Ġth ink
Ġp r
Ġup on
Ġsa me
Ġm oment
Ġth r
Ġm uch
ir t
ĠA nd
B ut
ward s
Ġ our
Ġwith out
ain ed
Ġas s
Ġse em
Ġs pe
Ġo b
Ġo ld
Ġ ra
as e
in ce
ad erous
li e
aderous se
Ġsu ch
ow ed
Ġab out
Ġ âĢĺ
Ġt ell
Ġh ow
Ġwe ll
l ed
Ġc ha
Ġp ers
Ġim p
i red
Ġm ar
i z
i ld
i ly
Ġbe t
l ess
Ġ No
Ġm ost
or n
c erf
i an
re ad
Ġo wn
i li
k ing
p le
Ġj ust
Ġwh om
au se
I t
Ġde ar
ef t
h y
Ġl eft
k s
v es
m p
Ġs c
a it
Ġf a
Ġat t
Ġc o
Ġg ood
Ġth ought
b ut
Ġne ver
Ġse c
H e
g ed
Ġsa w
w ith
Ġth ree
Ġa pp
i x
ing s
b r
Ġ _
Ġb o
Ġg reat
ri age
ri ght
c on
Ġwhe re
Ġg l
ran c
Ġret urned
er n
Ġm ake
Ġin st
li ght
Ġst ill
A h
s o
is hed
Ġn ame
ĠMor cerf
Ġc ome
Ġp art
Ġhe re
Ġh o
un e
f e
Ġs te
u ed
ĠC aderousse
irt ier
Ġm ight
er c
Ġc ried
Ġv is
ak ing
Ġit s
Ġme an
Ġex ce
a x
e ver
ce i
Ġro om
Ġ N
e ars
j ect
b Ã©
Ġhe ad
itt le
ou b
ar is
ranc s
ert ain
Ġto wards
st and
Ġwh ile
ĠB ut
m b
Ġre ad
Ġcon s
Ġhe ard
d m
e x
he n
. âĢĻ
dm ond
c hed
he s
âĢľ âĢĺ
Ġt ake
Ġha pp
la ce
Ġor d
Ġtoo k
s w
Ġl ast
Ġth ose
nd ed
th ing
Ġar m
t y
re n
re a
Ġd own
Ġnot hing
Ġs to
Ġl ife
c y
c es
t ain
Ġg u
in t
m ost
Ġs ign
Ġp oss
ent ly
Ġser v
p an
re w
Ġloo ked
Ġcont in
Ġw ish
Ġc all
Ġh our
Ġe nd
c om
Ġbe g
Ġc r
Ġp a
Ġmy self
Ġex p
g n
g er
Ġ You
Ġf rancs
ak en
Ġthr ough
Ġfo ll
re st
Ġl ittle
Ġbe ing
Ġf ound
Ġv o
Ġad d
e au
Ġhand s
u p
Ġg ive
oub t
v ent
ic t
Ġfor t
ili an
Ġhe art
ax im
Ġa ff
u g
os ed
Ġseem ed
Ġin te
axim ilian
a il
f ort
w as
Ġp e
c l
Ġs on
Ġse en
o is
se l
Ġw ent
âĢĶ âĢĶ
Ġ O
ĠP aris
Ġcom m
u red
Ġan sw
v id
Ġs ince
Ã© d
i a
The n
ĠNo irtier
u nd
it ed
ar k
la im
e w
Ġli ght
Ġd ist
erc Ã©d
ercÃ©d Ã¨s
Ġd ra
ar on
Ġan other
Ġm other
Ġpass ed
ĠAnd rea
Ġexce ll
, âĢĻ
Ġw ay
Ġf ell
ic k
Ġha ving
au ght
he re
it ion
Ġde ath
cei ved
Ġcontin ued
Ġt re
Ġword s
Ġbe lie
s ed
Ġp le
Ġm in
Ġm en
Ġw at
le t
Ġal one
ĠE dmond
cha mp
in ess
om et
Ġre co
Ġw r
ĠC ount
ell e
eau champ
d o
in ed
Ġf ind
ar n
Ġwho se
Ġt er
en er
or y
ris on
Ġlet ter
Ġ right
Ġ ke
is ed
on or
way s
âĢĶâĢĶ âĢĿ
n er
Ġa c
it her
Ġl o
Ġpers on
i p
Ġy et
Ġsu ff
ate ly
Ġle ave
Ġw ait
ha p
Ġab bÃ©
wh ich
Ġch ild
ent ion
Ġsu pp
Ġad v
Ġt r
or r
ull y
Ġ es
Ġg i
Ġvo ice
Ġm ind
00 0
Ġunder stand
hap ter
Ġt urn
ha d
Ġc ap
Ġp ur
te red
Ġcon f
pp ed
d ay
Ġp lace
at ter
ra ct
Ġn ight
ur ing
Ġcar riage
Ġy es
ac ed
em ois
ress ed
emois elle
o y
Ġs il
Ġin qu
Ġre st
Ġloo k
en cy
Ġto ld
om an
Ġret urn
lo ck
Ġ J
d en
ha ps
Ġd oubt
Ġy ears
Ġha lf
Ġre f
Ġpo or
Ġb ack
Ġop en
Ġt ra
al c
ir l
Ġyour self
laim ed
e br
ĠM aximilian
Ġpres ent
a ut
Ġc ame
ĠC h
Ġgo ing
Ġspe ak
Ġin d
ul t
Ġp erf
Ġfe el
Ġo cc
im es
el t
h im
Ġl ove
Ġle ast
Ġent ered
i gh
Ġ ut
Ġon ce
ous and
ap pe
aught er
g et
s er
Ġ 1
Ġin de
at ing
Ġal most
ac hed
i o
Ã ¢
Ġp rom
ebr ay
Ġm on
te au
Ġqu ite
D o
c ount
s h
w hat
Ġa way
ĠB eauchamp
l es
Ġm is
en s
Ġg irl
ĠM ercÃ©dÃ¨s
Ġal ways
Ġagain st
Ġop ened
u al
Ġw ind
ha ve
Ġar ri
ou n
e c
Ġa w
ut e
Ġexc laimed
. .
Ġ ide
Ġt urned
Ġa ct
Ġd i
ver s
am p
we en
Ġwor ld
M y
Ġt en
Ġin t
Ġe m
h o
m y
Ġf our
Ġd one
Ġin s
ot h
Ġso on
ern and
Ġbelie ve
a ct
Ġst ran
u cc
en e
ro om
orn ing
Ġre qu
ĠA t
Ġexcell ency
Ġc our
Ġin ter
Ġde p
ĠThe n
ĠĠĠĠĠĠĠĠ ĠĠĠĠĠĠĠĠ
Ġvis it
Ã¢ teau
u res
Ġb ed
Ġf l
Ġsu b
ation s
Ġcan not
an k
Ġdo es
Ġsm ile
read y
e ar
Ġs ur
ow s
und red
Ġb aron
Ġf am
Ġfort une
Ġe ach
ot ion
ent le
Ġinde ed
M ad
l ing
is ter
Ġm ur
Ġp rison
le ct
A t
a ven
Ġs omet
Ġc han
as ter
id es
ow ing
ant i
Ã© e
Ġpa le
Ġf elt
Ġappe ared
Ġde ad
d u
Ġf ive
Ġh onor
Ġp ap
Ġth ousand
ĠD ebray
ĠT his
f ully
T hat
W hy
it s
Ġre ally
Ġg ave
Ġth ough
Ġne w
v al
Ġt aken
ou d
Ġfe ar
Ġpl aced
Ġal so
Ġmad ame
ĠG od
I n
er ing
u se
ent y
Ġfor m
ru e
Ġappe ar
a z
Ġe ver
Ġkn ew
ress ion
Ġsec ond
V illefort
m en
p ro
Ġw ant
it u
ll ect
Ġgr and
av alc
Ġsm il
avalc anti
Ġm orning
Ġre g
ertain ly
Ġc are
ar m
Ġl a
Ġth us
Ġas k
ie ur
n o
Ġs im
one y
ons ieur
Ġserv ant
Ġes c
e ad
Ġs ent
ĠI n
Ġth ing
as on
as ure
ad e
Ġal ready
a j
Ġe ff
th is
Ġapp ro
ot t
Ġp ut
ĠS aint
Ġbec ause
iz ed
Ġmon th
H ow
c lock
ce pt
Ġeven ing
Ġbet ween
Ġho pe
ĠCh Ã¢teau
u b
y our
ert ucc
ertucc io
m ber
ist en
orr ow
M onte
c ri
p re
Ġd if
Ġh undred
ow er
ct or
Ġst re
Ġrem ained
av or
Ġfa ce
Ġ ran
Ġd ie
au d
Ġfe w
i b
n ow
Ġs et
Ġex t
M or
k en
Ġhe ar
ill ed
ĠF ernand
Ġday s
Ġc ond
ver n
ment s
Ġsm all
pect ed
c um
s p
Ġw ife
ent s
Ġst ru
Ġk ind
g u
w ill
Ġm oney
Ġb re
Ġu se
Ġsu re
Ġpo int
ren ch
c ess
Ġw oman
er y
Ġposs ess
Ġs ix
ĠC avalcanti
Ġne ar
Ġord er
0 1
Ġm ist
Ġin f
ul ar
ire ct
Ġsp o
Ġper haps
l and
Ġb ank
Ġsa il
ener al
i al
Ġf all
Ġd uring
id ent
ĠMad emoiselle
Ġperf ect
b ed
ce ed
al m
Ġwho le
wh o
Ġsec ret
Ġc he
ar se
Ġha st
Ġre pe
th ough
oo k
Ġr ather
ab ly
Ġdra w
Ġgi ven
appe ared
D anglars
R en
ut es
et y
oss ible
Ġlong er
Ġcall ed
Ġide a
Ġk ing
Ġrem ain
Ġbet ter
ar ge
ve ll
Ġwh y
Ġg entle
Ġo pp
Ġd aughter
es ides
Ġp ol
Ġsu m
ust om
Ġar ound
_ ,
a ce
as ed
itt ed
Ġmean s
x t
is s
Ġd ark
Ġbec ome
Ġt al
re m
Ġm ill
ar ce
Ġh or
Ġl ost
Ġman y
Ġany thing
Ġqu est
Ren aud
f ather
Ġs le
Ġf ore
ĠA li
Ã© n
sel ves
T his
Ġe as
Ġde l
Ġpro p
I f
u ri
Ġdo ctor
Ġansw ered
in i
Ġn at
ĠF rench
op le
ug Ã©n
Ġsomet hing
ugÃ©n ie
V alentine
Ġde c
ĠA s
Ġli ps
ĠP ro
Ġacc om
Ġfriend s
b y
g o
p ar
Ġs ound
Ġs ide
ri ble
Ġwor k
0 2
Ġ ris
Ġw ort
Ġw all
Ġl arge
ay d
Ġey e
od y
med i
Ġcha r
Ġinqu ired
A s
D antÃ¨s
c ure
Ġ ill
Ġre l
Ġre ason
Ġg ra
ill es
ayd Ã©e
A lbert
s u
t ed
Ġt one
Ġa ir
Ġb oth
an ced
Ġarm s
arce ly
b and
r on
Ġm ag
ro s
ard en
Ġadd ed
Ġs at
or m
Ġp ay
ic al
Ġe ar
ut h
Ġra ised
a ving
y ing
Ġf ix
ce al
ut ion
Ġde ep
ĠB ertuccio
air s
ors es
T o
in o
Ġm aster
Ġman ner
ck et
Mad ame
A v
Ġt able
Ġs w
Ġm atter
Ġin v
at es
il ity
Ġbr ought
Ġinte rest
c ing
n gl
o red
y ed
Ġm aj
Ġf ull
Ã© ran
Ġinst ant
M Ã©ran
Ġ ve
Ġc or
Ġp ri
Ġin c
te m
Ġst r
Ġcom p
t ing
Ġt rue
in s
Ġs ight
Ġd u
Ġd et
ri gn
Ġde v
Ġan n
Ġad m
Ġob ser
Ġfoll owed
Ġmin utes
Ġarri ved
Av rign
Avrign y
? âĢĻ
g r
Ã ī
Ġ 2
Ġc alm
os ition
Ġtw enty
Ġro se
Ġen ough
l ong
Ġm o
Ġb and
Ġd irect
ce ive
ir d
Ġcont r
medi ately
st on
ri ef
the re
ĠThe y
Ġthere fore
den ly
Ġbe aut
nt il
Ġli ve
ish ment
ign or
Ġrem em
Ġcons id
arse illes
? âĢĶ
h ind
Ġf if
ve red
if ul
um e
Ġr ich
Ġexp ression
F ran
a ly
n ing
u nder
re am
Ġd rew
Ġg et
ne y
Ġbeg an
Ġmur m
C hapter
Ġp ar
as h
Ġre ceived
Ġme et
ĠC hapter
un g
ĠW hat
ĠR ome
Ġfo ot
Ġfam ily
C ome
en se
Ġha r
Ġl ad
Ġe l
Ġne xt
ĠL u
Ġbl ack
Ġgl ass
Ġpap er
Ġt ou
Ġs ing
Ġb est
ar ia
ut en
Ġfor g
for m
Ġhapp y
Ġbaron ess
a pe
d er
p ris
t w
in ation
Ġex am
Ġsu d
ard s
us band
ĠS he
Ġap art
Ġbec ame
Ġwat ch
u ally
he ad
Ġhe aven
ay ed
Ġbo x
Mor rel
Ġt ri
Ġa ston
Ġw al
ha nd
Ġc ase
Ġh um
Ġl ess
The re
ĠE ngl
Ġdes p
Ġinst ead
Ġac qu
Ġcap tain
Ġquest ion
d is
i ef
p id
Ġgo ld
ĠE ugÃ©nie
ĠT h
Ġdis co
Ġdes ce
ĠFran ce
fort un
Ġfell ow
Y our
ha pp
Ġb u
Ġc e
al ity
Ġpro f
Ġhow ever
Ġposs ible
i v
p h
p o
Ġh orses
ĠI f
iz e
Ġansw er
e pp
f ic
l s
re ly
Ġth ings
if ic
Ġcon vers
em ent
re nt
nd ing
en g
Ġc le
Ġhe ld
Ġwh ite
Ġu ntil
the y
Ġcom pan
Ġj oy
Ġab s
Ġloo king
Ġimp ossible
Ġaff ect
f rom
Ġ (
Ġ ir
in a
ri g
et to
Ġcom ple
Ġatt ention
Ġste ps
Ġreco gn
Ġmurm ured
a id
i ol
r ate
s he
w ell
w here
en ance
Ġc ir
an s
Ġd ro
id ed
Ġg arden
Ġcon ceal
ĠH aydÃ©e
Ġany one
con t
Ġturn ing
Ġstru ck
Ġfix ed
N ot
Ġs k
at i
Ġre d
Ġst ud
Ġcount ess
Ġfa ct
Ġho ld
Ġsto pped
fort une
itu de
I s
k n
Ġf ree
Ġc ause
Ġre c
Ġg lo
Ġam ong
Ġpro cure
Ġevery thing
Ġprom ise
c ome
m and
u ct
Ġt imes
ou is
Ġl au
ic es
us ed
I I
N ow
f ied
g ing
u es
Ġt aking
Ġf an
an ces
Ġh usband
es sel
Ġhe l
Ġcon v
Ġv essel
Ġr ound
Ġpo cket
Ġserv ice
Ġcour se
ĠEngl ish
Ġs we
Ġp ast
Ġy ear
ĠI s
the n
Ġfe et
Ġsee ing
Ġgo vern
Ġsay ing
Ġsc arcely
Ġread y
Ġpe ople
e ed
in al
it ies
Ġf lo
Ġal though
ress ing
Ġbr ing
Ġcl ose
Ġut tered
a pp
l t
r or
Ġw ished
ha ll
Ġf ar
Ġc ast
Ġha ir
Ġl and
Ġe vid
Ġbe hind
Ġus ual
Ġim mediately
Ġcl osed
Ġpers ons
Ġcontr ary
Fran z
f o
m on
m ore
Ġt ran
as p
Ġse a
ĠF aria
art ed
ĠR ue
Ġacc ount
Ġocc up
Ġut ter
Ġstran ge
W e
e e
ou ble
er m
ĠM arseilles
ĠC ar
am ond
ac es
wh ile
Ġpr ay
Ġste p
Ġreco llect
Ġsil ence
Ġbank er
Ġrepe ated
epp ino
b or
p r
v o
Ġ 5
Ġt e
Ġs light
ou th
Ġm ine
Ġd est
ic i
Ġne ed
Ġra pid
amp a
ene ath
Ġeff ect
Ġdraw ing
c an
l ic
w ould
in ct
it ation
Ġp en
Ġp ost
Ġp ower
at t
ro is
Ġex pl
Ġall ow
us hed
ound ed
ie u
ber g
Ġtra vell
Ġesc ape
Ġaccom pan
ll ed
te nded
per i
Ġke ep
Ġsur pris
Ġmonth s
uten berg
O n
r ing
ou ra
Ġf avor
Ġp ort
ĠThe re
ive ly
um ed
Ġknow n
Ġdis appeared
Ġco ld
Ġwind ow
S o
ar rois
st ood
Ġg az
Ġg eneral
ant s
Ġher self
ard on
Ġro ck
ĠW hen
Ġres pect
Ġsle ep
Ġs l
Ġha t
le g
Ġso ld
Ġhour s
Ġter rible
Ġperfect ly
tem pt
o ver
s m
Ġ Oh
Ġa ble
Ġm onsieur
Ġc ry
Ġd r
Ġe ither
ĠC ors
li ke
us h
ci ous
man u
Ġdi amond
ros s
m manu
Ġde light
ĠD o
Ġgr ound
Ġdes ire
we re
Ġple ase
get her
Ġconvers ation
mmanu el
c ase
e y
o b
p ose
is hes
Ġl isten
Ġle arn
Ġsp ot
Ġoff ic
ret ched
Ġprison er
Ġbre ak
Ġbeaut iful
S ir
f t
p in
in ing
Ġw it
Ġm id
Ġb owed
Ġf ine
Ġc ost
te en
Ġv iol
Ġcount enance
ap ed
Ġpo is
Ġen g
fe rent
ĠJ u
A l
c ern
p ass
ou l
Ġm aking
Ġb ur
ar ch
The y
Ġwhe ther
ie ld
ag es
ru pt
ĠL a
Ġother s
ĠN ow
Ġord ers
Ġhor se
Ãī pin
Ġconsid er
Ġsud denly
Ãīpin ay
Ġb ro
Ġf in
as k
Ġsa l
Ġg one
Ġg rief
Ġan x
ak es
ĠS t
Ġar t
Ġr u
ng th
ie w
ĠW e
Ġres ol
Ġple asure
Ġsub ject
cum st
Ġspo ke
eng th
c ar
e as
Ġ 3
om s
se mb
Ġre ached
al ian
Ġnot ary
ĠV ampa
Ġpro b
Ġseem s
Ġpa id
Ġadv anced
Ġsmil ing
Ġflo or
W hen
c ons
t en
Ġb eneath
Ġc ur
Ġc ol
Ġd ream
Ġh op
Ġl ow
Ġst ri
Ġex ist
Ġk ill
Ġcount ry
Ġknow s
ĠT e
Ġpre p
be en
Ġref lect
oura ge
s c
it ing
at al
ro du
Ġsh ud
Ġle ad
erf ul
Ġhapp iness
kn own
Ġpois on
p ir
Ġc uri
Ġd read
ar ing
Ġp un
Ġp ie
Ġe ight
Ġwith in
Ġfor get
Ġme t
Ġde mand
ĠC ha
ĠP eppino
Ġent ire
oun ced
Ġla w
Ġmill ions
Ġremem ber
Ġprocure ur
C aderousse
it ated
Ġc orn
om y
im p
Ġe vent
st ant
Ġse at
ĠA b
Ġst and
itt ing
Ġen em
air case
Ġpart ic
ren ce
Ġaw ait
Ġappear ance
Ġear th
Ġmaj or
Ġlau gh
f ast
Ġt ears
Ġb us
Ġb reat
Ġc ertain
Ġc ertainly
Ġl ength
ĠM y
the m
ag er
Ġpre c
Ġmar ry
.âĢĻ âĢĿ
Ġstran ger
w hen
nd eed
it al
Ġc ove
Ġp h
at ch
at ive
Ġl ose
Ġre ve
Ġfor med
ter day
Ġex ec
Ġne cess
ig i
Ġthem selves
Ġqu ick
,âĢĶ âĢľ
Ġcha ir
Ġcr ime
Ġhel p
a ff
d es
Ġ ought
Ġm ention
on y
Ġe mb
ef ore
Ġno ise
ĠE mmanuel
Ġqu ar
Ġgr at
Ġsto od
Ġke pt
Ġappro ached
ceed ed
Ġgentle man
C ertainly
c u
l u
Ġs y
Ġd ied
Ġh ome
Ġn or
ut y
ain s
Ġex pect
au sed
au lt
os ing
Ġsh ort
Ġbl ood
Ġmar riage
Ġbet r
Ġac cept
Ġsmil ed
ustom ed
ĠPro ject
L et
Ġp ity
Ġth rew
te nd
ter n
Ġex pected
Ġun eas
ĠIt alian
led ge
Ġgl ance
Ġpresent ed
Ġcour t
ott en
Ġstre et
Ġwit ness
m ing
v ious
Ġt ill
Ġm otion
Ġb esides
Ġb ody
Ġf air
Ġl ed
ran ce
ĠS p
Ġcom ing
Ġj o
Ġj ail
bert y
Ġim ag
Ġper m
Ġpres ident
Ġass ure
Ġend e
ĠO n
Ġdif fic
Ġel se
Ġdesp air
g es
m other
p res
r ic
s ome
in ary
on i
ic ed
ess ed
res h
ist ened
ĠB arrois
ap t
Ġacc ord
Ġsc ene
Ġaff air
Ġsuff ici
Ġwait ing
Ġnat ur
Ġwort h
Ġstr ong
Ġcomple te
C risto
e an
m orrow
Ġ Y
Ġw ishes
is to
Ġf ire
as ion
Ġbe long
Ġst aircase
res a
oo l
Ġj ud
No irtier
Ġro ad
are nt
ened etto
ĠW ell
ĠG utenberg
av es
Ġpre vent
Ġbr other
Ġafter wards
ĠIt aly
Ġspe aking
Ġbo at
Ġcomm and
Ġobser ved
Ġapart ment
Ġhum an
Ġcir cumst
Ġstud y
! _
f er
h ouse
âĢľ _
Ġf illed
Ġd an
Ġh igh
ot e
id ence
st er
Ġth ird
Ġsp ite
Ġunder stood
Ġob li
Ġob ject
Ġmin ister
Ġtr uth
Ġcond uct
Ġeas y
Ġacqu aint
ĠJu lie
Ġcorn er
ĠAb bÃ©
E dmond
c ked
o g
o cc
ha ra
Ġto morrow
Ġin form
Ġn am
st e
ri es
pe nd
Ġst ory
ast r
Ġbr ow
Ġpres ence
Ġcha mber
fe rence
Ġtre mb
Ġopen ing
Ġcove red
I ndeed
a ire
l oo
u il
Ġs ort
Ġd in
ar r
Ġl atter
al th
ĠA l
Ġsu n
Ġno ble
Ġrep ly
Ġar ran
Ġj ew
Ġimp ort
Ġbeg in
Ġdoubt less
Ġfeel ing
Ġsim ple
Ġstre ngth
Ġnear ly
P hara
W ho
g g
m s
o ld
s aid
Ġ 4
Ġ U
Ġs ens
Ġd on
Ġof ten
se c
Ġe qu
ut ure
the ir
un ge
ĠH is
Ġpro du
ag ain
Ġpl an
Ġop in
for med
Ġcar ried
Ġevery one
ec ause
Ġrequ est
Ġtou ched
Ġglo omy
Phara on
H ave
b et
s ion
Ġt ry
re qu
Ġm er
Ġb it
Ġb ad
at ures
Ġn um
om en
ot ect
Ġre al
ent ed
ir st
Ġit self
Ġis land
Ġst one
os ite
ul ous
el ve
Ġle aving
Ġpap ers
Ġdif ferent
ib ly
Ġfif ty
happ y
astr ini
B ecause
j o
Ġa ge
on ly
Ġp at
Ġre ceive
ay s
red it
ct ion
ĠA ll
il ed
os ity
Ġdis p
Ġass ist
ĠN ap
Ġhapp ened
Ġfoll owing
Ġmis fortune
Ġint rodu
Ġdesce nded
Ġjail er
A re
b o
b s
o ff
s pe
t re
Ġto day
an y
Ġp isto
al s
Ġse ized
ra ph
Ġso ci
ist rate
ap art
Ġar rest
Ġpro of
ag ed
Ġjust ice
Ġgu est
Ġwat er
Ġyes terday
sh ould
Ġforg otten
c onte
e very
l ini
he l
in es
Ġb ar
Ġf uture
Ġp ain
Ġl an
ow ers
Ġdo ing
ort un
qu is
ac c
ĠH ow
ign ed
ĠL ouis
ĠG ree
Ġfri ght
Ġent er
ach ing
Ġcar ry
Ġoff er
Ġthought s
Ġrequ ire
Ġservant s
iss ion
Ġcle ar
ĠEnglish man
A n
B y
a fter
b l
b it
d ward
h ow
o ly
t han
is ing
Ġm ount
le nd
Ġe ager
Ġsa d
Ġme rely
Ġli berty
Ġsh ip
ci en
not hing
Ġbo y
ĠO ne
Ġpur pose
Ġins pect
ĠĠĠĠĠĠĠĠĠĠĠĠĠĠĠĠ ĠĠĠĠĠĠĠĠĠĠĠĠĠĠĠĠ
Ġmist aken
Ġsail or
Ġwort hy
Ġsat is
Ġir on
ĠCors ic
Ġprep ared
a let
d ered
e ks
j oy
t ime
Ġt em
Ġm outh
Ġc ourage
Ġd ressed
Ġp ardon
se qu
Ġe at
ri but
il ar
la w
ĠL e
per or
Ġfir m
Ġpass ing
oun ce
Ġem otion
Ġpol ice
ĠLu igi
Ġdisco vered
Ġbreak fast
! âĢĶ
G o
c han
i et
p lace
Ġb ott
Ġp al
Ġat tempt
if ied
est y
Ġal ong
ĠS ignor
ĠP astrini
Ġle an
Ġj our
Ġoff ered
Ġbl ue
Ġfoll ow
Ġsupp ose
him self
Ġwind ows
Ġpri est
tw o
Al as
Ġentire ly
Ġopin ion
! âĢĻ
E x
e k
l an
o le
en ced
Ġf urn
Ġc re
Ġh ost
Ġhe s
Ġfor th
to o
ain ing
Ġse ated
âĢĶ âĢľ
Ġne ither
Ġab ove
Ġsha d
Ġus ed
Ġser ious
Ġpr in
Ġexce pt
Ġgrand father
Ġcompan ion
Ġbus iness
R e
W ith
c hes
e per
p ond
Ġm ove
Ġto gether
Ġh ung
ot ed
Ġre nd
Ġse nd
us oni
Ġtw elve
Ġch ief
Ġappe ars
Ġass ass
Ġgu il
Ġ1 8
Ġeff ort
Ġfore head
Ġgra ve
Ġaston ishment
Ġgovern or
b ody
b efore
â Ħ
Ġ X
Ġ ri
Ġs ister
ha s
Ġc a
Ġc ut
ing ly
at or
Ġl istened
Ġe mp
Ġg all
Ġli ving
Ġv al
ist in
ish ing
Ġsee k
Ġper ceived
He re
Ġwat ched
Ġocc asion
Ġchan ge
Ġpol it
Ġdark ness
ĠTe resa
Ġquar ter
apt istin
ster ious
Ġinspect or
âĦ ¢
0 3
M ercÃ©dÃ¨s
W h
c ent
v is
v ol
z z
Ġb all
Ġc ustom
Ġp osition
Ġl ay
Ġsa ve
Ġth ick
Ġse ven
Ġse par
Ġso le
ac ing
Ġv alet
ĠB enedetto
Ġrep ort
Ġr un
Ġfe atures
Ġthan k
Ġsp lend
Ġinqu ir
Ġnew s
Ġeas ily
Ġoccup ied
Ġdin ner
M aximilian
S t
f ri
n ight
n ific
Ġ &
Ġt or
Ġs pect
Ġs orrow
Ġf aint
Ġc ell
an o
Ġg ate
ur red
Ġan g
Ġex tended
ac y
ĠB usoni
ĠF or
ĠP al
Ġcom pl
Ġag ree
Ġpr otect
Ġass ured
Ġsil ent
Ġdep art
Ġchan ce
Ġesc aped
Ġopp osite
Ġtal k
Ġmill ion
Ġmag istrate
Ġlad y
Ġaffect ion
Ġaccompan ied
Ġanx ious
a w
m in
p art
s ince
Ġo be
Ġc redit
Ġd ying
Ġd unge
ing u
Ġh id
Ġcon cern
qu e
Ġk illed
Ġv iew
Ġcom es
Ġag o
Ġun known
Ġpre vious
Ġacc ustomed
Ġser ved
irt y
with out
Ġdist ance
Ġgi ving
Ġgentle men
Ġpri v
S he
m ar
p se
t ic
Ġm akes
Ġf resh
Ġc ent
an ina
Ġd ress
Ġhe av
at ure
Ġg ener
ver al
ro se
Ġu nd
ur y
te ll
Ġde f
ess ion
Ġex act
Ġsu c
Ġsu cc
Ġv ict
Ġam ount
el s
Ġdist ur
Ġter ror
Ġpur cha
appe ar
Ġaw are
ho ld
Mad emoiselle
fo ll
Ġsurpris e
Ġnecess ary
fri end
; âĢĿ
D id
V ery
f ive
g s
i ant
k now
re ed
Ġs igh
Ġb es
Ġf ault
Ġl ate
Ġe le
Ġsa ved
ill e
ĠC atal
li ar
ert ed
Ġsh ow
ru d
Ġdes cri
ne w
Ġbl ow
Ġob tain
Ġste ward
ex p
Ġinte nded
Ġtre asure
Ġlo ved
Ġsuff er
Ġide as
Ġspo ken
Ġnat ure
Ġadm ir
Ġconceal ed
Ġfan ci
Ġdest ro
Ġrapid ly
Ġstand ing
cu liar
c r
e ven
n ed
p oss
t ory
w or
Ġs itu
Ġm us
Ġb ra
Ġc op
Ġh ot
Ġp ow
as ant
ut ed
pe ci
ke y
Ġyour s
ĠW hy
Ġcl oud
Ġcha ract
Ġbo ard
Ġexcell ent
Ġwait ed
Ġprom ised
ute uil
Ġform er
Ġinc re
Ġsing le
Ġoffic er
F or
g i
i ety
p ers
p ap
u nt
w o
Ġt end
er v
Ġf ing
Ġf ast
Ġd ri
Ġp ressed
Ġy ield
at er
ot to
Ġbe ll
Ġg ro
Ġg end
ut tered
et s
Ġmy sterious
ĠA n
ra w
ris t
Ġv ain
ist ed
Ġkn ife
un ic
Ã© es
Ġr ushed
itt en
ise ly
Ġmar ried
Ġfort un
vid ence
Ġsupp ort
.. .
Ġsing ular
Ġsl ow
Ġbit ter
W here
c ul
he ard
re p
Ġw ine
Ġf ig
Ġc ab
Ġin cl
ot s
st ru
Ġhis tory
ay ing
Ġde g
Ġse arch
Ġso l
Ġkn e
Ġun able
Ġpres er
iz ing
do or
Ġke y
Ġsomet imes
Ġcare fully
Ġla id
Ġsim ilar
Ġinf lu
Ġswe et
Ġmid st
Ġsoci ety
ĠGree k
nific ent
A ll
T h
i val
Ġw omen
Ġs ought
Ġs oul
on t
it er
Ġf r
an cing
Ġd uty
Ġp ath
se e
Ġg ot
Ġme m
Ġde ceived
ĠC ome
Ġst art
Ġex peri
ĠB on
ap tain
Ġpro ject
And rea
Ġthan ks
ci ence
co at
Ġfa ith
Ġgreat est
Ġadd ress
ict ion
Ġem peror
Ġinter rupt
Ġcor pse
Ġband its
Ġrecogn ized
ĠIs land
Ġbur st
Ġcur tain
Ġquick ly
Ġmotion less
Ġende avor
Ġjud ge
ortun ity
ole on
c le
d ing
d aughter
j ust
l er
m er
m it
o ved
s hall
t ake
on ed
Ġf at
Ġre com
Ġbe ar
Ġse lf
ch oly
the se
th r
Ġne igh
Ġr ing
Ġr id
ck now
Ġsome what
Ġrem ark
Ġco at
Ġco ach
stand ing
Ġcr ow
Ġexp ress
cl es
Ġtre es
ract ed
ĠJ ac
sh ip
Ġreg ret
ĠLu cien
Ġtou ch
Ġevid ent
Ġbro ken
Ġdread ful
Ġaccord ing
ĠX V
Ġdunge on
C ount
i res
v res
Ġt ried
re co
en ess
or ney
Ġb ound
Ġb right
Ġf al
Ġd en
Ġh on
ve re
st r
al ed
Ġfor ward
ro p
et h
Ġse veral
âĢĶ âĢĺ
ĠA uteuil
ous ly
Ġall owed
ist s
Ġsh owed
ord inary
ĠE dward
Ġun fortun
ĠR oman
Ġbec om
Ġown er
hy s
Ġvis count
ex pected
Ġord ered
Ġcr own
Ġpe culiar
Ġconf idence
Ġarri val
Ġem pt
Ġrecogn ize
Ġenem y
Ġnatur al
ĠY anina
Ġobli ged
Ġlan gu
G ood
L isten
M onsieur
T han
b a
b ad
g ged
o int
p ast
s ing
Ġa rose
Ġa cknow
re me
Ġc aused
ar med
Ġh ur
Ġre nder
Ġe v
ad ed
ch ief
ran g
ac le
Ġli ved
Ġsh ut
us ion
urn ing
Ġsm o
op o
Ġthink ing
Ġco llect
up on
Ġwr ong
Ġwr ote
ub lic
Ġuse less
Ġhast ened
Ġris ing
Ġviol ent
Ġpie ce
Ġprec aut
Ġnam ed
Ġjew ell
Ġguil ty
Ġemp lo
peci ally
W ill
b b
f act
i ast
m ill
m ade
z e
Ġt it
Ġm ed
Ġm od
en ing
as te
Ġin formed
Ġre cei
Ġwh is
ill iant
Ġfor ced
li ve
ĠA r
Ġst ate
ra ordinary
ac qu
ĠB aptistin
Ġal arm
Ġun happy
Ġret ired
Ġdis c
are r
ĠL ord
per a
Ġent reat
Ġent rance
Ġexc use
Ġpr on
ug gl
Ġcomm unic
Ġwr iting
alc ul
Mor cerf
II I
ĠCar conte
Ġlearn ed
Ġexec ution
Ġdiffic ult
Ġtremb ling
Ġrend ered
Ġassass in
Ġsucc ess
Ġhot el
Ġcrow d
H is
P ro
_ .
d id
e b
f irst
i ers
k er
l ba
s ide
v i
v ail
y al
Ġ ignor
in ter
Ġw a
Ġw retched
Ġm ass
en ge
Ġd ouble
Ġp ict
Ġl u
Ġl ord
ri ved
Ġan im
Ġan ge
ĠA h
Ġst arted
ra b
Ġcon sequ
pp ing
ĠS o
ĠS pan
Ġsp rang
Ġshould ers
Ġen c
ab ility
Ġmean ing
sp ic
Ġpoint ed
Ġpossess ed
Ġwatch ing
Ġtran s
Ġtravell er
Ġdr ink
pir ation
Ġcuri osity
Ġevent s
Ġbreat h
Ġcircumst ances
Ġnum ber
Ġshad ow
Ġkne es
F ernand
N ever
O ne
S aint
c ould
d le
i ence
m n
m ust
o v
s pect
y es
Ġ est
Ġw ond
Ġm ir
Ġm our
Ġf ur
Ġc ra
Ġc ross
ot hed
Ġme lan
pe lled
th ought
Ġsh o
ven ge
um p
Ġpro ceed
Ġle ag
Ġfe ver
Ġfe ared
you ng
Ġsay s
ĠHe aven
ab out
Ġexc han
Ġapp arent
ail or
Ġconf ess
Ġind ic
.. ..
Ġset t
Ġcond em
Ġmist ake
Ġhast ily
Ġhop es
Ġimport ant
ĠNap oleon
Ġmelan choly
. ,
5 00
A r
C h
P aris
i um
m uch
p ort
t s
in to
Ġw arn
Ġf ate
Ġf ight
ar ily
Ġp hys
ic ked
Ġre ality
Ġnot ice
Ġwe ak
Ġst if
Ġst airs
os p
ĠB aron
Ġgr otto
wh y
Ġpass age
ne ver
con f
Ġsign ed
vid ed
Ġter ms
Ġsuff ered
Ġadv ice
Ġrest r
Ġpossess ion
Ġopp ortunity
Ġchar ming
Ġmag nificent
Ġinstant ly
tw enty
Ġaston ished
Ġrec all
Ġgaz ed
Ġeng aged
Ġcol or
Ġpartic ular
Ġph il
Ġinform ation
Ġsplend id
Ġcharact er
ĠJac opo
ĠXV III
B eauchamp
T rue
a et
b re
p ly
u lf
Ġ ed
re r
Ġs itting
or se
Ġb en
ll ig
an ation
Ġl ab
Ġre ach
st airs
Ġg en
Ġas ide
ke eper
ell ow
os op
la ve
Ġdis pl
Ġsp ring
Ġen joy
cha ir
ud ed
Ġpr ince
Ġadd ressed
Ġinte llig
ĠParis ian
Ġwr itten
Ġfeel ings
Ġchan ged
Ġext reme
Ġsail ors
Ġrepe at
Ġaccom pl
ron t
Ġdet erm
Ġband it
Ġremem b
Ġpen et
Ġcost ume
oms on
Ġprob ably
Ġexist ence
Ġsuffici ent
Ġcomplete ly
ste ps
Ġjour ney
too k
Re ally
Ġvict im
Ġpow erful
Ġmem ory
Ġneigh bor
Ġfal se
aet ano
O f
c use
m ps
r ay
w hel
Ã ¦
in c
in ced
in bad
Ġs ire
er haps
or ter
Ġb rig
Ġyou th
Ġl oud
ent ered
ow ards
Ġsa fe
ad a
ĠM ar
if y
ĠA re
Ġst y
Ġst at
Ġst ro
ant ed
ĠĠ Ġ
Ġsu spic
ul s
ust ed
Ġal armed
ect ed
Ġbr ain
Ġres umed
Ġfa il
Ġatt ack
Ġatt orney
Ġinte nd
ail s
Ġcap ital
Ġdec ided
Ġwall s
Ġdeep ly
Ġsw ord
ash ion
Ġhar d
Ġexam ined
Ġapart ments
Ġhold ing
asp ed
Ġte eth
Ġlaugh ing
Ġmention ed
Ġarran ged
requ ently
Ġguest s
Ġeager ly
Ġgener ally
Ġfanci ed
Ġtend er
ĠBon apart
Ġcoach man
Ġjewell er
) ,
F rom
c he
f l
m ight
m oment
p on
he art
Ġa id
Ġin n
le ep
Ġe re
Ġe arn
Ġth irty
Ġnot iced
Ġcon stant
Ġv ent
em ed
est ed
Ġlike ly
be c
cha mber
Ġthr own
Ġsto p
Ġes pecially
az z
uth or
Ġmaj esty
Ġann ounced
fortun es
Ġlisten ing
Ġuneas iness
Ġprin ci
Ġslow ly
Ġinflu ence
Ġinterrupt ed
Ġtit le
Ġange l
c ond
c ertain
o cles
w ord
Ġt on
Ġa uthor
re en
ha lf
is es
Ġm erc
Ġf et
Ġin ha
at ic
Ġsa ke
Ġan ger
ra ce
os it
em b
Ġwhat ever
Ġpro ve
ord er
Ġqu iet
Ġloo ks
ci er
Ġpre fer
cha nt
Ġres ult
Ġch o
Ġwor ks
Ġpr oud
Ġimp ati
Ġaff airs
Ġbelie ved
Ġadv ant
orr id
Ġocc urred
Ġrequ ired
Ġreg ard
Ġkind ness
Ġbre ast
Ġfall en
Ġmeet ing
Ġwal ked
Ġwal king
Ġprof ound
Not hing
Ġswe ar
Ġgovern ment
Ġaccompan y
Ġsurpris ed
Ġshud dered
Ġsatis fied
ĠCorsic an
Ġ18 1
Ġsuc ceeded
E very
a le
g ive
h our
l am
l ittle
p ie
s omet
t i
Ã ´
Ġ 7
he ld
ou p
ou red
it able
Ġto p
ll y
an n
Ġp ier
Ġp aces
Ġn one
Ġl im
Ġl amp
se en
le x
ly s
Ġat tend
Ġde al
Ġst u
ef ul
ul ars
ul ty
Ġli vres
ĠB esides
um b
Ġknow ledge
ru ly
Ġqu itted
Ġsome one
pl es
ud denly
Ġdist inct
arn ival
Ġlo ver
Ġtr ouble
Ġref use
Ġfam ous
Ġprison ers
Ġdel ic
Ġdel ay
ĠPro vidence
Ġris k
su ff
Ġmo ved
under stand
Ġdisco ver
Ġce ased
cont in
Ġfan cy
Ġevid ently
Ġresol ution
ean while
!_ âĢĿ
Ġdan ger
Ġbegin ning
Ġpisto ls
Ġfright ful
Ġsole mn
pap a
Ġwa ist
B ertuccio
g ers
g reat
r ut
u ght
Ġt aste
re nd
ha ving
Ġm ess
Ġm uttered
Ġc up
Ġc lock
Ġp ati
at ur
Ġn ine
Ġl if
ic s
ic ally
im ent
Ġe lect
st ill
Ġsa cri
ir m
ur ity
Ġso ft
ran k
Ġcon ve
ĠThe se
Ġsh ru
Ġne g
ig hed
ol o
ĠE lba
pt ion
Ġun expected
ĠT o
de ath
Ġim per
Ġcont ained
ĠW ith
av ored
Ġra ising
Ġapp re
Ġgu ard
Ġgu essed
Ġsign al
com pan
Ġcr im
Ġmin ute
Ġwr ite
Ġchild ren
Ġpur s
Ġfl owers
ib ility
Ġext raordinary
Ġche eks
Ġdec la
Ġbu ried
leg raph
Ġsal on
Ġru in
Ġgrat itude
Ġsens es
Ġpain ful
Ġlean ing
Ġsepar ated
Ġpriv ate
Ġheav y
Ġgro an
Ġempt y
Ġlangu age
ĠSpan ish
ov ille
a f
d ist
e en
f rancs
m ay
o or
p al
u c
u ous
u cum
Ġ 6
Ġ 8
Ġ 9
Ġ K
Ġw ound
Ġw ood
Ġw ild
Ġw arm
Ġc ity
Ġc lo
Ġc reat
Ġc alcul
Ġp ublic
as ha
Ġin no
ic ian
st ead
Ġg est
Ġwith d
Ġas ce
ĠC arnival
Ġwe ight
li g
pe red
res pond
il more
ard inal
Ġv ol
el on
Ġknow ing
Ġpro ved
ol ute
Ġwhen ce
ag ger
Ġsm uggl
ĠG aetano
per haps
Ġpre t
ach t
Ġres ist
Ġoff ice
Ġbl ind
Ġmar ked
Ġvis ible
Ġroom s
Ġpur se
Ġhear ing
Ãī lys
Ġdirect ly
Ġfif teen
ĠTh omson
Ġdro ps
app ro
peri or
Ġgaz e
car riage
Ġpie ces
gg le
Ġval ue
Ġhid den
foll owed
Ġexperi enced
ker chief
Ġignor ant
cier ge
ucum etto
Ãīlys Ã©es
5 02
A li
B e
S hall
o let
p osed
s ha
s ur
s uch
Ġa vo
in te
Ġthe at
Ġo rig
Ġf ru
Ġf ulf
Ġc rew
Ġd ull
as es
at s
Ġl ine
im ate
Ġre semb
ce ll
ill s
ĠM onsieur
Ġde li
Ġwe ek
ant ly
ran ge
Ġbut t
Ġcon n
qu est
Ġv enge
ust ri
ĠB l
ĠB oville
Ġsh ore
Ġrep ro
Ã¨ re
Ġpro ceeded
Ġcom r
ol og
Ġsha r
ĠL ou
Ġbr illiant
ĠR en
Ġover whel
Ġfo i
cha r
Ġch oo
Ġpr ide
lie ve
Ġpers piration
Ġdist ingu
Ġdra wn
Ġletter s
Ġsupp er
Ġinqu ire
ĠCh rist
Ġdi v
ĠĠĠĠĠĠĠĠĠĠĠĠĠĠĠĠ ĠĠĠĠĠĠĠĠ
Ġvisit or
Ġsur r
Ġfam ili
Ġappro aching
Ġran g
Ġgra ce
Ġdev il
ĠCar lini
Ġexpl anation
Ġdelight ed
Ġeng age
Ġshud der
Ġenem ies
Ġprodu ced
Ġang ry
Ġdepart ure
Ġfur ther
Ġvenge ance
4 00
M a
p ri
p ol
p erf
t r
t owards
y ond
re c
Ġo we
ha l
or ies
Ġf ront
Ġf ashion
ar ked
as ing
at ors
ic le
Ġth ro
ad v
Ġfor ce
ri fied
ro g
qu ise
our g
Ġv ar
us s
Ġro yal
Ġcont ract
Ġpre par
ab l
Ġass umed
Ġco ff
ern al
Ġinst ance
Ġinst inct
Ġpart y
Ġread ing
Ġcons cience
Ġcomm itted
Ġple ased
Ġac ross
Ġtr ust
Ġmis fortunes
Ġgrand papa
Ġmist ress
Ġche st
Ġdev oted
Ġpar aly
Ġtravell ing
pass ed
Ġfin ished
Ġlead ing
ĠSp ada
Ġimag ine
Ġsuffici ently
loo king
Ġmove ment
St ill
Ġtor ch
Ġfig ure
Ġadvant age
5 01
f ound
o c
p ed
p ut
s ub
t ained
Ġ er
Ġt ear
re g
Ġs entine
en elon
Ġf ow
Ġp rud
Ġy acht
ot hes
Ġbe yond
Ġth reat
ut ation
ad ually
te nding
if ference
ch ild
Ġsu perior
th s
th ose
th ree
th ink
ert y
os en
Ġv ill
us hing
ĠH ave
ect ion
Ġad vent
ĠT hat
Ġrem ind
Ġrem oved
pl ic
ret ch
with standing
com ple
ict ed
Ġaff ord
let ter
entle men
Ġsim ply
pre he
Ġprop osed
Ġrel ated
ros sed
Ġheaven s
iv ity
Ġslight est
Ġsold ier
ey es
Ġresol ved
Ġpun ishment
Ġpartic ulars
loo ked
ĠU n
Ġassist ance
Ġobe yed
Ġcop y
Ġhon est
Ġev il
Ã¦ s
Ġcrim inal
ĠRen Ã©e
4 01
T ell
a h
b ack
f our
i od
i vid
m is
m ist
n a
n am
n ame
o pt
s ay
u ce
v ation
v iew
z ed
Ġt ort
Ġa ud
Ġs lave
er ve
Ġm at
Ġm ort
it ement
es e
Ġp air
Ġp orter
id ing
le br
Ġe ase
Ġg ain
Ġg un
Ġth under
Ġnot e
ri er
Ġme ant
ur per
to gether
am me
Ġse ll
ĠA fter
Ġst orm
il ing
qu et
Ġsu per
our ce
os se
el im
rel ess
Ġag itated
Ġret ire
de c
Ġim men
Ġqu it
Ġsp ir
Ġshould er
ci ent
ĠW ho
Ġdes ir
Ġent ering
Ġpl ain
Ġper iod
Ġspe cul
Ġapp oint
Ġgreat er
oubt less
Ġlove ly
arm es
Ġappro ach
Ġdu ke
Ġdirect ed
Ġconsid ered
Ġlad ies
Ġexam ple
Ġbu ild
Ġabs ence
Ġrock s
Ġdiamond s
Ġhop ed
Ġdemand ed
Ġacquaint ed
bet ween
Ġpat ron
ĠĠĠĠĠĠĠĠĠĠĠĠĠĠĠĠĠĠĠĠĠĠĠĠĠĠĠĠĠĠĠĠ ĠĠĠĠĠĠĠĠĠĠĠĠĠĠĠĠĠĠĠĠĠĠĠĠ
Ġdeg ree
Ġunfortun ate
Ġcrown s
Ġleag ues
Ġphil osop
pie ce
rut in
Ġimmen se
b able
b ourg
f ace
l im
Ġ Q
in qu
Ġo w
ha nt
Ġm ing
Ġm ot
en ces
Ġf ro
Ġf ra
Ġf requently
Ġd are
Ġd ue
ar me
Ġh ither
Ġp ure
as c
Ġhe alth
Ġre ly
Ġe leg
st it
ent ions
ow ard
Ġg ar
Ġg ained
ld er
ad d
Ġas semb
li fe
Ġcon cl
os ure
Ġv ast
Ġsh ook
ĠF rom
Ġab and
ol osse
ĠW ilmore
Ġdes ired
Ġpl acing
Ġcl er
be ing
Ġexc ited
Ġspe ed
Ġob tained
Ġmar quis
Ġvis ited
hen s
Ġint ention
Ġprop erty
Ġris e
Ġchar ge
ron ic
Ġsud den
Ġtri al
Ġwal k
Ġhat red
Ġconsider able
Ġreflect ed
Ġcuri ous
Ġuneas y
Ġperm ission
Ġdiffic ulty
Ġagree able
Ġrecom me
ĠBonapart ist
Ġearn est
Ġfet ch
inte rest
Ġshar p
H aydÃ©e
L a
T ake
d ieu
f all
f ect
g eneral
h ood
l ore
m es
m ake
n el
r Ã©
w ise
re f
Ġw ed
er able
Ġm as
Ġb orn
Ġf it
Ġf ully
Ġc ou
Ġc orrid
an e
Ġd om
Ġp all
Ġha te
Ġn arr
im ents
ut ter
al ous
te l
Ġde pend
Ġan tic
Ġst ay
ant le
Ġex ha
Ġcon cierge
ac as
Ġv ig
ĠB e
ĠB y
ĠH er
gl ass
um es
Ġcom pelled
Ġr ic
Ġtw ice
ag ue
ĠE very
ĠL et
Ġdes ign
Ġpl ay
Ġdoor s
op ened
Ġfo ld
ack et
Ġthr ow
Ġgl anced
ex c
Ġhapp en
Ġarm chair
Ġgu ide
Ġbed room
Ġran k
Ġstru ggle
Ġquest ions
su pp
Ġann ounce
Ġdesce nd
Ġclose ly
Ġland ing
Ġtran qu
Ġsold iers
Ġanx iety
Ġsy mp
Ġequ al
Ġpisto l
zz a
Ġincre ased
Ġfaith ful
Ġfat ig
thr ough
Ġwhis pered
Ġmerc y
Ġgest ure
ĠLou ise
Ġchoo se
Ã¦s ar
olosse um
Ġantic ip
2 00
2 01
D ebray
S ire
_ .âĢĿ
h um
i or
k es
m ag
n al
o h
r id
s on
s at
Ġt ong
Ġw ar
Ġw ip
Ġw ounded
Ġw aves
Ġo ath
it ure
or g
Ġb ou
Ġb ought
Ġc ash
Ġto mb
Ġto ler
Ġin k
Ġl ouis
Ġre ver
ad es
al ways
ir th
Ġme re
ĠC aptain
Ġwe ep
Ġst ra
the less
il t
all ow
our se
au bourg
Ġli ves
ast ed
un ger
Ġne ck
Ġle gs
Ġhand kerchief
Ġro lled
Ġsha re
lo ve
lo ved
Ġrem orse
Ġen er
Ġpre ced
ĠR e
Ġacc ent
Ġsc rutin
Ġatt racted
Ġgl ad
oub led
Ġarm y
Ġsto ck
Ġposs ibly
Ġcomm it
Ġlight ed
Ġtre m
Ġsuff ering
Ġadv ancing
ser v
Ġact ion
Ġfall ing
Ġsum mon
Ġhor rible
Ġsle pt
Ġdirect ion
Ġbeaut y
hand s
Ġacqu ired
Ġconv inced
Ġconv uls
Ġte legraph
aff old
Ġacquaint ance
Ġarrest ed
ĠHow ever
Ġmount ed
Ġbott om
Ġund ert
Ġdistur b
Ġbes ide
Ġele ven
Ġsitu ation
Ġgend arme
Ġfortun ate
Ġpreser ved
Ġest abl
Ġapparent ly
Ġcondem ned
Ġdeterm ined
Ġton ight
Ġwaist coat
ĠChrist ian
3 02
E ugÃ©nie
J ust
L u
T wo
b ook
c ol
g erous
g arden
h us
l ime
m a
p her
t urned
Ġ Your
Ġa f
en ger
on es
Ġb ent
Ġb ow
Ġb read
Ġb irth
Ġf ond
Ġf are
Ġf ool
Ġc ru
ll ow
Ġp iast
Ġhe ight
Ġn erv
Ġl oss
ve l
Ġe ars
st o
Ġbe at
al most
ri ages
ĠC om
ĠC ocles
ĠA m
Ġdo cum
Ġst retched
ort ed
Ġwho lly
ac ked
art her
Ġag itation
Ġus urper
Ġun less
Ġsp ark
Ġcont ent
Ġcont ents
Ġpl ayed
op en
Ġacc us
Ġacc ident
not es
Ġfriend ship
Ġcar b
Ġexc lam
Ġour selves
Ġcall ing
Ġhands ome
Ġpe ace
Ġcomm on
ia zza
Ġgi ves
lect ed
Ġfear ful
How ever
cept ion
Ġtal ked
Ġinv ited
Ġann oy
Ġtri f
Ġcompan y
ĠCha mps
Ġawait ed
Ġbetr othed
Ġnatur ally
again st
spe ak
Ġcarry ing
Ġcent re
Ġexact ly
Ġdistur bed
Ġdestro y
Ġbra ve
pers on
Ġfing er
Than k
Ġprecaut ion
fact ion
Ġpron ounced
Ġmour n
Ch Ã¢teau
Ġpenet r
Ġsty le
Ġpret ty
Ġavo id
ĠBl acas
lebr ated
3 01
4 02
G od
e ch
g y
m ind
m orning
p rom
p rison
t a
t ra
u de
Ġa live
Ġs n
Ġs it
Ġs li
Ġs ighed
ha st
it a
it or
Ġb al
Ġb ird
Ġb urning
Ġc aught
ll e
an sw
ar ies
Ġp oured
Ġl ines
Ġre venge
le ft
Ġbe aring
Ġsa f
Ġwe alth
li ef
if orm
ĠA rab
ra id
Ġex erc
il s
us ual
Ġam az
el ing
ĠĠĠĠ ĠĠĠ
Ġle aves
Ġag ent
Ġad opt
Ġro b
own er
ĠG o
Ġgr adually
Ġent ertain
ab les
ret urned
Ġpr ice
Ġcha mb
light ed
Ġexp ressed
Ġadd ressing
Ġdra gged
Ġreco vered
Ġlo ck
Ġpur su
Ġsil ver
Ġrest ore
Ġmis ery
my self
Ġwant ed
aj or
gu ish
Ġremain ing
Ġtal king
Ġfore ver
ĠFrench man
Ġrel ate
Ġcalm ness
Ġamong st
Ġport ion
Ġviol ently
Ġbott le
Wh ich
Ġpurcha se
ĠCatal ans
Ġdestro yed
Ġmus ic
acqu aint
Ġben ef
Ġlab or
contin ued
Ġclo ak
ustri ous
Ġoverwhel med
Ġsentine l
amme red
Ġnerv ous
2 02
A b
A fter
M arseilles
W as
b ited
d om
f ice
g ent
h undred
i us
i ance
m et
n ce
p et
p ur
s im
y et
y ears
Ġ ver
Ġt im
Ġt est
Ġt reat
Ġw ore
Ġs ense
ha r
is c
is her
Ġb os
Ġf ly
ll ing
Ġd ign
Ġd ressing
Ġp et
Ġp ress
as ures
id ly
ic er
Ġg ay
ce an
Ġfor ty
ver ing
Ġde ed
The se
ĠC ucumetto
Ġst ammered
ran ean
Ġcon ver
Ġman if
os es
Ġli e
ak ed
ound ation
Ġam b
ond s
ĠS inbad
ĠP iazza
Ġcom prehe
Ġmad emoiselle
ag raph
Ġsha king
ĠT ell
are st
Ġdes erted
wh om
op olo
ious ly
Ġwor se
ret urn
Ġmar quise
ian o
con vers
con ceal
ĠN ot
Ġgu ess
Ġsign s
Ġserv ices
Ġsupp osed
Ġcap t
Ġperf or
ho le
cept ible
your self
Ġcond ition
go ing
orm ous
Ġcor respond
po or
po int
Ġabs or
Ġsk y
Ġutter ing
Ġexpect ing
Ġjo in
pres ent
Ġcircumst ance
Ġsens ation
Ġhes itated
Ġca reless
Ġconcern ing
Ġfing ers
Ġendeavor ing
Ġbecom es
Ġacknow ledge
Ġemplo yed
mill y
vail ed
Ġpict ures
Ar milly
Ġstif f
Ġquiet ly
somet hing
Ã´ tel
Ġengage ment
Ġwed ding
pher d
; âĢĶ
M eanwhile
P erhaps
P oor
U pon
h ile
i able
k ind
m ount
o pp
o ck
p ow
t urn
w ent
Ã ®
Ġt ruly
in ated
re es
re ement
is ion
er al
Ġm ix
Ġm antle
it ary
Ġb ol
Ġf light
Ġf arther
Ġc al
Ġc and
Ġc iv
Ġc ool
Ġc ries
Ġc rossed
Ġc oward
Ġd ine
Ġd ish
Ġp ract
Ġin vent
Ġl ower
se emed
Ġre jo
Ġre new
ent ively
Ġbe loved
Ġg reen
ad em
ĠM al
Ġas certain
ri ve
ro pe
ur ance
te chamber
Ġan guish
ĠC on
Ġwe l
ter s
ant ic
Ġcon tem
all ed
ĠD id
oo ks
ĠB eau
Ġal oud
Ġsh ot
Ã© lie
ĠF oundation
ĠH Ã´tel
ven ue
um n
um ent
Ġr ub
Ġsha me
Ġus ually
de rer
Ġsp read
ĠG eneral
man ner
Ġent hus
Ġacc used
Ġch osen
Ġper ceive
Ġexc itement
Ġob st
Ġtell ing
Ġmar k
Ġsc affold
Ġste pped
Ġcr imes
cl osed
Ġdist ribut
Ġreturn ing
Ġmur der
pre c
Ġhast e
Ġremain s
vell ous
Ġstr ict
there fore
Ġpar agraph
Ġconv iction
Ġrecollect ion
Ġ5 0
Ġexpl ain
Ġrespect ing
cons cious
Ġstri king
Ġreve aled
Ġaccept ed
ĠSp ain
Ġimag ination
Ġende avored
Ġdan gerous
Ġconduct ed
Ġarran ge
tre es
Ġproof s
Ġca vern
Ġinquir ies
Ġsitu ated
Ġdri ve
Ġfr ame
reco gn
Ġsett led
Ġintellig ence
Ġmess enger
Ġinno cent
Ġrepro ach
Ġfow l
comple te
Ġming led
Ġsymp ath
sat is
Ġtong ue
Ġpiast res
Ġexclam ation
Ġchamb re
Ġbos om
Ġcontem pl
D uring
b u
c ap
d et
e alous
f ell
g gl
l ord
m pt
s es
s om
s ix
t able
u ge
w r
w ort
x y
x ion
he ther
it c
or ough
Ġc ert
Ġc ul
Ġto ward
Ġd im
Ġh ig
Ġh unger
Ġp an
as m
Ġhe at
at ched
ve t
id s
st re
gh orn
ri e
Ġde cl
ĠC olosseum
am ing
Ġse vere
pe ak
Ġst up
il ful
th ousand
pp er
ac ity
ĠV ia
ert ained
ul ate
em ber
est ic
un k
ass ed
ĠS ailor
Ġpro vided
Ġcom fort
Ġr ay
Ġsee king
ag ree
ru ct
Ġret reat
ĠT ur
ĠT wo
Ġdis ple
Ġsp are
Ġover come
be aut
be lieve
Ġres p
Ġres pond
Ġcar riages
Ġass ume
Ġpers u
Ġfa iled
Ġgreat ly
cei ving
Ġhead s
Ġcons ol
Ġperson al
Ġsil k
Ġref used
Ġins ult
act ly
Ġsub lime
Ġmur derer
rem ained
Ġhor iz
Ġmatter s
gr ound
Ġforg ive
ĠTh us
Ġprof it
Ġabs olute
asp ing
Ġfavor ite
Ġoffic ers
Ġmid dle
Ġprob ability
Ġreflect ion
them selves
Ġprec isely
occ up
Ġnam es
Ġtremb led
Ġimport ance
Ġmer it
ĠNap les
every thing
ĠCorsic a
Ġpal ace
Ġpolit ical
exp ression
Ġadmir ation
Ġgend armes
Ġrecei pt
Ġfever ish
Ġrememb ered
Ġstu pe
Ġfru it
Ġcler k
Ġaccus ation
3 00
C avalcanti
G entlemen
S ee
a is
b id
c ame
c aire
d irect
e qu
f a
f am
f ind
g ain
j ud
l ow
l ook
o ke
r ather
s k
y s
Ġt ree
he st
is m
or ous
or ry
Ġb ore
Ġb ook
Ġf le
Ġf ood
Ġf atal
Ġc at
Ġd ig
Ġd well
es cri
Ġy ellow
as hed
Ġhe ir
Ġha b
Ġin her
Ġl est
Ġl od
om orrow
Ġre ck
Ġbe ings
al one
Ġas leep
ro id
ĠC Ã¦sar
and y
ch ing
Ġst ones
Ġex tending
Ġsu s
Ġsu st
Ġk iss
ard ieu
em on
us ing
ap sed
um ber
ĠS an
Ġpro c
Ġpro v
Ġr ays
me an
Ġfe e
Ġag reed
Ġad ieu
Ġro of
ĠE ast
Ġun iform
Ġsp ace
ci es
co ach
Ġen ormous
be g
Ġser ve
Ġmoment s
Ġthr one
Ġsec ure
Ġcons ent
ex t
Ġsign ature
com ing
Ġfoll y
Ġadv ance
Ġturn key
Ġ1 1
Ġarri ve
Ġem er
Ġsoon er
Ġhonor able
val id
Ġgrand mother
Ġput ting
Ġinv ol
Ġinterest ing
Ġdev otion
gr and
Ġcalm ly
Ġmo on
happ iness
Ġce rem
Ġce lebrated
Ġcompan ions
Ġaffect ed
Ġdro pped
vo ice
Ġfavor able
Ġsleep ing
Ġreve rend
Ġbetr ayed
Ġstreet s
Ġwitness es
Ġintrodu ction
Ġlean ed
Ex cuse
Ġhes itation
appear ance
ĠCatal an
Ġbecom ing
Ġacknow led
Ġsmo ke
Ġlu x
Ġexchan ged
Ġindic ated
Ġconstant ly
bec ause
Ġwithd rew
quest ion
Ġthro at
Ġcorrid or
Ġpall or
Ġexha usted
Ġaf raid
Ġcarb ine
Ġsaf ety
Ã® mes
N ay
U n
W ait
b ar
b esides
c or
c ir
c red
d if
d el
h orses
i vers
o de
o ci
p ic
p osition
r ust
s ame
u rope
w ait
z en
Ġ Yes
Ġ rig
Ġt akes
he red
Ġa risto
in et
in ister
re ally
Ġw icked
Ġs ource
Ġs orry
Ġo cean
er ved
ed y
Ġm ute
en et
it ate
Ġb owing
Ġf un
Ġf ish
Ġf ier
Ġc ig
Ġd a
Ġd am
Ġd rank
ar i
ar ri
Ġh orr
Ġp il
Ġp osit
Ġha bit
at tered
se t
Ġg if
Ġg rew
Ġth y
ad y
ill ing
Ġu r
Ġan cient
pe lini
ch or
ra pped
res pect
Ġsu it
ous ed
ac hes
os al
ul se
us al
ĠF aubourg
Ġno is
ak ened
ind eed
Ġne arer
Ġshe pherd
Ġrep l
Ġrep res
um ing
ĠP asha
ĠP opolo
Ġj est
Ġj ealous
Ġmad ness
Ġag ony
ĠE x
Ġsha de
ru ary
Ġmore over
de v
Ġdis gu
ĠHe re
Ġrem arked
Ġday light
ĠW hile
op ed
Ġcl othes
Ġch im
Ġra ise
Ġimp ression
Ġmar vellous
iz es
ian s
Ġatt entively
ĠN Ã®mes
Ġcons cious
Ġcall s
com m
Ġfort night
Ġpe ar
Ġtre asures
Ġfind ing
Ġcap able
Ġind ifference
ser ve
Ġint ense
Ġins p
Ġinter rog
Ġdep rived
Ġmur dered
Ġill um
Ġinterest s
gr at
Fran ce
Ġquestion ed
Ġdro p
Ġdro ve
Ġbring ing
Ġpray ers
Ġslight ly
Ġcold ly
Ġ3 0
Ġlaw s
Ġemb roid
Ġperm it
Ġperm itted
Ġbelong ing
Ġprevent ed
bo ard
Ġtem p
Ġfurn iture
Ġexcept ion
Ġobe y
Ġdef end
Ġpurcha sed
even ing
wor ld
Ġfast ened
Ġtouch ing
Ġhur ry
eb ruary
Ġphys ician
Ġdispl ayed
Ġinn keeper
Ġelect ronic
Ġcreat ure
Ġsmuggl ers
Ġsurr ounded
perf ect
Ġmort al
lim ited
Ġtranqu ill
Ġtoler ably
Ġstra ight
convers ation
Ġrespond ed
escri bable
5 0
B arrois
I mp
L e
O r
b aron
c ence
d raw
e ither
g ot
g ion
g ood
g ging
i ves
l ast
s us
Ġ ing
Ġ id
Ġt all
Ġt ired
re ct
Ġw on
Ġs qu
Ġo pera
is sed
en o
Ġb an
Ġb are
Ġf ac
Ġf la
Ġc ord
Ġc laim
Ġto wn
an other
Ġp it
Ġp ra
Ġp ick
Ġp aused
Ġp acket
as ons
le ave
Ġe lo
Ġbe hold
Ġsa cred
Ġth orough
ad ier
Ġnot withstanding
ro ad
ct ual
te mber
am ent
Ġst ar
res ist
il ence
ĠD e
ous es
Ġor nam
Ġli qu
Ġli br
Ġv ague
un ged
us can
ĠF lore
ĠF ebruary
ĠH as
Ġam id
el ess
ĠS elim
ĠP enelon
Ġle g
Ġfe ars
Ġag reement
de ad
Ġdis d
ign ation
Ġcont aining
Ġout side
ĠG eno
Ġgr ant
Ġdes k
per ate
Ġpl ans
Ġcl asped
pl om
ep tember
ne cess
Ġwor n
Ġevery where
Ġevery body
Ġass ert
Ġspe ech
br ought
Ġpart s
Ġho arse
ex cell
Ġord inary
Ġend ure
cl osure
ĠO pera
Ġcomm ission
arn ed
day s
Ġind ul
Ġperf orm
Ġprom pt
Ġmis erable
ens ive
Ġint entions
Ġfour th
Ġdep arted
Ġvisit ors
Ġcare er
ub ian
Ġchar ged
Ġsw all
Ġve l
Ġve il
Ġinc red
Ġinc ome
Ġcomp osed
Ġ2 8
Ġget ting
Ġhar bor
Ġforg ot
fortun ately
po cket
Ġcomple xion
Ġcir cle
Ġrecollect ed
Ġbro ke
cons id
ĠCha mber
Ġawait ing
Ġreve al
Ġnecess ity
sec ret
Ġintrodu ced
Ġbar rier
acc ustomed
Ġship owner
chan ce
Ġjour nal
Ġfurn ished
Ġgall ery
Ġrun ning
wor k
Ġdeg rees
Ġself ish
Than ks
Ġcollect ed
Ġprecaut ions
Ġmod ern
Ġmir ac
Ġed uc
cond uct
Ġconve yed
Ġpurs ued
Ġfamili ar
Ġer ror
Ġadvent ure
ivid ual
Ġfra g
Ġfatig ue
Ġfare well
sto pped
Ġdocum ents
Ġmourn ful
Ġabsor bed
Ġcul pr
emon ade
Ġelo qu
Ġlibr ary
2 5
2 9
D ear
F rench
S ome
a way
c ab
c arcely
d i
e une
f if
g ress
l ay
m ad
m aster
n ers
n atur
o li
r im
s ound
w ind
y r
Ġt ap
in ite
Ġthe e
Ġw o
Ġw ide
Ġw retch
Ġs ink
Ġm aint
Ġm atch
it ions
or to
Ġb rief
Ġf isher
Ġc oun
Ġc atch
Ġto t
Ġto ken
Ġd azz
Ġh osp
es c
Ġp ressing
as ants
Ġin valid
id ity
le re
Ġe tern
Ġbe ard
Ġon es
ĠM ay
Ġnot es
Ġde b
Ġan techamber
Ġwe eks
nt in
ke ep
Ġst age
il ities
ris e
Ġsh own
ĠH onor
Ġam use
Ġrep ose
ord ered
Ġle aped
Ġhand le
Ġad jo
Ġgo es
ĠE urope
ci al
Ġother wise
Ġpl ate
Ġpl aces
Ġpl unged
Ġbr ide
ab s
ab led
Ġacc ur
Ġcl ub
Ġexc ite
Ġthr owing
Ġass urance
Ġob ed
Ġob sc
Ġimp ert
Ġatt ached
Ġco ver
con v
ranc hes
Ġcons pir
ex am
âĢľâĢĺ âĢľ
ty ard
Ġbeg ged
Ġvo y
Ġvo ices
ail ed
Ġpe asant
Ġlight ning
let s
ĠCount ess
Ġes te
Ġunderstand ing
Ġrest ed
Ġrest ored
ĠJ ust
Ġtra ced
ser ved
Ġ1 0
count enance
ec lere
Ġinter posed
Ġinter view
Ġsub st
Ġdead ly
Ġstru ggl
uri ous
Ġinterest ed
Ġobser ve
?âĢĻ âĢĶâĢĺ
uten ant
form ation
ĠTh ree
Ġdesce nding
ues nel
Ġland lord
Ġutter ly
att le
Ġkeep ing
ĠSt ill
Ġprob able
Ġexec uted
Ġgrat eful
Ġprodu ce
Ġtry ing
Ġmer chant
Ġtem pt
ĠLe ghorn
ĠLe gion
Ex actly
Ġpolit eness
Ġspect ators
Ġang le
Ġconcern ed
Ġdescri ption
stru ck
reco llect
Ġemplo y
Ġlu ck
Ġconsequ ently
Ġexchan ge
Ġrestr ain
Ġgen erous
Ġbrig and
Ġbrig adier
Ġstro ve
Ġprinci pal
Ġinha bited
Ġcho ice
ĠK ing
Ġfulf il
olog y
Ġvill age
Ġdesir ous
Ġappoint ed
Ġassemb ly
Ġsummon ed
col ored
Ġamaz ement
Ġperfor med
Ġcool ness
wort hy
Ġhoriz on
Ġstupe fied
Ġhorr or
Ġrepl aced
Ġvel vet
C ha
C an
H as
L ook
a ld
b ur
d one
d own
h ost
i ps
l ain
m occ
p he
p ense
u ff
Ġt a
in en
Ġw id
Ġs an
Ġs ick
er ies
Ġm or
Ġm il
en ched
on ce
it ating
Ġf reed
Ġc ardinal
Ġd ust
as ked
as ili
Ġha ng
Ġin j
ĠI nd
Ġre aching
le aving
st ri
ent al
Ġbe arer
Ġbe held
Ġg room
Ġth ou
ĠM e
ĠM ed
ĠM ajor
al though
al ities
Ġfor bid
ur ch
Ġwe ar
Ġwe ap
pe nded
Ġst ation
Ġso b
il ion
ĠD on
ĠD uring
th od
ell ing
ac compan
Ġv an
Ġcount ed
em et
ast rop
Ġsh out
ight s
ĠS ee
ĠS eptember
ĠP ray
Ġar d
Ġr um
Ġwhen ever
Ġgo d
ĠE ach
Ġun usual
ĠT uscan
de p
Ġim m
ĠL eclere
Ġgr ow
Ġgr ay
wh ose
ons ense
Ġpl aying
Ġbr ut
Ġcl osing
Ġper ceiving
ne ar
Ġoff ering
aint y
Ġpres ume
Ġthr ust
Ġimp rison
Ġmar ble
ple asant
Ġatt ract
Ġatt acked
Ġbo ld
Ġho llow
fe eling
ax e
ĠN ubian
.âĢĻ âĢĶâĢĺ
Ġheart s
Ġdist ant
do es
Ġlo aded
ĠJ eune
Ġtra ver
Ġtra ces
Ġocc ur
Ġut most
Do es
count ry
Ġstran gers
Ġcour tyard
Ġdep uty
Ġform s
Ġreg ister
cri bed
Ġdif ference
Ġuse ful
Ġsix ty
Ġhast en
iss ary
Ġfore st
Ġprop ose
Ġill ustrious
Ġcor rect
Ġdu el
Ġdet ails
Ġadm it
Ġfif th
Ġfoot steps
Ġel apsed
Ġhum ble
Ġprof ession
fo ld
Ġtran sp
ĠCors o
Ġstri ke
ĠTe pelini
Ġprep are
Ġbelong ed
Ġdisp osed
Ġlan tern
Ġeat en
Ġcre ated
Ġhung ry
Ġeffort s
vis it
vol ution
Ġprevious ly
Ġheav ily
Ġcloud s
unt arily
Ġpict ure
Ġrecall ed
bre ak
Ġsuspic ion
Ġhard ly
Ġtender ness
Ġregard ed
Ġpier cing
lex and
Ġdistinct ly
atur day
Ġlif ted
Ġdecla red
Ġasce nded
Ġtheat re
Ġorig in
Ġcomr ade
Ġdistingu ish
Ġcoff ee
Ġparaly tic
Ġcopy right
ĠQ uesnel
Ġmot ive
Ġfold ed
Ġanticip ated
hum an
Ġweep ing
Ġtrem ble
Ġcomprehe nd
ĠBeau caire
agree able
Ġembroid ered
Ġtranquill ity
Ġdisd ain
Ġmirac ulous
1 1
; âĢĻ
A dieu
C ar
E dward
H onor
N T
P eppino
P rec
S uddenly
T is
_ ,âĢĿ
b ility
c ast
c aptain
c icer
d ed
d est
d ig
e vid
g ra
g hed
g race
k i
l ict
o om
p es
p ay
r at
r ich
s ign
s ucc
u able
u ced
u zz
w ild
w hether
Ġt ied
Ġa vail
in v
in y
in stant
re ated
re ason
Ġw ings
Ġw rapped
Ġs ize
is ite
Ġb od
Ġf und
Ġc ree
Ġto w
an cy
Ġd ry
Ġd ared
Ġd ug
Ġp aint
Ġp ushed
Ġhe ro
at hed
at ory
Ġl ying
Ġl emonade
ic ulous
Ġre se
Ġre lig
Ġre asons
le v
ent ric
Ġbe low
Ġsa ck
Ġg ard
Ġg ild
Ġg ently
ut ions
ut ies
ad m
al so
ir med
Ġas king
ri olet
Ġme thod
et ite
to l
to p
Ġse izing
ter ing
li o
ĠA lexand
Ġcon tempt
Ġk issed
our ces
ac her
os po
ars hal
em s
Ġal together
ast on
Ġsh r
Ġsh owing
us es
ak er
ĠH ad
cc entric
el a
Ġrep ent
Ġrep utation
ĠS on
ĠS ome
ĠP ont
ĠP erhaps
Ġpro spect
ie ves
ru p
Ġun ited
Ġun conscious
ile t
end e
Ġim pl
Ġrem ove
Ġpre cious
Ġpre vailed
ĠR ita
Ġacc ess
Ġcl asping
Ġpass port
pl ain
pl ess
Ġch urch
Ġcar go
Ġwor ked
Ġspe c
Ġspe nd
Ġra ce
Ġmar ch
Ġco ast
Ġgood ness
Ġapp lied
Ġinst ruct
Ġmean while
Ġread ers
Ġcons ult
Ġcons isted
Ġwish ing
com mand
Ġansw ering
Ġter rified
Ġmind s
Ġcap r
Ġmis sion
oun cing
Ġint imate
Ġfour teen
Ġdep ths
Ġvisit ing
Ġchan ging
Ġfear ing
Ġsmil es
Ġreg ular
cri pt
Ġsure ly
Ġpoint ing
Ġinf am
Ġsecret aire
Ġche ck
Ġtal ent
Ġdel ir
go vern
cure ur
Ġrel ative
Ġpay ing
Ġfix ing
Ġinv itation
Ġve ins
Ġcomp ly
Ġadm itted
Ġ2 0
long er
dis appeared
Ġgold en
Ġbu ilt
Ġcle ver
Ġfree ly
Ġglo ves
erm ain
Ġdest ined
can not
att ention
Ġport ra
Ġdelight ful
Ġfin ish
ask et
Ġpun ish
Ġemb ra
ĠY et
Ġobject s
Ġequ ally
Ġpat ernal
Ġintrodu ce
bo x
quis ite
With out
Wh ile
Ġcustom s
Ġinquir y
Ġspect acle
Ġfaint ed
Ġcompl ain
Ġpriv ile
Ġsuc ceed
ater ial
Ġstart ing
Ġden y
Ġdisc us
Ġcommunic ation
Ġenc oun
Ġwond er
Ġwond erful
ĠMar quis
Ġvent ure
bec ame
word s
Ġ181 5
Ġsacri fice
Ġpurs ue
Ġcomr ades
Ġvar ious
Ġprud ent
plic ity
Ġtort ure
Ġbuild ing
Ġow ing
Ġhither to
Ġeleg ant
Ġric hes
Lu igi
ĠAm Ã©lie
Ġtrif ling
tra vell
conceal ed
Ġsympath y
stre ngth
Ġfun eral
natur al
Ġadjo ining
emet ery
Prec isely
Ġgild ed
ospo li
1 5
2 3
2 7
A m
B esides
B enedetto
D oubtless
F aria
G ive
M ay
S ay
S inbad
T e
b ing
b ow
b ly
b ank
c our
c reat
d on
d ering
d ream
f elt
h ib
m ur
m aj
s ol
s per
s aw
s leep
t ran
t ry
y l
Ġt ro
he aven
Ġa v
in f
in ces
in stead
re et
Ġs outh
ed ing
Ġm aid
on tain
it ality
or ation
Ġb ills
Ġb onds
Ġb ranches
Ġh ide
Ġp our
Ġin con
Ġl inen
im mediately
Ġe B
Ġe nded
Ġe lder
Ġe ccentric
st ra
ce nded
Ġth ieves
ld om
ad ing
al v
al ready
ĠâĢľ _
ver ty
ro l
te e
Ġan chor
Ġse am
Ġst ated
Ġst ag
ant ity
il han
ous ers
ge red
os ited
Ġli ber
Ġv irt
ĠB ou
Ã© r
Ġno bility
Ġshe d
ond e
Ġup stairs
Ġcom b
Ġab ode
Ġun pleasant
ĠT H
ĠT ake
Ġcont ented
ĠL i
ĠW ill
ĠG ood
Ġgr anted
co vered
Ġen v
Ġpre fect
Ġpass ion
be come
Ġwor st
Ġoff end
ud ing
Ġexc ess
Ġbl ess
Ġass oci
Ġra ge
less ly
Ġco lle
Ġthought ful
ĠN ever
mb ers
Ġread ily
Ġlast ed
int rodu
com pl
Ġlight s
Ġdra ught
do ir
Ġter m
Ġlo ves
Ġwait er
Ġsupp osing
Ġtra ce
Ġind escribable
Ġind ividual
Ġ1 5
Ġ1 00
Ġprom ises
ens ion
Ġaw akened
Ġact ed
Ġdi plom
act or
arm ela
Ġsent iment
Ġran som
Ġext rem
will ing
Ġbre aking
who le
Ġche mist
by e
Ġsound ed
Ġris en
Ġve h
Ġve x
Ġ2 7
Ġmo de
under stood
Ġexam ine
Ġexam ination
Ġexam ining
Ġabs ent
Ġsk ill
Ġsk ilful
Ġoccup y
ee ch
Ġgaz ing
sm ile
Ġart ist
Ġart icle
Ġru ined
Ġexist ed
Ġpun ctual
Ġbreat he
Ġmarry ing
Ġph ial
Ġsy mpt
Ġjo ined
Ġbelong s
Ġjew els
bo at
Ġclear ly
Ġfurn ish
Ġri val
Ġsplend or
Ġprotect or
Ġanxious ly
Ġdescri bed
Ġadmir able
poss ess
Ġsupport ed
Ġsol itude
iter ary
Ġfr own
Ġremark able
Ġunfortun ately
Ġrecei ving
ĠAr ch
Ġconsequ ence
Ġsett le
Ġweak ness
Ġspring ing
Ġintellig ent
Ġaccompl ished
Ġstro ke
Ġimpati ence
lex ible
Ġappre ci
Ġdecla re
Ġresist ance
Ġconn ected
Ġprepar ing
Ġremind ed
ĠUn ited
Ġaud ience
Ġspir it
Ġconcl uded
Ġaband oned
Ġnarr ow
Ġwip ed
Ġcru el
Ġcapt ivity
Ġpictures que
Ġwel come
itc hen
Ġresp ons
Ġabsolute ly
Ġacknowled ged
Ġaristo cr
baron ess
Ġpick axe
necess ary
Ġobed ience
Ġobsc urity
Honor Ã©
cicer one
succ ess
ontain e
Ġsympt oms
2 03
3 03
B efore
B ah
D e
H ush
M E
P ardon
S peak
_ ;
a ved
b ation
b est
b oth
c a
c are
d uring
e rer
f in
g ar
g all
g ue
h ish
h onor
i om
m o
n ut
p un
p ost
p ower
r and
r ound
s ent
s ure
t on
t ure
u gn
v at
v ous
w it
Å ĵ
Ġt orn
Ġt ask
Ġw is
Ġw ave
Ġs tern
ou ched
is ible
is cu
er ra
ed s
Ġm al
Ġm ult
Ġm ask
en cies
âĢĿ âĢĶ
or able
Ġb ase
Ġb ade
Ġc ush
an g
an x
an te
Ġd ict
Ġd ining
ar tol
Ġh ouses
Ġp red
Ġp arent
Ġp iano
Ġn ur
Ġl ater
ot ing
ic ense
Ġre ass
Ġg ates
ill ot
ion ess
ir ing
Ġu ng
ur d
to day
ĠC an
ĠC ardinal
ter ror
nt a
Ġst raw
Ġsu pre
Ġsu itable
th ings
ac om
Ġman aged
au gh
Ġall iance
Ġli vid
Ġal as
Ġal ter
ast ic
Ġkn ee
Ġsh irt
ĠF ive
Ġshe et
ig antic
el p
um ult
um ph
ĠP r
ĠP et
Ġhas hish
ord ers
ol t
Ġfe ast
Ġmad man
other s
Ġun ivers
de ep
de part
Ġdis appear
Ġrem edy
ĠL ucc
Ġpo et
Ġpo pe
ĠG u
Ġgr asped
Ġgr oup
Ġdes erve
man y
Ġen abled
Ġpl ed
ĠR ospoli
Ġfriend ly
Ġper sec
ful ness
Ġbl ame
ret ion
Ġappe al
Ġpr ayed
Ġra re
Ġra il
lie ved
Ġsc ar
Ġsc ream
Ġatt ire
Ġatt ribut
con cern
so le
Ġpart ly
Ġho le
fe ar
Ġvis ion
oub les
Ġsign ified
Ġsign ify
Ġcr ushed
oubt ed
ĠO ri
Ġsince re
omet imes
Ġpur ple
Ġconf ined
Ġconf irmed
Ġsil ently
Ġtra ck
Ġind uce
Ġaw ake
Ġrequ isite
du ced
Ġsecond s
Ġwant s
Ġgrand daughter
Ġreg ards
arm s
Ġext ent
Ġext ingu
Ġinf inite
Ġsecret s
Ġsecret ary
Ġdraw er
Ġprop ort
Ġdec or
su nta
Ġear ly
Ġsw im
Ġinv isible
Ġve iled
Ġcomp rom
Ġhar m
Ġtri ump
Ġce ase
Ġsk in
Ġstud ied
Ġhel m
Ġvessel s
app oint
Ġcast ing
Ġutter ance
Ġeffect ually
Ġexpl ained
Ġrespect fully
sm all
ey e
ĠSt ates
sc arcely
ĠCha r
imp ossible
stant in
Ġbreat hed
Ġquar rel
Ġwitness ed
Ġmotion ed
sec ond
ĠAll Ã©es
tre mb
Ġsoci al
Ġsad ness
Ġsatis faction
Ġprin cess
Ġexcept ing
Ġval uable
Ġpolit ics
ĠPal ais
min utes
mar riage
Ġbes eech
Ġdescri be
poss ession
Ġformer ly
gi ven
Ġyield ed
Ġfortun es
iter ranean
Ġproject s
Ġhur ried
Ġanim al
Ġenc ir
Ġmour ning
Ġcra vat
Ġpenet rate
Ġsuspic ions
Ġdecided ly
Ġprinci ples
Ġauthor ity
Ġimpati ently
Ġsacri fic
Ġcalcul ated
Ġfamili es
Ġrecomme nd
Ġearnest ly
Ġvig or
Ġener get
Ġamb ition
Ġstup id
beaut iful
fam ily
Ġfle w
Ġemer ald
Ġcerem ony
Ġgif t
Ġrepres ent
Ġchim ney
Ġsqu are
Ġthorough ly
Ġculpr it
Ġconspir acy
Ġvoy age
asili ki
ĠMe ilhan
Ġbrut al
wild ered
Ġportra it
maj esty
Ġveh icle
Ġaristocr atic
Ġsupre me
1 8
1 9
B aptistin
D on
F el
F ather
G utenberg
J u
P ray
P ardieu
b ro
c ur
c ry
e ight
f ellow
g ne
h usband
l ad
l isten
m em
m oney
n ay
p i
p en
p ent
p ul
r ated
r ase
s en
t es
t ree
t aken
u pp
v iol
w all
w atch
x ic
z ure
Ã ¯
Ġ ...
Ġt ailor
he m
he me
Ġa ven
Ġa ug
in her
in ence
in ci
Ġs ong
Ġs ides
ou st
Ġo d
or ing
Ġb id
Ġb le
Ġb iscu
Ġf ill
Ġf est
Ġf aces
Ġc av
Ġd arted
Ġd umb
Ġd ashed
ing ing
ar a
ar ks
ar ched
Ġp hant
Ġy ards
as semb
Ġha ught
at o
Ġn ation
Ġl at
om ach
ot ions
ot hal
ve lo
im ag
Ġre le
Ġre ward
Ġe ating
st range
ent er
ent ire
Ġbe lief
Ġg rie
ut ing
ĠM eanwhile
ro lled
Ġme mber
Ġme mbers
te xt
her n
ĠC l
am ma
Ġwe ather
Ġwe ary
ter rible
ter oom
if ferent
Ġdo g
Ġdo zen
ant h
ra vo
Ġso lic
Ġex quisite
ell ed
Ġwill ing
ome o
ac count
Ġor g
ul ated
ist r
ĠB our
ĠB org
Ġal tered
ap ing
Ġrep ast
ĠS und
ĠP orto
Ġar bor
Ġr ush
ol s
me re
me et
me ans
Ġhand ful
Ġad vers
Ġad ored
Ġro lling
Ġsha ke
Ġus ing
ment ed
Ġdis agreeable
Ġsp ent
Ġgr owing
Ġgr asp
Ġdes perate
man teau
per ceived
Ġpre tended
ĠR o
Ġcl ass
Ġcl oth
Ġres pected
Ġres igned
Ġbefore hand
Ġra rely
Ġimp ro
Ġbo ots
Ġgl ancing
so on
fe re
ex ec
hen sion
Ġdown stairs
Ġcontin ue
Ġbeg un
Ġexp ed
Ġadd ition
ĠO F
Ġright ly
Ġlo cked
Ġperson age
Ġsupp ly
Ġadv ise
Ġtra vel
Ġpresent ing
ult ies
Ġaw aken
Ġaw oke
Ġact ive
Ġact ions
amp ed
Ġfl atter
Ġfl ash
Ġsub ter
aster n
Ġwant ing
Ġcare ful
Ġsent ence
cri ption
sp ap
Ġopp osition
Ġsum mit
Ġfore ign
Ġmag ic
Ġmaster s
Ġinv est
Ġinv ite
Ġdu ly
Ġmo ving
Ġpar ad
Ġdisco very
happ ened
ific ant
Ġabs urd
Ġlau ghed
Ġevid ence
erm ine
Ġrecollect ions
pr ay
Ġrapid ity
Ġdr am
Ġoffic ial
Ġviol ence
Ġbur nt
Ġhorse back
car ried
Ġdream s
Ġemb arr
Ġjo ke
bet r
Ġdisp osal
spe aking
apart ment
bl ack
Ġassass ination
Ġguil t
Ġaffection ate
part ic
friend s
Ġsuffer ings
Ġfanci es
Ġincre ase
Ġdri ven
Ġcab riolet
Ġincl ined
Ġexpress ive
iast ic
Ġcommunic ated
Ġassassin ated
Ġbreath less
Ġben ch
Ġdispl ay
Ġsafe ly
Ġstat ue
Every thing
Ġpati ent
Ġconve y
Ġshru gging
Ġwound s
appro ached
Ġtheat res
Ġorig inal
Ġsurr ound
pol it
pol ice
Ġfashion able
Ġafford ed
Ġplain ly
Ġaband on
Ġrecomme nded
Ġdom estic
Ġrever ie
Ġener gy
serv ant
Ġconvuls ively
Ġspark ling
answ er
Ġadopt ed
acquaint ance
Ġbenef actor
Ġmanif ested
Ġcareless ly
mount ed
adem ark
recogn ized
Ġdisple ased
Ġcat astrop
Ġinher it
Ġprov ide
cir cumst
Ġdam ask
Ġpil ot
Ġposit ively
Ġconscious ness
ĠFlore nce
excell ency
Ġswall owed
Ġeduc ation
mocc olet
Ġstation ed
onde go
artol omeo
Ġtriump hant
stantin ople
Fel ice
Ju lie
4 1
9 3
9 9
A rab
E n
E ngl
E mmanuel
H ad
H aving
J acqu
M ost
N one
O U
O ur
P enelon
R ead
T en
Y et
a ic
b ou
b ably
b eneath
b ury
b olt
c ert
c led
c ertainly
d oubtless
f ric
g ence
g ave
g entle
g rief
h or
h ung
i en
i ven
i ally
j our
k a
l or
l os
l ine
m id
m us
m iss
m oved
n on
o cked
o xy
p at
p ared
s al
s um
s we
s had
s cript
t is
v re
v ive
w ood
Ã ª
Ġt umult
he ar
Ġa zure
in ha
re ached
Ġw in
Ġw and
Ġw ax
Ġs ank
ou ter
Ġo per
Ġm ate
on ne
on ored
âĢľ âĢĻ
it es
it ations
or ious
Ġb ounded
Ġf er
Ġf inal
Ġf asc
Ġc aut
Ġc emetery
Ġto re
ll en
an a
Ġd er
Ġd ried
Ġd aring
ing es
ar g
ar te
ar ation
Ġh inges
Ġp ris
Ġp ull
Ġp asha
Ġy ard
Ġha ll
Ġl osing
st one
st ep
Ġwh ither
Ġg le
Ġth in
Ġis s
ver b
Ġme as
Ġme chan
Ġu nt
Ġu pper
et te
Ġmy st
Ġde mon
Ġse vent
Ġse nding
Ġse aled
Ġse ldom
Ġwe aring
ter ior
li est
li ving
ch ie
ĠA dieu
Ġst ories
ort s
Ġex agger
ran ite
qu ick
ef fect
ge nd
ac ha
ac ious
Ġv est
em p
Ġal tern
Ġkn ocked
Ã© serve
ĠF ontaine
ap arte
Ġne phe
ĠH ouse
ĠH ermine
Ġthen ce
Ġrep ugn
ĠS aturday
ĠP er
Ġar ch
Ġpro per
ck s
me rely
la ves
Ġsha red
Ġcan e
Ġdis pose
Ġqu antity
ĠHe lder
ĠL iterary
ĠW here
Ġen chant
Ġpre jud
Ġpre text
Ġpl ot
Ġbr ings
Ġcl im
Ġfo am
cha ise
pl aced
Ġch ose
Ġbl essed
Ġour s
Ġcha in
ple asure
Ġatt ach
Ġnever theless
Ġapp ly
br other
Ġgl ances
Ġinst r
ĠN ights
Ġsto pping
int ed
Ġcontin ually
com pre
Ġexp ired
Ġfoll ows
Ġfort ress
Ġpe er
Ġpe asants
Ġcomm issary
Ġlight ly
ick et
Ġtre ated
Ġke eper
Ġlo g
Ġsuff iced
Ġsupp lied
Ġtr oubles
Ġref er
Ġref uge
igh teen
Ġinde pend
Ġgirl s
Ġact ing
Ġinter fere
Ġfl ame
Ġsur ve
Ġsur face
Ġappear ing
ott le
Ġset ting
sp read
Ġpossess es
Ġbank rupt
ident ial
Ġche erful
Ġpol ite
rem emb
Ġprop ri
uri es
ĠAs sunta
ĠPro ven
Ġgra cious
Ġdeep est
Ġann um
Ġ2 5
Ġfoot man
Ġbest owed
Ġbox es
Ġtri umph
Ġbu y
Ġconvers ing
ati ence
Ġclose t
Ġland ed
fo ot
asp ard
Ġpray er
ici ent
Ġpost ilion
ieu x
Ġdr unk
Ġcost umes
Ġart ic
Ġ3 00
Ġcol umn
Ġpoison ed
imp ort
Ġseat s
Ġph rase
Ġreve l
Ġhigh ly
uil eries
Ġ4 0
Ġdon ations
bet ter
Ġnum b
any one
ortun ately
bl ood
Ġcourage ous
Ġgrave ly
Ġgall ey
Ġinquir ing
mar ry
Ġele v
rep lied
Ġpreser ve
Ġexperi ence
Ġproject ed
Ġcurtain s
Ġrecom pense
Ġring ing
mill ions
Ġmed ium
Ġpron ounce
Ġcommunic ate
Ġexecution er
vi ved
Ġtrans act
Ġdrink ing
Ġmir acle
thought s
Ġsho ck
.... ....
Ġcondem n
Ġphys ical
Ġstif led
Ġrestr ained
Ġparticular ly
Ġextreme ly
Ġrememb rance
somet imes
Ġlim ited
Ġdelic ate
Ġdelic acy
Ġasce nd
Ġdistingu ished
Ġprud ence
mis fortune
Ġthunder bolt
dec la
Ġspir its
hens ible
fall en
Ġvig il
Ġwip ing
ĠCom te
Ġspark led
Ġpenetr ating
ĠArab ian
Ġexerc ise
Ab out
Ġdign ity
Ġpract ice
Ġrenew ed
Ġenthus iastic
Ġobst acle
satis fied
bu ild
Ġcert ainty
Ġhig her
ys s
Ġdwell ing
Ġsus pected
Ġproc ured
grand father
dif fic
Ġfier y
Ġpear ls
Ġtemp est
perfect ly
Imp ossible
ĠGeno ese
Ġfrag ments
fif ty
Ġhosp itality
Ġfreed om
Ġtraver sed
Ġtow er
Ġmarch ioness
Te resa
Ġstag gered
Ġextrem ity
Åĵ u
ĠLucc a
oubted ly
ĠChar les
anth rop
ĠBorg ia
ĠSund ay
Jacqu es
oxy sm
Ġnephe w
compre hensible
. âĢĶ
4 5
4 9
7 5
A ntin
C on
C om
C ocles
E h
F erra
H er
H elp
L U
R E
S carcely
S top
W ould
Z acc
b um
b ors
c orn
c ourse
d ef
d oubt
e le
e lect
f ing
f ur
i asm
l ost
m onte
m ove
m aking
m atter
n arr
p han
s light
s ail
s uddenly
t le
t al
t imes
t rue
w w
w ant
w ish
w ished
w omen
Ã ł
Ġ outer
Ġt ur
Ġt art
Ġt ax
Ġt asted
Ġa im
in ent
in co
in tell
re al
re ceive
Ġs orr
Ġo h
er ation
er ves
Ġm aterial
Ġb ill
Ġb un
Ġb ull
Ġb ooks
Ġb attle
Ġf led
Ġc ard
Ġc ook
Ġc asket
Ġto ilet
an im
Ġd il
Ġd ate
Ġd amp
Ġd agger
ar ran
Ġh y
Ġh ol
es lay
Ġp ir
Ġp ains
Ġp owers
as hing
as hes
at ist
at tempt
Ġl ake
Ġl aughter
om ed
id able
se ven
ic he
ic ide
le ast
Ġe p
st if
st retched
Ġbe ating
Ġbe wildered
Ġg ranite
Ġth irst
ut or
ĠM ondego
al f
ir g
ir ation
ur s
Ġat e
Ġde ceive
Ġan teroom
ĠC ape
am es
li ps
li berty
pe l
pe ople
ch ool
Ġdo se
Ġst ates
Ġst omach
ant astic
Ġex hib
res hold
ran ch
il bury
Ġcon stru
qu ar
all ing
th ird
th irty
ac he
ac les
Ġman age
ĠV en
ul es
Ġv io
Ġcount ries
ust er
em pt
em otion
ĠB artolomeo
Ġsh one
un ning
Ġno d
ĠH oly
Ġam using
um ents
ass ion
ĠS h
ĠS alv
Ġar med
Ġpro gress
Ġle vel
Ġj ump
Ġr ushing
Ġab yss
me nd
Ġag ents
Ġun just
Ġun limited
Ġun willing
Ġret ain
Ġret ract
erf ect
ĠT oul
lo d
Ġdis like
Ġdis cern
Ġdis char
Ġqu een
Ġsp r
Ġsp ade
ign s
ĠL isten
Ġsm ell
od ay
ĠW as
ĠG ard
Ġgr ating
Ġdes ert
co ld
per mit
Ġpl ants
ness ed
ĠR om
Ġcl enched
be ar
pl ed
Ġres idence
Ġres erved
Ġres ources
Ġcar ved
Ġwor king
Ġthink s
Ġass ent
Ġimp ress
iz ier
ple nd
Ġsc ru
Ġsec urity
Ġapp lic
ix ed
br illiant
con c
Ġwhere ver
Ġgl it
Ġgl ided
Ġste am
Ġhapp ily
Ġgu ides
Ġcr ush
Ġaff irm
fort h
sel s
vid ing
Ġdra g
Ġdra ft
Ġtre acher
Ġbelie ving
Ġple asant
Ġtr am
Ġtr ousers
Ġconf usion
Ġconf irm
Ġref usal
Ġind isc
Ġind ifferent
Ġfeel s
Ġmon arch
ens es
Ġact ually
Ġdi vided
Ġint im
Ġem otions
ho pe
ene vol
Ġrequ ires
Ġdep osited
Ġfl ower
no on
Ġsim plicity
Ġappro bation
Ġopp ose
Ġsum mer
uri osity
Ġdec ision
Ġchar med
Ġrel ating
Ġsat in
Ġcomp ared
Ġadm ire
Ġobser ving
Ġ2 00
Ġmo ist
Ġcontr ad
Ġlad der
pris e
ĠEngl and
epp o
Ġcomple ted
cont r
Ġred oubled
Ġaccount s
ĠCar los
pr otect
Ġ5 00
Ġeffect s
On ly
Ġcry ing
Ġfin ally
Ġru ins
Ġsubject s
Ġdream ed
Ġstri ving
Ġshud dering
Ġpoison er
Ġlaw y
Ġawait s
des ired
Ġemb race
Ġimag ined
ĠOn ly
pres ident
Ġboat s
Ġobli g
ĠAl as
Ġrequest ed
Ġreal ize
Ġdisp osition
Ġmount ains
Ġtem per
Ġfirm ly
chan ge
Ġreport s
St ay
Ġcompl aint
Ġprotect ion
mar ried
Ġobtain ing
Ġadmir ably
poss essed
Ġpow der
Ġyield ing
Ġfig ures
Ġincl ination
Ġsol itary
Ġrid iculous
Ġexpress ly
sing ular
bb ing
Pro ject
Pro vidence
Ġproceed ing
Ġleag ue
conf ess
Ġgen ius
Ġvictim s
Ġstat ement
Ġstat ues
che stra
Ġere ct
Ġauthor ities
Ġinha bit
Every one
hour s
oup Ã©
Ġlim bs
Ġpati ently
Ġneg lig
Ġimper ceptible
compan ion
Ġwood en
Ġcreat ures
Ġinno cence
Ġwithd raw
Ġresemb led
Ġdeli vered
Ġroyal ist
sub ject
Ġphilosop h
Ġcou ch
Ġpreced ed
Ġpreced ing
Ġundert ake
Ġestabl ishment
Ġpenetr ated
Ġbird s
Ġconver se
Ġmanif est
Ġcorrespond ent
ĠCon stantinople
Ġarrange ments
complete ly
Ġpersu ade
occup ied
Ġreck on
Ġsust ained
Ġfee ble
Un fortunately
del monte
Ġrig id
inet een
Ġnois y
Ġillum ined
Ġing en
Ġornam ented
Ġliqu id
Ġtap est
abs ence
Ġeste em
Ġforbid den
accompan ied
Ġfund s
lev ard
Ġgard ener
ĠAlexand er
Ġinstruct ions
Ġdelir ium
Ġembra ced
Ġcush ions
Ġnur se
tremb ling
Ġencir cled
mem ory
Ġbiscu it
Engl ish
gentle man
Ġpris ons
Ġtroubles ome
Ferra jo
Zacc one
intell ig
Ġsorr ows
0 7
7 9
A gain
B ravo
C ucumetto
H alf
I S
I T
M ar
O LU
Q u
R em
S uch
S ince
S ignor
S elim
b all
b ac
b el
b age
c ine
c ost
c alm
c ourage
d em
d iv
f y
f ire
f avor
f requently
g ener
g otten
g reen
h ili
h igh
i ent
k ers
l augh
m od
m otion
n ature
o be
p or
p ois
p ossible
r s
r al
r us
r ina
r na
s ir
s ac
v a
v ity
w oman
z y
á ½
Ġ Zaccone
Ġt ast
Ġt aught
Ġt ilbury
in ement
in ari
re ci
re ceived
re pro
Ġw ise
is count
Ġm ild
Ġm oust
it ive
it ious
or my
Ġb ay
Ġb urn
Ġb ag
Ġb athed
Ġb enevol
Ġf lock
Ġc art
Ġc ases
Ġto ols
an ter
an ger
Ġd ined
Ġd iction
Ġd uties
ar ound
Ġh ue
Ġh unt
Ġp ond
Ġp ause
Ġp icked
Ġn ations
Ġl ist
ot est
ve ls
se par
Ġre n
Ġre vived
le an
le arned
Ġe ighteen
st ud
Ġbe ast
Ġbe que
Ġbe half
Ġg ame
Ġg igantic
Ġth ither
Ġth reshold
ĠM ont
Ġas pect
et ta
Ġde ck
Ġde pended
and ed
Ġse arched
li age
ĠA c
Ġst ormy
ort a
Ġso bs
Ġso vere
il es
il osop
Ġcon vent
qu er
qu es
qu iet
Ġsu gg
Ġsu spect
Ġk itchen
ous in
ac able
Ġor chestra
Ġall e
Ġall ude
ĠV asiliki
ĠV iscount
ert ure
os a
ul sion
Ġv amp
ist ic
est s
ĠB ab
ĠB eppo
Ġal bum
Ġkn ock
Ġne arest
ĠH aving
Ġshe l
ig ation
ass ass
ĠS ince
ĠS my
ĠS ometimes
Ġpro verb
Ġr ou
Ġr ate
Ġr ough
Ġhand ed
Ġgo at
ĠE astern
ru ction
ru cine
Ġun ion
Ġret ained
Ġret reated
ĠT uileries
de ar
lo cked
Ġthan ked
Ġdis appoint
Ġsome where
Ġcont ain
Ġcont act
ĠL ond
Ġey el
Ġpo verty
Ġfather s
Ġgr ass
Ġdes ires
Ġpre y
Ġpre tend
Ġent ertained
Ġpl anted
ĠR uth
ĠR Ã©serve
Ġover take
Ġcl ung
Ġcl ump
Ġres ignation
Ġch in
for gotten
Ġper pet
Ġser pent
ud es
Ġbl ows
Ġra ces
Ġimp ulse
Ġmar ks
Ġatt itude
Ġapp l
Ġapp etite
Ġbo ast
so ld
Ġname ly
Ġpart ed
Ġste ad
Ġexce ed
Ġread iness
ex pl
ex cuse
Ġhapp ens
Ġgu ided
ĠO ur
Ġmen acing
Ġsuff erer
Ġsupp lic
Ġtr ademark
Ġrest ing
Ġdoubt ed
Ġref r
Ġref resh
Ġspeak s
ult ure
sh ot
Ġins ist
Ġins erted
room s
Ġdep rive
Ġvisit s
Ġsub stit
ear th
Ġsur pass
Ġform ing
pro of
pro cureur
no ble
ĠIn stead
pre vent
ib ou
sp o
gu es
cess ion
Ġinf ant
Ġsail s
Ġsle e
Ġeas ier
Ġdel ayed
ople xy
go ld
Ġrel ation
Ġgra pes
orm andy
Ġsw am
Ġdet ain
Ġobser v
Ġobser vation
Ġ2 1
Ġband age
Ġpar oxysm
Ġhar sh
Ġel bow
Ġbest ow
Ġdesp atch
Ġce iling
ific ation
Ġfact s
Is land
Ġrec ital
Ġcast le
fo lio
mon ths
Ġpray ing
Ġdest iny
Ġneed ed
Ġpost script
Ġtravell ers
On ce
sm iling
ĠCors inari
ob ject
ob tain
ob served
ĠJu ly
Al though
Ġbur y
Ġbur den
Ġcol ors
Ġhop ing
Ġlow ered
Ġpun ished
Ġeight y
Ġbetr ay
Ġjud ges
Ġcommand ed
fer red
ĠAl b
Ġnum erous
any thing
apart ments
every one
hel p
acc ur
acc ord
ĠGree ce
after wards
bit ious
how ever
Ġmount ain
Ġsad ly
Ġpal er
!âĢĻ âĢĿ
Ġshad ows
Ġserious ly
Ġsend s
Ġri ver
Ġri bb
Ġspect re
Ġsorrow ful
ĠPal ace
Ġprotect ed
Ġassured ly
Ġmillion aire
min ister
Ġcharact ers
gi ving
pers ons
Ġbitter ly
Ġsearch ing
Ġwhis per
ĠAr gent
Ġdifficult ies
Ġanim ation
Ġenjoy ed
Ġaccompl ish
Ġdeterm ination
azz o
Ġton es
Ġprefer red
Ã´ ne
Ġ7 00
Ġattend ants
rend ered
Ġpati ence
Ġshru gged
af Ã©
Ġsmuggl er
Ġresemb ling
Ġdeli ver
Ġbutt on
Ġbutt ons
Ġconn ection
Ġgrace ful
Ġgrace fully
adv anced
uss Ã©e
Ġprepar ations
Ġthreat ened
Ġtort ures
Ġmeant ime
Ġappoint ment
Ġphilosop hy
ĠQ u
inqu ir
asc al
Ġgar b
Ġconcl usion
hens ions
Ġcou ple
Ġannounce ment
Ġbou doir
Ġcommit tee
Ġconvuls ive
Ġestabl ished
Ġfool ish
Ġtrif le
Ġpursu ing
Ġpet ition
opp osite
Ġmix ed
Ġmix ture
Ġcal ash
Ġdish onor
Ġenthus iasm
cap ital
det erm
Ġhig hest
fa ith
Ġlod ge
beg an
Ġinvol untarily
wait ing
enet ian
Ġcig ar
Ġcig ars
Ġda ily
Ġjealous y
Ġinsp ired
draw ing
Ġban ks
resist ible
Ġmaint ain
Ġdazz led
Ġetern al
Ġsubst ance
Ġbrigand s
Ġmil itary
rat eful
Ġrelig ious
Ġcapr ices
Ġinfam ous
cour t
Ġseam an
ĠArch ive
Ġwis dom
Ġparent s
Ġung rateful
acom bs
ĠPet er
Ġenerget ic
Ġhaught y
istr ates
exec ution
fric a
Ġmeas ured
Ġmyst ery
emp lo
Ġrepugn ance
ele ine
Ġbun ch
ĠSalv ieux
Ġingen ious
OLU ME
bac co
motion less
ĠSmy rna
ĠRuth ven
ĠArgent ina
3 5
3 9
5 3
7 7
C T
E N
F o
F lore
G eneral
G ermain
H Ã©
M e
M ore
N ap
P oss
R ue
S ilence
T omorrow
V ampa
_ ?âĢĿ
_ âĢĶ
a his
a illes
b al
b ra
b us
b ons
c ra
c uriosity
c oupÃ©
d ro
d ied
d ark
d ouble
e v
e vent
f ac
f urn
f ig
f ree
f ull
f illed
f ield
g ard
g utenberg
h ip
i pe
i Ã¨re
k ish
l it
l ance
l arge
m mediately
m ission
m osp
n or
n es
o x
o pe
o ble
p ret
p ressed
p ardon
r un
r ink
s y
s itu
s cure
s lave
t aking
t urning
u ity
v or
v as
v ices
w ishes
Ġ ident
Ġt ig
Ġa lighted
Ġa venue
Ġa rise
Ġa chie
in st
in ate
Ġw aking
Ġw aving
Ġs ou
Ġs om
Ġs oup
ha ir
ha med
is tered
er man
Ġm ut
en es
on ies
on ial
it an
it ors
or a
Ġb ac
Ġb ars
Ġb ree
Ġb ranch
Ġf ishing
Ġf rank
Ġf urious
Ġc hat
Ġc ousin
ar ition
ar ches
ar rived
Ġp ant
Ġp rel
Ġp aced
Ġin comprehensible
at he
at re
at hered
Ġn ay
Ġl it
Ġl ing
Ġl ately
ĠI ndeed
se ct
Ġre ven
Ġre la
Ġre cess
Ġre appeared
Ġre vive
le ad
Ġe con
st em
ent h
ent rance
ow ry
Ġsa nd
Ġg n
ce nd
Ġth read
ĠM an
ĠM ess
ĠM arch
ĠM any
Ġwas te
Ġas hamed
Ġu g
Ġat mosp
ct ors
Ġde arest
her self
her ry
to ld
ĠC armela
ĠC afÃ©
am s
and rÃ©
Ġse lect
Ġse lected
âĢĶ _
if ully
ĠA pri
ĠA delmonte
Ġst ayed
Ġst ables
ra p
ra ised
ra pid
Ġso fa
il ty
Ġcon stit
Ġcon grat
qu ite
Ġk ings
ĠD u
ĠD es
ĠD ep
th us
ac compl
Ġman sion
Ġman kind
Ġor phan
ĠV enetian
ĠThe ir
Ġli ked
Ġv ow
Ġv ivid
em peror
est rina
ast ian
Ġsh ield
un less
ap se
ind ifference
ig li
ven ience
Ġam used
Ġam iable
el come
Ġrep lace
ĠS ic
ĠS uddenly
ĠP e
ĠP res
ĠP lace
Ġup right
Ġar oused
Ġpro ving
Ġpro vis
Ġpro sper
Ġr ain
Ġr ust
Ġr att
la id
Ġag ed
ag ues
ag na
Ġsha res
Ġun com
Ġun heard
Ġany where
Ġany body
de light
Ġdis s
Ġdis grace
Ġdis inher
Ġinto xic
ĠL ook
ĠL icense
Ġout ward
Ġgr own
ave ment
Ġap erture
Ġen able
Ġen closure
ab bÃ©
ĠR h
ĠR oy
op ing
op ening
Ġover heard
Ġcl ut
Ġpass es
be hind
Ġres c
Ġres ource
for get
ne igh
Ġcar ries
Ġimp rud
ili al
Ġsc attered
Ġatt ain
Ġatt ired
con n
con sequ
Ġste el
ĠN ormandy
Ġcons ist
ex pect
Ġgu lf
Ġgu ards
Ġsign als
Ġbeg ins
Ġpa ce
Ġexp ressing
Ġthrough out
rest ed
ug ust
Ġinte nding
cl othes
Ġson orous
ĠO f
Ġexcell encies
ick en
Ġple ases
Ġwat ers
Ġlo b
Ġlo c
Ġchild hood
Ġtr ade
Ġconf ession
Ġconf idential
ract ion
Ġdoubt s
Ġopen s
ebr ows
Ġind is
Ġind uced
Do ctor
Ġarri ves
ec ch
Ġact ivity
Ġins ens
Ġins cribed
Ġinter val
Ġfl attered
Ġsub mit
Ġnew spap
Ġform alities
pro f
pro p
Ġla wn
Ġsent ry
Ġsent iments
pre ced
pre vious
pre pared
ib oul
Ġpoint s
Ġinf lexible
Ġbank ers
Ġche ek
rem ember
Ġdec anter
medi ate
Ġrel ations
Ġreason ing
Ġreason able
Ġpay able
Ġve get
Ġcomp assion
Ġadm ired
?âĢĻ âĢĿ
Ġcontr ast
Ġforg iven
dis p
ĠTh ose
Ġjoy ous
Ġjoy fully
cont ent
cont ract
Ġglo om
Ġconv ince
Ġpocket s
Ġswe at
Ġtran sm
Ġstep mother
Ġte a
Ġdest ruction
Ġtravell ed
Ġport manteau
Ġport folio
Ġdr own
ob li
Ġmid night
Ġconsider ation
Ġbro ad
Ġfin ishing
Ġsal uted
Ġru de
Ġcol ored
Ġkill ing
Ġlead s
Ġcorn ers
Ġchair s
Ġsy stem
Ġexpect ation
Ġbetr othal
Ġfair ly
pres ence
some one
Ġhuman ity
Ġobli ge
occ asion
Ġnoble man
Ġ4 8
Ġequ ip
Ġmer ited
Ġdisp ute
off ered
bl ue
Ġfirm ness
Ġattempt ed
Ex cell
Ġcre aked
Ġrend ers
Ġemp ire
Ġoccasion ed
Ġoccasion ally
Ġthick ly
Ġthick et
Ġreport ed
ĠPal azzo
Ġcompl iments
Ġgener osity
Ġdef ect
foll owing
exp ress
Ġincre asing
ĠAn other
Ġfortun ately
Ġcab in
Ġincl uding
Ġkey s
Ġpath s
see ing
Ġfat ality
Ġempt ied
Ġcollect ion
eb astian
vi ary
Ġignor ance
Ġanim als
Ġconsequ ences
Ġcra ck
Ġcross ing
Ġwarn ed
Ġgrotto s
Ġaccompl ice
Ġneighbor hood
inc re
Ġpier ced
Ġattend ant
Ġneg lected
Ġappre hensions
Ġgroan ed
Ġ9 00
Ġfulf illed
char ming
Ġchest nut
Ġparaly zed
reg ard
Ġsuperior ity
Ġcriminal s
Ġmat ernal
Ġphilosop her
Ġmot ives
add ed
Ġassemb led
interest ed
Ġric hest
Ġdesign ated
exc laimed
supp ose
Ġscrutin izing
Ġtrem ulous
prom ise
prison er
Ġexerc ised
pur cha
Ġtim idly
Ġdign ified
Ġlie utenant
Ġciv ili
ĠMal ta
prec isely
satis faction
Ġcontempl ated
Ġdecl aration
ĠTur kish
Ġconsol ation
direct ion
Ġreck oned
Ġda wn
arri val
Ġdisgu ise
Ġprompt ly
Ġeloqu ent
Ġeloqu ence
mad ame
wind ow
Ġsink ing
Ġfisher man
Ġaccur sed
bur st
Ġta vern
Ġwid ow
Ġmor al
Ġcardinal s
ĠMed iterranean
Ġweap ons
Ġshout ed
ĠTuscan y
Ġimprison ed
fold ed
Ġcree k
Ġpaint ed
Ġprospect s
ende avor
Ġimpl acable
Ġspec im
govern ment
Ġdiscus sion
Ġencoun tered
tran s
Ã©r ard
ĠLi ke
Ġoffend ed
Ġexcess ive
Ġassoci ated
Ġvex ed
Ġpunctual ity
Ġrespons ible
depart ure
ĠOri ental
Ġproport ion
cur tain
pul ch
velo ped
Ġorg an
betr othed
Ġiss ued
Ġmechan ically
Ġenchant ed
Ġinstr ument
Ġartic les
Ġrevel ation
Ġvigil ance
Åĵu vre
fur ther
Ġtart an
Ġpir ates
Ġvio lets
ĠToul on
ĠRom aic
hili p
Ġdiction ary
Ġexceed ingly
Poss ibly
Ġbree ze
Ġrela x
Ġatmosp here
ĠApri l
iboul en
* *
1 3
2 1
3 3
5 5
6 5
6 9
8 3
A R
B eau
B ring
C ors
E R
E lba
F our
F ive
F ortunately
I V
M other
N D
N onsense
S E
S p
T oday
b ell
b un
b ted
c re
c ity
c up
c aused
c alcul
c alled
d in
d ened
d rew
e at
e ach
f le
f red
f lo
f are
f aint
g one
g ment
g irl
g az
i ation
i est
i av
i ka
j ail
k in
k ill
k illed
k new
l en
l ers
l ons
m ine
m ons
m aid
m arshal
n et
n ine
o ps
p ity
p ict
p ardieu
r d
r it
s ight
s aying
t or
t ar
t ill
t ri
t ese
u ing
u le
v ann
w al
w ond
w ife
w ater
y ons
y ield
z vous
Ã §
Ġ âĢĻ
Ġ ess
Ġt y
Ġt our
Ġa ided
Ġa venge
in tended
re pe
re com
re new
Ġw ages
Ġw icket
Ġs cience
Ġs laves
Ġo range
er ity
Ġm ould
Ġm ach
en em
en ough
on ful
on ia
or ary
Ġf ed
Ġf ile
Ġf ired
Ġf ug
Ġf ield
Ġf ury
Ġf erv
Ġf antastic
Ġf ilial
Ġc ared
Ġc aves
Ġc unning
Ġto bacco
ll i
ll o
ll ar
ll ation
ll enge
an ese
Ġd ance
Ġd oubled
Ġh ill
es y
Ġp ill
Ġp av
Ġp uzz
Ġhe ated
Ġin ner
Ġin sect
at tend
Ġn ab
Ġn ails
Ġl ion
Ġl ots
om er
om te
id el
se a
se nd
se ated
ic ing
ic ity
ic omte
Ġre nt
Ġe h
st ers
st aircase
ent ertain
ent ial
ent ertained
Ġbe ver
Ġwh im
Ġsa uce
Ġg ather
Ġg la
ce ased
ce nding
ce lain
ad r
ill a
ĠM ore
ĠM eslay
al ty
Ġas yl
ri fice
ver ance
et ti
Ġde fe
Ġan ti
ĠC o
ĠC ertainly
Ġse es
Ġse ason
Ġse pulch
li es
li ance
if ying
ch osen
ĠA venue
ĠA frica
Ġdo gs
Ġdo ctors
Ġst ab
Ġst retch
ra cc
Ġcon j
Ġsu spe
Ġsu icide
Ġher s
ef fort
ef ully
Ġk id
ĠD en
ĠD andrÃ©
th rew
ard in
ble u
ris ed
Ġman ners
os i
os er
ul ating
Ġli very
Ġv ac
Ġv ine
ĠB ois
ĠB racc
Ġsh ri
un is
un known
un nel
Ġwhe els
ĠF our
ĠF ather
ap it
ap or
ĠH ait
Ġshe ets
Ġam bitious
um m
ass ist
ĠS e
ĠS hall
ĠS peak
ĠS upp
ĠS ebastian
ĠP l
ĠP orta
Ġar r
Ġar sen
Ġpro ves
Ġpro long
Ġle nd
Ġle ver
Ġj ars
Ġj ug
Ġj acket
Ġab und
Ġab road
ck ing
rel s
ence ment
Ġro ll
Ġro oted
ĠE pir
Ġsha pe
Ġun like
Ġun cle
Ġun worthy
Ġun necessary
erf ully
Ġcan non
Ġim plic
lo Ã¯
Ġdis hes
Ġqu ay
Ġloo se
ide a
ci ety
ĠL yons
ĠW ould
ĠG ir
ĠG ive
ĠG Ã©rard
Ġap olog
wh ite
oss ibility
Ġpl u
Ġbr own
Ġbr ains
ĠR osp
ĠR uss
Ġover pow
not ary
Ġfo liage
cha ract
ber ries
Ġres ume
Ġch ibou
Ġper ish
ack now
ne ed
Ġcar pet
Ġafter noon
Ġexc laim
Ġappe llation
Ġmoment arily
Ġthr ice
Ġass uming
Ġob scure
Ġold est
ple ase
It alian
ves sel
Ġsc and
Ġatt ained
con y
con tain
Ġgl istened
so ciety
Ġho ly
fe w
fe el
ex ha
Ġsto ol
Ġsto oped
Ġsto len
int ention
Ġpa ved
Ġcomm enced
Ġdist r
Ġple ad
Ġple asing
Ġreco ver
Ġfind s
arn ished
Ġke en
Ġlo vers
Ġperson ally
Ġsuff oc
Ġconf ided
Ġsil ken
Ġref und
ĠCh Ã¢
Ġspeak er
Ġind ef
Ġperf ume
Ġperf umes
Ġinde bted
io vann
sh ort
Ġact ors
Ġact ual
Ġdi ver
Ġins ide
Ġinter ior
Ġdep th
Ġdep osit
Ġdep icted
Ġfl ood
Ġfl ung
ear ly
Ġchan ces
Ġform al
pro ject
Ġgrand child
Ġappro ve
cept ibly
Ġran ks
Ġext inct
Ġext ric
Ġcond itions
gu ard
gu ilty
Ġhast y
Ġdraw ers
vell ed
Ġopp osed
rem ain
Ġsle nder
Ġprop he
Ġprop osition
Ġnat ive
Ġsound s
Ġill ness
Ġtable ts
Ġpri ze
Ġinc hes
Ġcomp osure
Ġdu els
Ġdet ailed
Ġmurm ur
Ġhar mon
Ġsing ing
Ġaston ishing
Ġacqu ire
dis co
Ġprof its
po et
ific ate
Ġaffect ing
Ġir resistible
Ġrecogn izing
cont rol
Ġsk et
Ġhold s
kn ife
Ġrec ent
Ġhel pless
app arent
mon t
Ġstrange ly
We re
pr oud
pr inci
Ġneed s
Ġpost ed
att ack
Ġcold ness
Ġrespect ful
ob b
Ġ3 4
Ġlow ering
Ġexist s
Ġdread fully
imp ression
aff air
aff airs
aff ection
des p
des cended
ony m
Ġsy rup
ming led
ĠSp ahis
Ġjail ers
oni ard
Ġaccord ance
Ġstrong er
Ġstrong ly
Ġcommand s
Ġconduct ing
occ urred
Ġsort s
Ġjew el
gg ard
Ġ4 5
ĠU pon
Ġplan ks
Ġbad ly
Ġintrodu cing
should ers
Ġbar gain
Ġfright en
Ġfright ened
bl est
than ks
Ġeager ness
cien ces
law s
iet h
Ġbott les
Ġpal eness
Ġgrave l
Ġri ve
Wh om
Ġball s
Ġball et
Ġsorrow fully
ĠPal estrina
ĠPal ika
Ġhid ing
Ġdef ence
Ġamount ed
Ġsigh s
poss ibly
Ġcop ies
pap er
Ġvain ly
rep ly
Ġincl uded
stru ct
Th us
Th ree
Th ousand
ĠBon aparte
Ġfaith fully
Ġregret ted
Ġden ounce
Ġhon ored
Ġrender ing
Ġsmo king
Ġsmo oth
Will ingly
Ġentreat ies
Ġsuccess ful
Pro bably
Ġmass es
ĠSpan i
Ġindic ate
Ġwarn ing
conf idence
Ġphil anthrop
ĠParisian s
inc erity
Ġloud ly
Ġsty led
Ġsword s
Ġtender ly
fl owers
might y
Ġvent ured
Ġproud ly
Ġimpati ent
Ġ181 4
Ġpier ce
Ġdeal er
Ġstu ff
Ġsolemn ity
Ġmess age
Ġshru bs
Ġblind s
Ġfru its
Ġbutt oned
adv ice
Ġinstinct ive
Ġinstinct ively
put ting
Ġtear ing
Ġadvent ures
Ġgun s
quet te
inqu ired
Ġeleg ance
rÃ© port
Ġmas ks
Ġnarr ative
utter ing
Ġdepend s
ĠBe lieve
ĠEvery one
ĠEvery thing
Ġtranqu il
Ġfatig ued
hum or
mag istrate
Ġscrutin y
mind ed
prison ers
Ġsn atch
Ġsli pped
Ġrob bed
Ġpursu it
acquaint ed
Ab bÃ©
sim ilar
Ġtim id
Ġtreat ment
Ġfly ing
Ġpress ure
point ed
Ġstiff ened
pow erful
Ġbol t
Ġdish onored
ĠMal tese
Ġrub bed
Ġhab its
beg in
ext raordinary
Ġcarbine ers
cor respond
dev oted
Ġdisgu ised
got ist
sus pic
Ġcord ial
Ġselfish ness
rim ony
Ġwo e
Ġcoun sel
Ġstruggl ing
Ġtempt ed
Ġluck y
Cha mps
itating ly
ĠInd ia
Ġweap on
Ġard ent
near ly
Car lini
evid ent
evid ently
Ġrese arches
aston ishment
rup ulous
Ġconsult ed
Ġprivile ge
creat ures
Ġpour ing
ĠeB ook
Ġvirt ue
care fully
fin ished
anx iety
Ġreass ured
illot ine
Ġunivers al
Ġrail way
Ġextingu ished
Ġfest ival
Ġcav al
Ġphant om
assemb ly
ĠCl ub
Ġadvers ary
ĠRo bert
Ġexped ition
Ġsubter ranean
Ġparad ise
Ġembarr assed
polit eness
Ġcatastrop he
Ġgle am
Ġsevent een
Ġaltern ately
foot steps
Ġgalley s
Ġelev ated
sail ors
ĠVen ice
Ġnod ded
ĠSh ould
Ġjump ed
Ġscru ples
Ġaffirm ative
Ġinhabit ants
Ġreckon ing
English man
Ġmoust ache
ĠAc adem
Ġvamp ire
emplo yed
Fo llow
Ġsom bre
Ġug ly
igli osi
ĠRh Ã´ne
Ġnab ob
idel ity
Ġsauce pan
Ġasyl um
Ġsuspe nded
ĠBracc iano
ĠEpir us
loÃ¯ se
ĠRosp igliosi
iovann i
ĠPalika res
0 9
1 2
2 2
4 3
4 7
5 1
8 5
A pp
B aron
C Ã¦sar
E S
E d
H app
H old
I mmediately
L ouis
P r
R A
S ure
T ruly
U T
U nd
V OLUME
W oman
Y anina
b en
b ound
b ottle
c est
c ular
c ustom
d ra
d ish
d read
e ase
e arn
f it
f ted
f ashion
f Ãª
f ixed
g re
g est
g room
g entlemen
h ore
h ist
h orse
i as
i os
i ress
j ac
k ward
l amp
l oud
l ted
m at
m al
m amma
n ched
o id
o ber
p ular
r ough
r ounded
r itated
s ort
s il
s ake
s orrow
s ilence
s plend
t omorrow
u pt
u fact
w ed
w elt
w enty
w atched
x ir
y ard
z ing
Ġ čĊ
Ġ rom
Ġ ze
Ġt ed
Ġt read
Ġt ip
Ġt unnel
he arted
Ġa light
Ġa vailed
in u
in ous
in no
in formed
in formation
Ġthe me
re ck
re nder
re semb
Ġw et
Ġw ww
Ġs ed
Ġs inister
Ġs herry
Ġo x
Ġo ars
ha et
Ġm art
Ġm orrow
Ġm ental
on ious
it ly
it ical
or te
Ġb ig
Ġb ath
Ġb aker
Ġf em
Ġf el
Ġf ab
Ġf les
Ġf arm
Ġf avored
Ġc her
Ġc oo
Ġc his
Ġc od
Ġc ards
Ġc ement
ll able
an imate
Ġd owry
ar c
ar range
Ġh ind
es pecially
Ġp ious
Ġp ens
Ġp ub
Ġp ins
Ġp ages
Ġp acing
Ġp ushing
Ġp ulse
Ġp avement
Ġp haet
as ions
as ks
Ġha ggard
at acombs
Ġn ort
Ġn ice
Ġn av
Ġn onsense
Ġl ent
Ġl ust
Ġl ance
Ġl av
om p
om in
id d
id ings
se veral
se verance
ic y
ic ious
ic ial
Ġre lief
Ġre volution
Ġre lieved
Ġre duced
Ġe ag
st al
st ay
st ation
st art
Ġbe ha
Ġbe ars
Ġbe nding
ow al
Ġsa v
Ġsa le
Ġg ong
Ġg ilt
Ġg host
Ġg athered
ce rem
Ġth ief
ad iant
ill y
ith rid
ith met
ĠM r
ĠM ur
ĠM ake
ĠM aster
Ġnot icing
Ġas hes
ri gues
ver se
ro bor
Ġme al
ur ry
ur bed
Ġat tended
ct urn
ct ober
Ġmy r
Ġde ign
Ġde emed
Ġde mean
Ġan t
Ġan cest
ĠC ons
am b
am ong
am ps
and s
Ġse al
Ġse ver
Ġse ize
Ġwe pt
li ano
li xir
ch o
ĠA ugust
Ġst ars
ra ble
ra ved
Ġex pend
il ions
il fully
Ġcon sole
qu ed
qu itted
Ġsu p
Ġsu ited
all e
all ey
ĠD au
ĠD ays
ĠD ante
Ġwill s
ac ci
Ġman ufact
out hern
Ġall usion
ĠV I
ĠV irg
os ion
Ġv ases
one l
ers ed
ĠB et
ĠB elle
Ġal tar
Ġsh ips
un te
un ci
un fortun
ap es
Ġno se
Ġno cturn
ak s
ind ul
art ic
ate red
el ed
ond in
Ã¨ res
ass ad
ĠS outh
ĠS carcely
ĠP oor
Ġpro ble
Ġpro vo
Ġr ascal
ol acci
Ġfe igned
ag ing
Ġad ore
Ġad orable
ĠE l
Ġsha ken
ru ined
Ġthere by
Ġun moved
ĠT ran
ĠT han
ĠT iboulen
Ġcan al
Ġim mediate
lo gne
Ġdis order
Ġdis closure
Ġqu ality
Ġsp ared
ign ing
Ġcont ribut
Ġcont rive
Ġcont rol
Ġpo pular
itt i
ĠG ermain
ĠG aspard
ĠMad eleine
Ġap oplexy
av ail
Ġdes cent
co pe
co llect
per y
Ġen veloped
Ġbr ows
ab ove
ier re
Ġacc use
Ġcl inging
Ġpass ions
pl ayed
pl aces
Ġres erve
for ce
for ward
Ġper v
Ġper il
Ġper severance
ne ither
ne xt
Ġcar p
Ġoff ers
Ġhouse hold
aint s
Ġexc l
Ġexc av
Ġexc iting
Ġexc uses
Ġbl ushed
Ġbl ush
Ġass izes
Ġseem ing
Ġra b
Ġtell s
Ġpers ist
Ġimp osed
Ġimp ressed
Ġimp ossibility
ili ght
Ġsc ore
Ġsc heme
Ġsc enes
Ġco quet
He aven
with in
Ġapp rised
Ġgl iding
so ever
une x
Ġste ady
ĠN ort
aris on
ex ist
Ġsign ing
Ġcontin ual
com prehe
Ġexp osed
Ġexp ense
Ġexp iration
rest r
Ġfound ation
vent ion
ug ia
Ġinte llect
fort able
cl ose
cl uded
ĠO ctober
Ġlight ing
Ġdist ress
Ġdist rust
ick ering
here nt
omet hing
Ġter ri
Ġlo an
Ġlo yal
Ġsuff used
Ġadv ised
Ġtr ick
Ġturn s
Ġconf used
Ġconf inement
Ġnight s
Ġdoubt ful
Ġtra itor
ĠCh ina
Ġprom ising
Ġmon ument
count ed
sh ud
Ġaw ful
Ġact s
my sterious
Ġins ign
oth s
Ġfl ow
Ġfl our
Ġfl aming
Ġsur rendered
Ġfear fully
Ġform idable
pro b
pro found
pro duced
Ġgrand mamma
Ġreg ained
Ġreg iment
Ġesc ort
pre par
Ġstre am
Ġsmall est
sp ite
Ġkind ly
cess antly
Ġpossess ing
Ġinf all
irect ly
Ġsail ed
Ġperfect ion
Ġrepe ating
Ġpol ished
Ġdark er
Ġtal es
Ġtal ks
Ġdec ide
Ġsound ly
Ġchar ity
Ġchar itable
su ing
su per
Ġmag istrates
orm ice
Ġsw orn
Ġmaj estic
Ġcor al
Ġcor rupt
Ġinc ur
Ġcomp arison
Ġdet est
Ġdet ach
Ġdev our
Ġann ouncing
Ġann uity
gr otto
ston es
Ġhar nessed
form er
tw elve
head ed
hand kerchief
Ġless on
Ġdesp ise
Ġdesp atched
happ ily
Ġprof ess
ph ilosop
po cr
ific ial
eng age
cont ained
Ġrec ord
Ġrec ently
app led
Ġoccup ants
Ġpower less
Ġexpl osion
oura ged
Ġsl umber
sm uggl
pass ion
ask ets
Ġsal uting
Ġart s
Ġart ificial
Ġru le
car ry
Ġstri kes
Ġreflect ing
Ġdemand s
Ġdemand ing
ĠCha ussÃ©e
imp ly
Ġpartic ip
Ġbus y
Ġbus hes
des ire
Ġuneas ily
Ġcourt esy
Ġjo ining
Ġcommand er
Ġcommand ing
Ġobject ion
Ġminister s
og liano
ĠAl mighty
Ġsun k
Ġopin ions
Ġisland s
off ice
tre asure
should er
An y
An other
Ġiron ical
Ġtem ples
Ġpal aces
Ġattempt s
Ġattempt ing
Ġhes itate
Ġ18 29
Ġcut ting
Ġgall ant
vis ion
Ġcustom ary
Ġsepar ation
Ġdepart ment
Ġaffection ately
Ġdunge ons
Ġcent ury
Ġvict ory
Ġamount ing
know ledge
Ġbes ought
Ġfault s
For give
unt ary
Ġdri ver
Ġgro ans
rep utation
Ġsol id
cle ar
Ġrid ing
sing le
mill ion
ĠAr les
Ġalarm ing
Ġdisc uss
Ġsuccess ive
eb iÃ¨re
Ġanim ated
yes terday
Ġsho es
Ġsho res
Ġed ge
Ġenjoy ing
Ġyouth ful
che t
moment s
Ġfet ched
emb arr
Ġcho king
Ġ181 1
ann es
umb led
umb ling
Ġdistinct ion
suff icient
Ġdiscover ing
Ġsolemn ly
Ġcup board
ĠWith out
Ġappre hension
Ġguard ian
Ġvol can
sur prise
sur rounded
quest ions
Ġdiv ine
tr uth
Ġfront ier
Ġthreat ening
nam ed
Ġspecul ation
Ġfro ck
Ġgar ments
Ġcler ks
interest ing
Ġcorrid ors
ane ously
Ġhate ful
Ġexha ust
ĠBe hind
Ġdescend ants
mag nificent
ĠRe ally
serv ants
Ġundert one
Ġdocum ent
Ġannoy ed
Ġbal ance
ĠArab ic
Ġtest ator
Ġgay ly
Ġdeed s
Ġconver sed
Ġcomprehe nded
ĠNot hing
opp ortunity
Ġbol ted
Ġbol ts
Ġcal umn
Ġcand or
Ġciv il
Ġinvent ed
Ġrejo ined
Ġdistribut ing
prec aut
Ġcontempl ation
Ġdim in
Ġretreat ing
ĠTur key
Ġresp ite
Ġpersu aded
Ġconsol ed
Ġinsult ed
Ġmurderer s
occup ation
find ing
sk in
sk ins
Ġdig ging
Ġhab itu
mean ing
Ġlux ury
Ġlux uries
dif ferent
pic uous
Ġfier ce
Ġur gent
Ġnois eless
ĠEx cuse
Ġinsp ire
Ġinterrog ate
Ġillum inated
Le ave
Ġid lers
Ġfac ulties
Ġfla vor
Ġpra ise
Ġliqu or
ĠGeno a
Ġindul ge
Ġincred ulous
Ġjournal ist
conduct ed
Ġwo lf
Ġmaint ained
Ġfisher men
Ġamuse ment
Ġimpert inent
conv inced
ĠJust ice
Ġstruggl ed
Ġhang ing
Ġimprison ment
Ġdisdain ful
Ġavail able
Ġbod ies
aston ished
Ġunconscious ly
travell er
travell ing
creat ure
Ġhide ous
ĠeB ooks
Ġcomb at
ĠTH E
Ġenv oy
introdu ced
Ġdiplom atist
Ġappreci ate
Ġappreci ated
Ġmal ady
Ġmult itude
ĠCan ebiÃ¨re
ĠPr inces
Ġpled ge
Ġattribut e
Ġcomprom ising
Ġsacrific ed
bro ken
Ġrele ase
entire ly
Ġflatter ing
Ġforeign er
partic ular
circumst ances
moccolet to
Arab ian
En ough
jour ney
mus ic
Ġoper ation
Ġfasc inated
Ġpull ed
quick ly
Ġclim bed
Ġindepend ence
Ġsurve y
Ġpropri et
ĠProven ce
Ġnumb ered
corn er
elect ronic
fing er
narr ow
inco gn
arran ged
Ġconstru ction
erfect ly
Ġdischar ge
Ġspr ung
Ġapplic ation
Ġtreacher y
Ġindisc reet
contr ary
Ġtapest ry
Rem ember
cost ume
gener ally
Ġtast es
stud y
Ġsovere ign
Ġshel ter
Ġrou te
Ġeyel ids
Ġappl ause
faith ful
bus iness
cra cy
gard e
Ġachie ved
Ġbac hel
Ġprel im
Ġprovis ions
Ġratt ling
Ġuncom mon
Ġloc ated
Ġspecim en
iav olacci
Ġmach ine
Ġabund antly
charact er
Ġdistr ict
onym ous
Ġrive ted
Pr ince
Ġted ious
Ġpub l
Ġphaet on
Ġeag le
ithrid ates
Ġdemean or
unfortun ate
Ġnocturn al
iavolacci o
) .
1 7
2 0
3 0
3 7
5 7
5 9
8 1
8 9
9 7
B oth
C ould
C olosseum
C armela
D ead
F aubourg
G aetano
L ord
L acha
M ake
M ajor
N either
O T
P ut
P astrini
R oman
V ecch
a wn
a fe
b rig
b urning
c am
c and
c if
c ch
c all
c ers
c us
c laim
c oun
c iful
c ross
d ri
d ict
d ressed
d unge
e h
e ap
e ps
e ep
e zvous
f an
f ar
f ow
f ish
f right
f ying
f irm
g en
g ro
g ate
h ome
h op
h oped
i ate
i ated
j ew
l in
l ose
l ength
m ir
m ble
m itted
o cious
o annes
p ha
p able
p ron
p isto
p ublic
p orter
p ale
r ical
s un
s ens
t one
t ish
u ary
u ntil
v ain
v ig
v able
w orn
w retched
x iom
z er
Ġ âĢ
Ġ ice
Ġt ing
Ġt utor
he av
Ġa ut
Ġa ris
Ġa we
Ġa ils
Ġa xiom
in arily
in isc
Ġthe ory
re ne
re cked
Ġw ilful
Ġw atered
Ġs chool
Ġs incerity
ou ch
ou ching
er o
er ated
er ving
Ġm ent
Ġm and
Ġm oss
Ġm arshal
en ances
on ous
it o
it ic
it le
it self
it ect
it iz
or ne
or ace
or celain
Ġb as
Ġb ond
Ġb lo
Ġb und
Ġb ordered
Ġf re
Ġf ought
Ġf itted
Ġf requ
Ġc ro
Ġc am
Ġc li
Ġc au
Ġc el
Ġc ure
Ġc ave
Ġc rest
Ġc ured
Ġc ities
ll owed
Ġd ag
Ġd ru
Ġd ash
Ġd welt
ar o
ar ger
Ġh ired
Ġh ush
Ġh uge
es te
Ġp ine
Ġp ensive
Ġp oniard
Ġp omp
Ġp orcelain
as y
as much
as cended
Ġhe ll
Ġhe ra
Ġhe ars
Ġhe iress
Ġha m
Ġin ef
Ġin ex
Ġin off
at ig
Ġn in
Ġn et
Ġn ap
Ġn aked
Ġn ineteen
ot es
ot onous
id er
id ious
se ur
se ems
ic o
ic ks
ic ited
Ġre ap
Ġre ci
Ġre vol
Ġre view
Ġre conc
le qu
st ate
st ever
Ġbe to
Ġbe lt
Ġwh it
Ġwh ist
Ġwh irl
Ġg ent
Ġg ird
ly ing
Ġth ir
ad s
ad ieu
ĠM on
ĠM id
ĠM il
ĠM are
ĠM ithridates
al o
al ong
al og
Ġas ks
Ġas hore
Ġfor wards
ĠâĢľ âĢĻ
ĠâĢľ âĢĺ
Ġme lod
ur sion
Ġat tending
te ars
te legraph
Ġde uce
ĠC le
ĠC ont
am ount
am ine
Ġse x
Ġse ating
Ġwe igh
Ġwe eds
ter rified
li en
li ked
li va
if ice
if ies
pe culiar
ĠA nt
ĠA pp
ĠA cc
ĠA ustri
Ġst ared
Ġst air
Ġst ick
Ġst agger
ort ing
ra ged
ra ces
ra ising
Ġyour selves
Ġex ert
Ġex terior
res ol
res olute
the st
Ġcon tend
qu ered
Ġsu perf
ĠD uc
ĠD iavolaccio
th y
ell y
ge on
ac cept
Ġman ly
au nt
ĠV ers
ul ity
ul pt
ul sed
ul gar
Ġli p
Ġli kes
Ġv ener
Ġv ault
Ġv izier
ist ry
est ial
ĠB or
ĠB ourse
Ġal pha
Ġkn ot
Ġkn elt
Ġsh ows
Ġsh ining
un happy
un limited
us ions
us hes
Ġno on
art in
art ial
gl o
gl ad
gl ance
ig r
ound s
Ġam ple
ect ions
um inous
Ã¨ gne
ass o
ass ure
ĠP ian
ĠP ardon
ĠP Ã¨re
ĠP hilip
ĠĠĠĠ čĊ
Ġar g
Ġpro viding
Ġpro cession
Ġle ap
Ġle af
Ġj et
Ġr ul
Ġr ide
Ġr ash
Ġab ated
Ġab rupt
ol ent
Ġtw ilight
Ġag es
Ġag onies
Ġro ast
Ġro be
Ġro bb
Ġro ses
Ġgo ats
Ġun certain
Ġun natural
ĠT en
ĠT or
ĠT ries
ĠT unis
ĠT rÃ©port
Ġcan vas
ment ion
lo c
lo ves
Ġdis com
Ġdis appe
Ġdis appro
Ġdis appearance
Ġdis quiet
Ġqu itting
Ġqu adr
of t
ci a
ci p
ci ed
Ġcont rived
ĠL ake
Ġey ebrows
Ġsm elling
Ġday break
Ġout burst
ĠG erman
ĠG iovanni
Ġgr ain
Ġdes ol
we ar
we alth
we ek
man if
Ġen s
Ġen closed
Ġent ry
Ġent reated
Ġpl enty
Ġbr id
ĠR em
ĠR occ
ĠR ogliano
ath y
op in
Ġacc ustom
Ġover spread
Ġcl um
be at
be lieved
not iced
pl ay
ber y
Ġres ide
Ġres ounded
Ġres pon
Ġres uming
for ced
Ġper ished
Ġper used
Ġper ceptible
Ġper chance
Ġmay or
Ġoff ence
Ġbl ade
ret ired
ret ches
Ġass uring
Ġass igned
lie u
Ġimp ose
Ġjust ify
mp h
Ġco llar
Ġthought fully
ged y
Ġapp rise
Ġapp arition
con cierge
Ġgl im
Ġgl orious
Ġpart is
Ġpart ing
Ġpart ner
fe et
Ġvis age
Ġvis ions
ĠN eap
Ġcons cient
Ġcons picuous
ex ception
hes itatingly
ren ces
int s
Ġsign ific
Ġsign ificant
Ġcontin uing
Ġend ing
Ġend owed
com ed
com mit
Ġcr ouched
Ġexp ose
rest ing
vent ure
ug g
fort y
cl am
cl ining
cl enched
ĠO R
ĠO r
Ġansw ers
und ered
Ġdra gging
Ġdra pery
Ġfell ows
Ġtre ason
Ġtre mend
Ġwr ink
Ġter min
ither to
Ġsuff ice
Ġsupp osition
Ġtr ain
Ġconf id
Ġconf ide
Ġrest less
Ġrest oration
ĠJ ap
ĠJ oc
Ġref res
Ġopen ings
Ġind ignation
ult an
ult iv
Ġperf umed
Ġ1 3
count ess
sh ine
what ever
Ġmis sed
Ġmis chief
Ġwind ing
ec ided
vers ion
Ġfl at
Ġfl ashed
Ġsur mounted
anti al
Ġform ality
pro du
pro sper
no ise
Ġesc aping
ib ilities
Ġcond es
sp ot
sp ring
Ġbre viary
Ġpossess or
Ġinf lict
Ġsail ing
Ġfall s
Ġhast ening
Ren Ã©e
Ġking dom
arce l
uri ously
ĠAs k
ĠPro cureur
Ġwork man
Ġchar ms
Ġgra vity
su c
Ġinv iting
Ġve nd
Ġcor robor
Ġ2 6
Ġ2 50
Ġdirect ing
Ġlive ly
under standing
Ġpar lor
Ġtri als
Ġhum ili
Ġdesp ised
ĠTh ough
ĠTh ink
Ġbu ck
Ġbu zz
iv ita
Ġir re
Ġir ony
she et
Ġsk ilfully
Ġstud ies
Ġstud ded
Ġrec urred
Ġglo be
Ġlau nched
ues day
Ġfan ciful
Ġhusband s
Ġflo ated
Ġflo ating
app etite
Ġoccup ant
Ġoccup ation
pr ide
pr ince
Ġpen c
Ġrespect ive
Ġground s
Ġlearn ing
Ġeng raved
pass age
Ġfin est
Ġsal ute
Ġsal utation
Ġgrief s
ĠSt ay
Ġresol ute
car ious
car go
Ġfloor ing
cons ole
cons isted
Ġstri ve
Ġstri ped
sc ene
Ġpoison ing
Ġcuri ously
Ġdread ed
Ġremember ing
Ġbreat hing
Ġprec ise
Ġexec ute
Ġmention ing
Ġgrat ify
Ġgentleman ly
lu ence
Ġbetr aying
ĠItalian s
Ġfair y
Ġjo king
Ġelse where
pres ented
apt ism
ĠY OU
Ġfire place
Ġjud gment
Ġdan cing
Ġhigh ness
Ġacquaint ances
ste ward
ste pped
Ġarran ging
Ġsimple ton
Ġprodu ces
Ġrequest s
requ est
off icer
spe ed
spe cul
Ġarrest ing
Ġrequire ments
than k
Ġmount ing
Ġsatis fy
sequ ently
ĠLe ave
Ġpriest s
lan c
Ġcre ate
Ġcre aking
Ġcre vices
Ġprin ces
Ġgall op
Ġgall oped
vis count
Ġsepar ate
nific ence
Ġtor ches
Ġcompl iment
aw ake
aw ait
Ġconcern s
Ġview ed
mar ks
Ġcent red
foll ow
exp ressed
wor ks
Ġmus k
Ġmus ician
Ġcop ied
peci al
Ġcloud ed
pers u
pap ers
unt ed
cul ine
stru ggle
Ġkne eling
Ġpreser ving
Th ose
Th omson
Ġmem ories
Ġburst ing
Ġneigh bors
Ġremark ably
Ġbound s
Ġden ied
Ġden unci
Ġhon ors
vere nd
str ong
ĠRoman s
Ġlangu ages
Ġhur t
Ġshut ting
fact ory
Ġtit les
Ġmed itation
Ġmod est
Ġalarm s
Ġentreat y
Pro ceed
vi ate
inter red
inter rog
ĠSo on
Ġtrans formed
Never theless
ov able
Ġest im
Ġest ate
Ġmir th
Ġsho oting
Ġconfess or
port ion
never theless
Ġneighbor ing
ĠMar quise
Ġsuspic ious
Ġfail s
Ġfail ure
ĠBonapart ists
Ġearn ed
azz ol
cond ition
pie ces
ann ounced
Ġdelic ious
suff ering
Ġlif t
Ġlif eless
Ġneg ot
Ġimper ial
Ġimper ceptibly
Ġguard ed
Ġ6 0
ĠK eep
Ġwarm ly
Ġcalcul ation
Ġcalcul ate
Ġvol ume
appro aching
Ġfulf illing
Ġresemb les
Ġresemb lance
Ġoverwhel ming
Ġdiv an
tr ouble
adv ant
adv ance
Ġvar ied
Ġprepar ation
Ġer r
Ġsentine ls
Ġfow ls
mis sed
Ġsuper cargo
reless ly
dec ided
Ġdesir ing
Ġdesir able
Ġspecul ations
Ġow ed
Ġow es
Ġming le
Ġgar rison
ref lect
Ġmas culine
ĠHer b
exc itement
Ġcash ier
Ġcash mere
Lu cien
prom ised
Ġsli p
Ġsli pping
hast ly
Ġbal cony
Ġwealth y
Ġver ge
Ġsense less
har d
isc retion
Ġpet rified
Ġgay ety
Ġcareless ness
Ġrejo in
Ġrub ies
Ġmark et
Ġdistribut e
recogn ize
itc hens
Ġdecl aring
equ al
Ġhab itation
Ġsust ain
coach man
Ġposit ive
Ġur ged
grat itude
Ġtemp orary
Ġhurry ing
Ġfac ility
Ġfla g
Ġamid st
Ġleg al
Ġassert ion
Ġperform ance
Ġincred ible
Ġincred ulity
Ġfrag ment
di amond
rim onial
Ġtot ally
Ġhosp ital
esc aped
Ġdeb t
keep ers
Ġimpert inence
Ġsick ly
Ġinj ure
stri king
Ġard ently
Ġimm ovable
Ġthrust ing
Ġcorrect ly
break fast
Car conte
dest ro
Ġrelig ion
Ġshr oud
Ġcapr ice
Ġinfam y
bank rupt
Ġtro ops
Ġav ar
inf luence
Ġincon venience
ĠBou logne
Ġrespons ibility
success ful
ca relessly
sure ly
ang le
Ġstraw berries
ĠPr ince
Ġunivers ally
Ġpled ged
Ġscar f
Ġdecor ated
Ġcomprom ise
Ġrecommend ation
pi Ã¨gne
watch ing
Ġod or
Ġlat est
imag ination
ĠBour bons
Ġaddition al
Ġinvest igation
Ġdram a
Ġinherit ance
moccolet ti
Ġtriumphant ly
mid st
swe et
inha bited
Ġwand ered
Ġcaut ion
gend armes
acha ble
ĠPer ugia
Ġprejud ice
import ant
decla red
diffic ult
anim ous
Ġhy pocr
Ġep au
stif led
Ġglit tering
Ġcontrad ict
Ġlawy ers
Ġoblig ations
Ġneglig ence
bel ong
pois on
rus sels
sac rifice
reci an
repro achable
Ġbenevol ent
Ġknock ing
ĠLond res
Ġstead fast
Ġrefr ain
Ġrefresh ment
determ ined
Flore nce
Nap oleon
situ ation
Ġtig er
inst inct
Ġmut ual
Ġreven ged
Ġrecess es
Ġgn aw
ĠMan fred
Ġcongrat ulate
ĠDu ke
Ġintoxic ated
neigh bor
conn ected
Ġconsist ing
Ġlob by
Ġinsens ible
Ġnewspap ers
obli ged
purcha se
curtain s
Cors ic
bun al
flo or
jail er
Ġbever age
Ġarsen ic
ĠRuss ian
Ġoverpow ered
Ġscand al
ĠChÃ¢ lons
Ġprophe t
Ġharmon y
gotist ical
Und oubtedly
hist ory
Ġmart yr
Ġfles h
Ġchis el
Ġsever ity
Ġexcav ation
Ġrab bit
Ġcoquet tish
unex pected
oths child
Ġbachel or
Lacha ise
fan cied
Ġment ally
Ġcli ent
Ġcel estial
Ġdag gers
Ġhera ld
ĠVers ailles
Ġalpha bet
ĠPian osa
Ġabrupt ly
Ġrobb ers
ĠTries te
ĠRocc a
Ġrespon se
ĠNeap ol
Ġtremend ous
ĠJoc key
) âĢĶâĢľ
1 6
3 2
6 1
7 1
8 7
9 1
: âĢĶ
A uteuil
B on
B et
C he
C ourage
C aptain
D en
D iable
E D
F if
G ree
G aspard
H im
J ac
K obb
L I
M ed
M al
O R
P al
P erm
P orto
P este
R O
R ome
S h
S ection
S aturday
S upp
S omething
T ry
T wenty
W ilmore
_ âĢĿ
a ist
a ired
b es
b red
b reat
b od
b owed
b right
b oy
b ows
b ino
b ounded
c ong
c ause
c redit
c key
d s
d am
d ess
d ress
d ressing
d oms
d uty
e u
e ager
e pend
f et
f ine
f able
f ail
f ault
f resh
g ust
g own
h on
h osp
i br
i pped
i ator
j ug
k itchen
l est
l ate
l ouis
l ines
l eness
l onia
m ard
m pl
m aint
m ates
m atic
m emb
m antle
m ma
n at
n ic
n um
n umber
o res
o llen
p ing
p ain
p ound
p ull
p aint
p ens
p arent
p rud
p hys
p enet
r ons
r ings
r usted
s le
s outh
s oul
s igned
s aved
t ried
t ies
t rem
t ouched
u i
u ated
u ino
v ill
v il
v est
v ag
v alet
w ing
w ound
w anted
w arned
w elcome
w aist
y le
z la
z ia
Î ½
Î ¿
Ġ iv
Ġ ........
Ġ icy
Ġt ar
Ġt ac
Ġt ack
Ġt idings
Ġa lien
in n
in ine
in ately
in ates
in tend
in str
re ve
re ation
re pid
re ality
re lled
re ception
re present
re volution
Ġw ake
Ġw rist
Ġw inter
Ġw retches
Ġs hat
Ġs ous
Ġs ons
Ġs ciences
ou ps
Ġo il
Ġo aken
Ġo live
is land
er ary
er ings
er ical
er ror
ed est
Ġm ood
Ġm axim
Ġm uzz
Ġm amma
en v
en cing
en joy
on ation
it ative
it udes
or i
Ġb ast
Ġb ind
Ġb la
Ġb ite
Ġb urned
Ġb lock
Ġb ased
Ġb iting
Ġb rucine
Ġb aptism
Ġf ain
Ġf oo
Ġf ath
Ġf aster
Ġf itting
Ġf aded
Ġf illing
Ġf idelity
Ġf uriously
Ġc red
Ġc ris
Ġc laimed
Ġc ott
Ġc laws
Ġc ultiv
Ġto s
Ġto il
Ġto ps
Ġto oth
ll a
an ch
an ge
an ity
an ations
an ges
an choly
an techamber
an chor
an cial
Ġd ies
Ġd ili
ar king
ar ling
Ġh ut
Ġh ues
es p
Ġp in
Ġp ile
Ġp ip
Ġp iety
Ġp ills
Ġp edest
Ġhe aving
Ġhe nce
Ġha ck
Ġha ted
Ġin it
Ġin animate
at a
at an
Ġn on
Ġl id
Ġl ink
Ġl ug
Ġl ung
Ġl ament
ĠI mp
ot ic
se ll
se ized
se ek
ic able
ic ule
im per
im med
Ġre ject
Ġre ception
Ġre venue
Ġre visit
le ase
le aves
Ġe c
Ġe t
Ġe man
Ġe ti
Ġe lixir
st ro
st ern
st ream
st rate
st ories
ent ive
ent ering
ent als
Ġbe nd
Ġbe am
Ġsa g
Ġg e
Ġg y
Ġg al
Ġg ains
Ġg reed
Ġg ems
Ġg idd
Ġg hastly
ce ler
ce lebrated
ut ral
Ġon wards
ad le
ad opt
ĠM ac
al ing
al as
al ive
al arm
ir on
Ġnot aries
Ġfor ces
ri a
ri v
ri al
ri bly
ro ach
Ġme at
Ġme asure
ur bable
âĢĻ âĢĿ
Ġat oms
ct ure
Ġmy ster
Ġde w
Ġde fer
Ġan onymous
her s
to e
to ine
to ler
ĠC ity
ĠC ol
ĠC air
ĠC amp
ĠC atacombs
ĠC ivita
Ġse qu
Ġse rene
Ġwe bs
Ġwe ighed
âĢĶ âĢĻ
ter min
li er
if t
ch in
ch id
ch im
ch oo
ess amine
ĠA v
Ġdo omed
ke pt
ke let
Ġst ir
Ġst un
Ġst rew
Ġst aring
Ġst ature
Ġst amped
ant y
ount ain
Ġso ot
Ġso cket
Ġex ile
Ġex per
Ġex erted
Ġex empt
res umed
res erved
il st
il ess
Ġcon c
Ġcon ven
Ġcon ceive
Ġcon ference
Ġcon str
Ġcon quered
qu ished
qu ets
all o
Ġk ios
th reat
Ġwill ingly
our s
our selves
our chid
oo h
Ġman Åĵuvre
au mard
Ġall ows
Ġall uded
ĠV al
ĠV ene
ĠV icomte
ul og
Ġli re
Ġv ulture
Ġv apor
Ġcount enances
ust ry
em aire
em ned
ist ribut
est ics
est abl
ĠB ay
ĠB all
ĠB ell
ĠB ast
ĠB efore
ĠB ottle
Ġal ert
Ġsh ine
un ks
un ken
un ction
ĠF r
ĠF ort
ĠF irst
ap able
Ġno stri
Ġno blest
ind ic
ind escribable
ind epend
art s
ĠH ar
ĠH undred
ĠH orace
ive red
ig o
ig ate
ven ing
el ancholy
Ġrep ay
Ġrep ress
Ġrep air
Ġrep ressed
Ġrep aid
ass ment
ass ured
ĠS uch
ĠP a
ĠP ied
ĠP rison
ĠP iom
ĠP orte
Ġar c
Ġpro dig
Ġcom ment
Ġcom edy
Ġcom pel
Ġr ouse
Ġr oused
Ġr ules
Ġr adiant
Ġab ility
ol as
ol ated
ol ence
ng then
me ats
Ġfe ather
rel ated
la bor
Ġhand les
ag a
ag o
ag on
Ġro pe
ĠE m
Ġsha ring
Ġsha des
Ġun perceived
Ġun hesitatingly
Ġyoung er
Ġret aining
Ġret orted
ĠT omorrow
ĠT uesday
de b
de li
de ceived
de pend
Ġim age
Ġim pelled
Ġdis sim
Ġdis interested
Ġdis interred
Ġdis missed
ps es
Ġqu id
Ġsp ort
Ġsp orts
ign e
ign on
Ġrem o
Ġrem arks
Ġrem inisc
Ġtheir s
Ġcont racted
own s
ĠL at
ĠL Ã©
ĠG ra
Ġgr ays
Ġgr oups
Ġap ology
Ġdes erves
we ap
co ff
oss oms
per mission
Ġen vious
Ġen ables
Ġpre ference
Ġpre occupation
Ġpre carious
Ġent ers
Ġpl ant
Ġpl unge
Ġbr andy
ab and
ab ilities
ĠR et
ĠR othschild
Ġover came
Ġcl ing
be aring
Ġunder took
Ġunder went
not withstanding
cha mps
cha llenge
pl an
Ġlet ting
Ġres ided
Ġres piration
Ġper usal
ep ing
aint ies
Ġexc ursion
Ġbl ushing
Ġbl ossoms
Ġpres cription
Ġlong ed
ret ire
Ġpr ot
Ġpr icked
Ġpr inted
Ġpr otest
Ġthr ong
Ġass ign
Ġspe cial
Ġold er
Ġra pped
Ġra bb
lie utenant
Ġpers isted
orn Ã©lie
ian ced
read ing
Ġown ed
It aly
Ġsc ra
Ġsc rupulous
Ġsc ulpt
Ġatt entions
Ġco de
Ġco vering
Ġco pper
Ġgood s
but t
but ton
Ġsec ured
br ic
br ow
con ies
con stant
Ġgl ory
Ġgl owing
Ġgl isten
ranc es
Ġpart ially
Ġhere after
Ġho vering
Ġho llowed
fe rences
ĠN ight
ĠN ice
ĠN umber
Ġcons ented
Ġcons ists
Ġcons umm
ex tended
ex clam
âĢľâĢĺ _
Ġord inarily
sw ord
ren oble
int im
Ġsign atures
Ġsign ora
Ġend s
com er
com es
com fortable
Ġbeg ging
Ġcr um
Ġcr adle
Ġexp lo
Ġexp osing
Ġexp enses
Ġexp anded
Ġfoll ies
Ġvo id
up iter
ict ment
Ġaff lict
cl oud
cl osing
ĠO ld
Ġcomm er
Ġcomm encement
Ġdist racted
Ġway s
Ġreco iled
Ġwr ung
Ġwr inging
do ing
do ors
Ġter race
Ġac ute
Ġlo ving
Ġadv is
Ġtr usted
Ġes pecial
Ġgi ant
Ġconf er
Ġconf essed
Ġconf iding
Ġreturn s
ĠJ ew
ĠJ upiter
Ġtra gedy
Ġpresent s
Ġocc asions
Ġ1 4
Ġ1 6
Ġ1 49
io gn
Ġmon key
Ġmon otonous
sh o
sh ow
sh ut
sh ips
Ġmis s
ens ity
ens ions
Ġarri ving
ec hes
Ġact or
Ġact uated
Ġdi vision
Ġint ently
Ġint rigues
Ġint repid
Ġins ure
Ġins isted
Ġins inu
Ġins anity
ĠAt t
Ġinter f
Ġinter cept
Ġinter vention
Ġdep ri
Ġbed chamber
Ġfl owed
Ġfl owing
Ġfl ushed
Ġfl ames
Ġsub miss
Ġsur geon
aven ge
Ġchan ges
Ġnew ly
pro ve
pro posed
Ġreg istered
Ġcare worn
Ġesc orted
Ġeff aced
ott ed
cri be
pre ter
Ġstre ngthen
Ġext ra
sp ir
Ġstru cture
Ġkind led
gu age
Ġsix teen
Ġspo on
Ġspo il
Ġche m
Ġking doms
Ġsum mons
Ġdark ened
rem ind
rem ove
rem aining
Ġhor ribly
Ġchar m
Ġchar ges
Ġrel uct
Ġrel inqu
Ġpay s
Ġear liest
Ġsw elled
Ġve hem
Ġstr ain
Ġcomp lied
ins ult
Ġdu elling
Ġdet ected
Ġdev ote
Ġadm inister
gr ant
gr adually
Ġ2 4
Ġdirect ions
Ġbeaut ifully
Ġpar ch
Ġhar lequ
Ġlad en
Ġglass es
Ġtri bunal
Ġaston ish
Ġwal ks
Ġhum ility
Ġquestion ing
ĠTh rough
Ġprof ited
po verty
Ġcle ared
Ġjoy ful
Ġaffect ions
Ġir ritated
Ġdro ll
Ġfixed ly
Ġsk ull
ati ating
kn ows
Ġrec ourse
Ġglo ve
Ġconv ulsed
erm o
pr ice
Ġ5 9
Ġte ach
ici ently
Ġneed less
lic ante
Ġpen it
att orney
Ġexpl ains
peri od
Ġport ico
Ġhat es
Ġhat chet
over whel
sm o
Ġdr unken
like ly
Ġpois ons
pass ing
Ġconsider ably
Ġfin ancial
Ġsal ut
Ġresol ve
car b
eas ily
Ġcur sed
Ġforget ting
imp atience
ĠAb out
Ġbus ily
Ġprec ision
Ġph leg
Ġgrat efully
lu ck
Ġshort ly
tern al
ĠSp agna
Ġjo ckey
Ġimag ining
ĠOn ce
ric ious
Ġaccord ed
ĠAl most
ĠAl though
ĠAl add
sec onds
requ ired
Ġmer ry
Ġmer its
Ġreal ized
Ġdisp ersed
Ġassist ants
off er
conte mpt
conte mpl
every where
ines e
Ġbar ber
Ġbar ren
Ġclear ness
bl ow
bl ind
Ġpurpose ly
Ġsatis factory
Ġmouth ful
ribut ed
Ġbreakfast ed
chan ged
Ex plain
Ġcre ation
Ġhes itating
Re verend
Ġmove ments
Ġca res
cent rated
vis ible
Ġrun s
Ġinquir ingly
Ġtor rent
Ġspect acles
Ġfaint ing
Ġfaint ly
ĠPal ermo
aw are
part y
Ġund oubtedly
Ġdef y
Ġexact itude
friend ship
Ġsigh ing
Ġele ment
Ġele vation
ĠCatal ane
exp osed
cr ime
gi ers
erv ation
Ġfast idious
ĠAn y
Ġcab bage
Ġinflu enced
Ġstart led
Ġproject ing
Ġinterrupt ing
mer chant
Ġbear ings
thr own
Ġrid er
Count ess
Ġbright ened
Ġden ounced
str ation
str ict
str icken
Ġcrown ed
Ġcollect ing
Ġmod el
Ġwhis kers
Ġpron ouncing
Ġsuccess ively
Ġcrowd ed
inter rupt
Ġmass ive
Ġenc ourage
Ġtrans l
Ġmir ror
Ġfur r
Ġsho ot
venge ance
ĠHeaven s
Ġindic ates
.... ..
Paris ian
ium s
Ġphys iogn
ĠBaron ess
conf ession
Ġrecall ing
Ġcharacter istic
Ġdispl aying
Ġprince ly
fl ickering
cond emned
Ġmerc iful
Ġresult s
Ġadvant ages
Ġtop ic
ann oy
Ġlim its
Ġlamp re
Ġdelic ately
suff iciently
great er
Ġelect ric
Ġsoft ly
Ġsoft ened
Ġimper ious
Ġimper ative
Ġgroan ing
dist ance
dist inct
ĠK ourchid
Ġwarm th
Ġasce nding
Ġvol umes
olute ly
appro ach
Be hind
sha me
Ġcoff er
Ġer rand
reg ular
Ġthreat ens
think ing
ĠUn fortunately
Ġhonest ly
mis fortunes
mist aken
Ġaud ible
Ġsuper human
Ġspecul ate
add ressing
Ġdesign s
Ġsymp athe
rid ges
Ġbou quet
Ġtoler able
ĠRe collect
Ġscrutin ized
Ġglad ly
Ġstock bro
serv ice
Ġdisturb ance
ĠCom piÃ¨gne
ĠAm ong
Ġannoy ance
person age
402 7
Ġsn atched
answ ered
Ġamaz ed
pur pose
sim ple
sim plicity
Ġver acity
Ġpet ty
Ġamb assad
kind ness
Ġcal med
Ġcand le
Ġcand idly
Ġcoward ly
Ġrejo iced
Ġwel comed
Ġdistribut ed
Ġdistribut ion
Ġarrange ment
det ails
wr ote
wr itten
Ġcert ificate
Ġpan g
Ġcomfort ed
Ġcomfort able
Ġdisple ase
beaut y
Ġheir s
Ġlod ged
Ġkiss ing
Ġinvol untary
Ġmoon light
question ably
bar relled
cor pse
Ġaristo cracy
respect ing
Ġshepherd s
Ġrepres ented
ĠEx cept
dev otion
Ġpear ly
Ġinterrog ated
sus pected
Ġpit ied
Ġpra ises
Ġornam ents
Ġindul gence
Ġ28 7
consid er
consid erable
Ġeduc ated
Ġculpr its
yr am
Ġtap er
Ġcoun ter
Ġtot al
Ġdazz ling
esc ension
Ġdeb ts
ĠEurope an
Ġbride groom
Ġaccur ately
Ġimpert urbable
Ġeste emed
Ġsubst ances
Ġtempt ing
Ġemploy ment
Ġsan gu
Ġsan ction
Ġdust y
Ġvan ity
Ġvan quished
Ġgod dess
dep arted
Ġgrow th
Ġbold ly
Ġtraver se
Ġtransp ort
Ġtransp ired
Ġorigin ally
dig gers
grace ful
pay ment
instant ly
reason able
Ġpaint ings
Ġrese mble
Ġgard ens
command s
Ġdelir ious
govern or
Ġembra cing
Ġprivile ged
dream s
mur der
Ġtro d
Ġliber al
Ġvirt ues
ĠBou levard
Ġcolle ague
Ġcolle agues
Ġterm ination
Ġindividual s
Ġdiplom acy
Ġchemist ry
Ġfrown ing
best owed
gall ey
pun ished
wit ness
concern ing
fear ful
ĠOri entals
Ġproport ions
Ġsacrific ing
Ġrepresent ing
lad der
Ġaug ment
Ġbid ding
Ġnation al
Ġgrie ved
ĠBour ges
Ġhandful s
Ġawaken ing
Ġparad ox
partic ulars
Ġcatastrop hes
circumst ance
bou doir
sum mon
swe ar
shad ow
inha bit
Ġwin ked
Ġwand ering
Ġfer vent
Ġfasc ination
arg onne
Ġexagger ate
Ġproper ly
rememb ered
rememb rance
Ġpropri ety
ĠProven Ã§
Ġgracious ly
Ġcolumn s
import ance
Ġnumb ers
decla re
build er
RE E
Ġtur f
Ġdil ated
iche lieu
quar ters
Ġimpress ions
Ġglit tered
Ġtram pled
Ġmonarch y
Ġintim acy
Ġlawy er
Ġoblig ation
Ġphilosoph ically
IS T
Qu ite
Qu ick
Ġbay on
Ġbeque ath
Ġsugg est
Ġsugg ested
Ġdisappoint ment
sold iers
expl anation
Ġsupplic ating
Ġsubstit ute
spo ken
Ġobserv ations
ĠAlb an
accur ate
accord ing
Ġribb on
Ġribb ons
inquir ies
execution er
HÃ© ron
event s
furn ish
pret ed
Ġident ity
Ġfrank ly
Ġecon omy
Ġconstit ution
ĠSic ilian
ĠPe ers
ĠPres ident
Ġprosper ity
ĠRoy al
Ġclut ching
Ġresc ue
Ġimprud ent
consequ ence
Ġinterval s
Ġtransm itted
Ġequip age
Excell ency
incre asing
Ġcivili zed
fare well
pict ures
repe at
enem y
Ġfug itive
Ġpill ow
Ġgather ing
Ġgla re
Ġdefe at
ĠCo q
Ġstab bed
Ġvine yard
Ġshri ek
ĠSupp ose
Ġarr ow
ĠGir ondin
exha usted
desp air
ĠSpani ards
begin ning
correspond ent
Ġcaval ier
ĠAcadem y
App roach
Ġfem inine
Ġfab ulous
Ġcher ished
Ġcement ed
arrange ments
Ġnort hern
Ġlust re
Ġbeha ved
ĠMur at
Ġancest ors
ĠBelle garde
unte ers
Ġproble m
ĠTran stever
ĠThan k
avail ing
Ġperv aded
exist ence
comprehe nd
Ġinsign ificant
Ġdevour ing
Ġvolcan o
precaut ion
Ġnoiseless ly
incogn ito
Vecch io
dunge on
Ġting ed
heav y
Ġmand ate
itiz en
Ġfrequ ent
Ġcau ses
Ġinef fable
Ġinoff ensive
Ġnin ety
Ġgird le
Ġthir teen
ĠMil an
Ġstagger ing
Ġsuperf lu
aunt ed
Ġrul ed
Ġquadr ille
manif ested
opin ion
Ġpartis ans
Ġsignific antly
commit tee
Ġrefres hed
ecided ly
ĠHerb ault
ĠNeapol itan
Fif ty
Kobb ir
Med iterranean
memb ers
nat ured
Ġfoo ls
Ġcris is
Ġpip es
Ġlung s
Ġeti quette
Ġgal op
Ġmyster ies
ĠCair o
Ġconven ient
Ġkios k
ĠVene zia
Ġnostri ls
independ ent
ĠPied mont
ĠPiom bino
Ġrabb its
Ġsubmiss ive
Ġvehem ence
ĠAladd in
Ġsympathe tic
ĠProvenÃ§ al
. ;
0 5
0 6
0 50
1 0
1 4
2 4
2 8
3 1
3 8
4 8
5 6
6 3
6 7
6 00
7 3
7 00
9 4
9 5
A G
A T
A g
A cc
A bs
B l
B ER
C E
C H
C all
C ap
D es
D irectly
D ecidedly
E xt
E CT
F a
H um
H ope
I L
I N
J ean
J ECT
K ill
M ust
M artin
N Y
N or
N early
O N
O pera
O NT
P re
P er
P opolo
P atience
P erfectly
P ooh
R o
S e
S an
S end
S pan
S ometimes
S imply
T owards
V asiliki
W hether
W elcome
_ !
_ !âĢĿ
_ ,âĢĻ
_ .âĢĻâĢĿ
a qu
a ires
a Ã¯
b ul
b ish
b led
b less
b read
b ling
b bed
b ird
b ony
b ills
b attle
b rucine
c er
c at
c her
c ation
c art
c ig
c ru
c od
c ried
c ull
c ash
c rossed
c ertained
c urious
d r
d v
d an
d ers
d ated
d ued
d ying
e re
e or
e ble
e ast
e ating
e ceive
e leg
f r
f ir
f ra
f ood
f light
f und
f used
f uture
f ulf
f ront
g ic
g le
g ay
g ained
g ments
g igantic
h ort
h unger
h ouses
h itherto
i i
i ke
i ard
i ved
i ary
i ber
i acom
j ob
k ened
l ion
l Ã©
l aughter
l ower
l iction
l icted
l asted
m ess
m ort
m our
m ate
m ass
m ity
m erc
m ark
m onsieur
m ode
m azzol
m elancholy
n one
n ui
p ant
p ress
p ract
p aid
p ati
p oned
p osit
p hole
r uth
r ays
s n
s in
s is
s it
s av
s ud
s hap
s laves
s afe
t im
t te
t all
t aste
t itle
u ine
u ces
v ant
v iv
w ar
w ine
w ice
w are
w his
w aves
w rist
y ear
z es
z ard
z ier
Î ±
Î ¼
Ï Ģ
Ï Ħ
á ¼
Ġ ign
Ġt u
Ġt ie
Ġt ies
Ġt app
Ġt unic
he ro
he alth
he velled
Ġa st
Ġa us
in j
in th
in one
in able
in cl
in ner
in ations
in sp
in cing
in form
in aries
in ara
in struct
re z
re med
re ction
re lig
Ġw ager
Ġs in
Ġs ne
Ġs arc
Ġs illy
Ġs outhern
Ġs kelet
Ġo y
Ġo ak
Ġo gre
ha ble
ha nded
ha kes
is ure
is ition
er a
er ior
ed ies
Ġm it
Ġm ain
Ġm ast
Ġm ail
Ġm use
Ġm uttering
en ne
en ator
en abled
en nui
on net
it he
it ch
it ution
or ial
or bed
Ġb uri
Ġb itten
Ġb askets
Ġb orne
Ġf ist
Ġf ost
Ġf able
Ġf ict
Ġc u
Ġc ough
Ġc la
Ġc rop
an us
Ġd ur
Ġd ess
Ġd ated
Ġd anced
Ġd ates
Ġd ense
Ġd andy
Ġd aunted
ar ose
ar oused
Ġh it
Ġh ilar
Ġh orrid
Ġp ard
Ġp au
Ġp la
Ġp age
Ġp ink
Ġp ension
Ġp ipe
Ġy awn
as iness
as cending
Ġhe d
Ġhe ed
Ġhe ap
Ġhe aped
Ġhe els
Ġhe aved
Ġha il
Ġha iled
Ġin ward
Ġin express
Ġin artic
Ġin cessantly
Ġin asmuch
Ġin mates
at ro
at hing
at ively
at ches
Ġn ut
Ġn ail
Ġn ets
Ġn erves
Ġl ot
Ġl un
Ġl ions
Ġl iter
Ġl oses
Ġl icense
Ġl arg
Ġl amps
Ġl arger
Ġl asso
om Ã¨
ĠI II
ot hing
ve y
ve rely
ic king
im ented
Ġre ar
Ġre ct
Ġre ign
Ġre vo
Ġre ference
Ġre igned
Ġre clining
le y
le gr
Ġe ve
Ġe jac
Ġe cho
Ġe ulog
st at
st op
st orm
st ices
st arted
st ring
st yle
ent reat
ent ieth
Ġbe ach
Ġbe aming
Ġwh iter
Ġwh ilst
Ġsa pp
Ġsa lt
Ġsa bre
Ġg ust
Ġg ross
Ġg aining
Ġg reet
ly mp
Ġon ions
Ġon line
ad o
ad ays
ill on
ill um
ill ery
ĠM at
ĠM us
ĠM ag
ĠM Ã©d
al es
al se
al ted
ir y
Ġwith held
Ġnot ions
Ġas certained
Ġfor k
Ġfor s
ri ori
Ġis suing
ver ted
ro yal
Ġu lt
et ing
et ic
et ition
ur ous
ur able
ur ances
âĢĻ ,
âĢĻ ;
red oubled
te ar
Ġde i
Ġde gr
Ġde ception
Ġde lla
Ġan gl
ĠC or
ĠC ould
ĠC ast
ĠC ap
ĠC emetery
am ble
am ily
am ents
ter ms
li ved
if f
if th
pe ar
pe are
pe ace
pe nding
pe asant
pe lle
pe asants
ĠA ra
ĠA qu
ĠA ig
ĠA ix
ĠA NY
Ġst al
Ġst ain
Ġst all
Ġst ations
Ġst aying
Ġst umbled
ort es
Ġwho ever
ra ise
ra rely
Ġso il
Ġex tend
Ġex alted
res ight
rom ise
Ġcon cert
Ġcon centrated
Ġsu lt
Ġsu gar
Ġher bs
all owed
ef lect
Ġk ids
Ġk itchens
ĠD el
ĠD up
ĠD ieu
ĠD iable
th o
th ick
th irst
ge ant
oo p
ble au
pp ers
ris k
ac on
ac ies
ac ross
Ġman ia
au spic
Ġor ator
Ġall owing
ĠV ill
ĠV izier
ul p
ul ation
ul ations
Ġli es
Ġv ice
Ġv ase
Ġv ote
Ġv irg
Ġv arnished
Ġv ulgar
Ġcount ing
ation al
ers bur
ist inct
est im
ĠB ag
ĠB ey
ĠB rut
ĠB arri
ĠB lanc
ĠB russels
Ġkn ots
Ġsh i
Ġsh ots
un ity
un iform
us urper
Ã© s
Ã© ah
Ã© loÃ¯se
ĠF er
ĠF en
ĠF ortunately
ĠF amily
ĠF ifth
Ġno body
ind ividual
ind iscretion
art ure
ĠH ast
ĠH av
ĠH omer
ĠH Ã©loÃ¯se
ate ur
Ġam end
Ġam assed
Ġam ateur
el se
um or
ass ing
ass oci
ĠS al
ĠS erv
ĠS ultan
ĠP on
ĠP ers
ĠP ast
ĠP ol
ĠP amp
ĠP ope
ĠP RO
ĠMor gi
Ġar ched
Ġar rog
Ġar ithmet
Ġpro sec
Ġpro strate
ord eau
ord inates
Ġcom pre
Ġcom mented
Ġle ase
Ġle gend
Ġj ib
Ġr ow
Ġab st
Ġab use
ol iness
ie ce
ie utenant
Ġtw isted
Ġtw entieth
me ant
me asure
Ġfe ed
Ġfe es
Ġfe ud
Ġfe ature
Ġmad ly
la go
ag reement
Ġad just
Ġro ot
Ġro de
Ġsha ped
other wise
Yes terday
Ġus es
Ġun w
Ġun covered
Ġun happily
Ġun successful
Ġun animous
Ġun punished
ile mma
end ed
Ġret ard
ĠT a
ĠT ruly
ĠT error
ment aries
de g
you th
Ġthan king
Ġdis sol
Ġdis obe
Ġdis ease
Ġdis liked
Ġdis gust
ps y
ps ies
Ġqu its
Ġqu alities
Ġtwo fold
Ġloo phole
Ġsp l
Ġsp ank
Ġsp asm
ide as
Ġlike wise
Ġdid n
ward ed
of ten
Ġrem edies
ci li
ci pl
ci bly
fore seen
Ġcont ains
own ed
ĠL I
ĠL ast
ĠL ions
ĠL ang
ĠL emaire
Ġpo pul
ĠW ater
ĠW AR
Ġout line
Ġout stretched
itt ance
ĠG UT
ĠG recian
ĠG anges
ĠMad rid
Ġgr im
Ġgr ated
Ġgr ows
Ġgr asping
av ors
Ġdes per
Ġdes igned
we ight
ink ing
co p
co aches
man n
per ished
Ġen light
Ġen act
Ġen raged
Ġen mity
Ġpre m
Ġpre med
Ġpre val
Ġent ries
Ġfir ing
Ġpl aster
Ġpl ays
Ġpl undered
ced ed
ced ing
ab ri
Ġdoor way
ĠR E
ĠR ic
ĠR est
ĠR ichelieu
op lect
op old
Ġacc ost
Ġacc um
Ġover took
Ġcl ad
Ġcl ap
Ġcl oses
Ġcl oser
be ian
be hold
be coming
Ġunder going
Ġfo aming
Ġfo resight
,âĢĶ âĢĺ
Ġres iding
Ġch ill
Ġch ord
for give
Ġper ception
ne g
ne ck
What ever
Ġser ving
ud ge
Ġexc used
Ġbl own
Ġbl owing
Ġpres cribed
Ġpr ow
Ġass id
Ġass urances
Ġspe eches
Ġra ven
ĠâĢĺ _
Ġcha sed
Ġcha ined
Ġcha ste
Ġimp r
Ġimp ly
Ġimp ass
Ġimp lied
iz ation
less ness
Ġown s
king dom
ple ased
Ġjust ly
Ġsc ound
Ġsc ale
Ġco in
Ġco vers
Ġco arse
Ġapp rent
br ing
br ain
br ings
Ġbo on
Ġbo ot
Ġgreat coat
right ly
con quer
con cluded
Ġwhere as
Ġwhere fore
Ġgl oss
Ġinst alled
Ġstill ness
ĠMorcerf s
Ġpart ies
Ġpart ition
Ġpart ridges
fe igned
fe eble
Ġste ered
ued oc
Ġvis ibly
cei vable
ĠN ear
ĠN argonne
Ġcons umed
Ġcons erv
ex actly
ex plain
hen ce
hes itated
Ġlast ly
Ġsto le
Ġsign ifies
Ġposs ibilities
Ġend ured
com ers
gn ette
Ġfound ed
Ġadd ing
ict ions
Ġheart y
Ġaff ianced
Ġpe as
Ġpe bb
cl oth
ois seur
âĢĶâĢĶ ,
âĢĶâĢĶ âĢĻ
ĠO ff
ĠO ther
ĠO liva
ĠO lymp
Ġcomm itting
Ġsince rely
ia lect
Ġbelie ves
Ġmin es
Ġmin istry
Ġreco vering
Ġwr ought
Ġwr ites
do ctor
Ġke eps
ner vous
Ġlo ad
Ġlo af
Ġwait s
Ġchild like
Ġtr unks
000 9
Ġcap ricious
Ġpur ity
Ġconf ine
Ġconf ounded
Ġconf lict
Ġconf etti
ĠJ oh
ĠJ oannes
Ġdoubt ing
Ġref uses
Ġback wards
Ġback ground
Ġopen ly
Ġtra p
Ġtra vels
aut hor
ĠCh inese
Ġind ustrious
Ġind ustry
ser ious
Ġprom otion
sh owed
Ġmis er
Ġaw kward
Ġdi ved
Ġten ant
Ġem etic
Ġins uff
Ġins olent
act ion
act ors
ene alog
Ġinter nal
Ġinter course
Ġinter preted
Ġinter stices
Ġdep uted
Ġbed s
Ġfl ush
Ġsub s
Ġsub tle
Ġchan ced
aster s
du el
Ġthousand s
use less
Ġform at
pro c
pro pose
pro ceeded
pro pri
pro bably
Ġreg ain
Ġreg ions
Ġsim ult
Ġesc apes
ĠIn formation
ĠIn terior
Ġappro ved
your s
your selves
pre fer
Ġran ged
Ġext ract
sp oke
gu ide
gu illotine
Ġbre eding
Ġpossess ions
Ġmist rust
Ġinf lam
Ġinf erior
ceed s
Ġsecret ly
Ġche er
Ġche cked
Ġremain der
Ġopp on
Ġopp ressed
Ġsum s
ace llo
rem arked
Ġfore seen
Ġfore warned
Ġprop osal
ĠAs s
Ġsound ing
Ġwork men
As k
Ġill usions
Ġrel ic
Ġrel apse
band it
Ġmag n
ros inone
Ġpay ment
Ġpay ments
Ġear then
Ġsw allow
Ġsw ollen
Ġsw ift
Ġfull est
Ġcor por
Ġinc ident
Ġinc apable
tem pered
Ġstr ained
Ġstr icken
Ġcomp liance
ins pect
Ġdet er
Ġdet ect
Ġdet ached
Ġdev oured
Ġdev oid
Ġadm in
gr ay
gr own
Ãī ti
Ġ2 2
Ġ2 3
Ġmo istened
Ġband aged
Ġconsid ering
Ġrich ly
aly zed
Ġpar took
Ġfoot ing
Ġfoot men
Ġfoot step
Ġhar ness
uten ess
pris es
Ġtri p
Ġacqu isition
dis covered
dis played
Ġce lebr
Ġprof essed
ph in
Ġcle mat
Ġir reproachable
Ġir regular
she pherd
Ġcir cum
Ġcir cles
Ġcir cular
cont ad
cont ents
Ġsk iff
Ġred dish
Ġstud ying
Ġhold er
kn owing
Ġfree zing
mand aÃ¯
ices hip
Ġconv ulsion
Ġpocket book
Ġfar thest
Ġland s
mon th
Ġ5 5
Ġeffect ed
Ġpen alty
Ġpost ing
Ġexpl aining
Ġexpl anations
Ġallow ance
peri enced
ĠThere fore
Ġrock y
Ġrespect s
over come
sm ell
Ġcry stal
Ġdelight s
ĠDo es
ĠDo ctor
ob in
Ġcost s
Al one
Al ways
pass es
ĠLa fit
Ġbro od
Ġsal ons
Ġsal vation
ĠSt r
car riages
Ġ3 2
cons ol
cons pir
Ġcur ate
Ġcur sing
Ġcountry men
ĠTe atro
Ġreflect ions
sc affold
sc heme
Ġlead en
Ġforget fulness
imp rison
Ġstand s
Ġlaugh ingly
when ce
Ġcove ted
Ġquick ness
aff ected
Ġemb arked
Ġgrat ified
Ġsy n
Ġsy cam
Ġexpect ations
Ġaccept able
Ġwitness ing
Ġmotion ing
pres ents
apt ivity
Ġaccord ingly
Ġworth while
Ġroad s
Ġcircumst antial
Ġobject ions
Ġtruth s
og raph
pend ous
Ġchamber lain
Ġdin ners
ĠAl ready
ĠAl giers
Ġreply ing
ĠU ntil
Ġsens ations
sec urity
Ġequ ality
Ġprodu ct
Ġprodu cing
requ ire
jo ined
Ġpat rimony
Ġassist ed
bo ards
bo ats
Ġbar rels
ĠGree ks
Ġmouth s
ĠLe vant
Ġpal try
lan guage
Ġfurn ishing
Ġshad ed
Ġrend ezvous
before hand
Ġval id
Ġquarter s
vol ous
vol untarily
Ġlay ing
Ġsepar ating
St ates
Ġtor ment
Ġprotect ing
min ute
Ġcredit or
ingu ish
Ġview s
Ġcent uries
Ġgener ation
tell ing
Ġsucc or
Ġvict orious
new spap
Ġmus lin
Ġbra ce
Ġbra vo
Ġcop ying
gi ves
Ġbell s
ĠAn ge
ĠAn toine
Ġsupport ing
Ġsingular ly
rep ort
Ġsol idity
Ġkey hole
Ġsweet est
Ġsweet ness
Ġstart ling
Ġaddress es
thr ow
thr owing
Ġregret s
ĠXV I
Ġbright est
Ġbright ness
Ġev ince
Ġev inced
Ġshut ters
Ġmed ic
Ġmed itated
Ġmed dle
Ġmod er
Ġmod esty
Ġrecei ves
acqu ired
Ġdisc laim
Ġdisc ourse
Ġdisc retion
Ġassassin ate
Ġsuccess or
inter view
Ġwretched ness
Ġtrans fer
Ġtrans formation
spect ators
Ġcra zy
Ġindic ation
Ar ch
Ar ound
Ch ild
Ch rist
port manteau
Ġweak ened
Ġrestr aining
bre ast
Ġgen uine
Ġenjoy ment
Ġrememb ers
Ġloud er
Ġstro kes
uls ation
Ġintend s
ĠBonapart ism
che st
emb arked
Ġcho ked
suff ered
contin ue
Ġsoft est
Ġneg lect
Ġappre he
compan ions
af raid
dist inguish
Ġ8 0
Ġ9 0
Ġwarm est
Ġclo ver
Ġcalcul ating
Ġpublic ly
Ġgest ures
Ġvol unteers
Ġpret ence
Ġblind folded
sur pris
Ġavo iding
Ġdeli ber
Ġconn oisseur
Ġrepro aches
olog ical
Ġshar ply
Ġbrilliant ly
Ġdiv ide
400 7
pri v
pri est
tr ousers
rec ital
Ġvar iety
Ġroyal ists
Ġcoff in
Ġcoff ins
Ġadvantage ous
sub lime
reg ret
Ġthreat s
Ġvill a
Ġadvent urous
letter s
401 6
nam es
name ly
Ġaud acity
Ġaud itors
Ġmat hem
Ġmat rimonial
Ġthunder struck
Ġsuper stit
Ġsuper natural
Ġsuper num
dec apit
Ġspecul ator
Ġbuild er
lim ity
Ġfro zen
Ġeleg antly
add ressed
Ġspeed y
Ġearnest ness
ref use
ref lected
ref usal
Ġmas ked
Ġcou rier
Ġdom ino
Ġdom estics
Ġpall id
ĠBe ing
Ġfold s
supp er
supp osed
rid iculous
Ġtong ues
Ġbou levard
Ġbou quets
Ġrever t
Ġstock ings
Ġconvuls ions
Ġundert aken
Ġestabl ish
ĠChristian s
Ġfond ly
Ġcru cif
Ġcru elly
Ġloss es
sto pping
Ġaccident ally
Ġcarb ines
Ġpeace ful
Ġcommon place
Ġannoy ing
Ġdestroy s
person al
Ġmourn fully
ech o
hast ily
answ ers
Ġsaf est
Ġexerc ises
acquaint ances
Ġbenef it
Ab ove
Ġtim ber
har gy
ĠNot withstanding
Ġcapt ured
Ġcorrespond ents
turn key
Ġciv ility
Ġpract iced
Ġrejo ice
ĠMal aga
ĠCon sequently
antic ip
Ġrub bing
Ġobst inate
Ġsympath ize
bu ried
det ected
som bre
six teen
wr ong
wr ite
wort h
Ġpan es
stre et
rie ked
ĠTur ks
Ġhoriz ons
equ ally
fam ili
jud ge
Ġinher its
Ġsus ceptible
Ġkiss es
Ġprov inces
Ġ11 4
Ġemer ged
grand mother
Ġacknowled ging
Un happy
bar rier
inet te
enet rable
arri ving
Ġgif ts
respect s
Ġjest ing
Ġchim erical
comm od
comm itted
Le ghorn
Ġid le
Ġsqu ee
Ġban king
Ġfac ulty
Ġpit iless
Ġpra ised
Ġbehold ing
ctual ity
Ġstar ving
Ġstar vation
ĠDe ath
ĠFlore ntin
Ġcommission ed
Ġindul gent
Ġswall owing
cab bage
di vided
fif teen
oli Ã¨re
wind ows
Ġtot tered
esc ape
Ġetern ity
Ġetern ally
abs orbed
Ġaccur acy
Ġcover let
conv uls
exam ine
exam ple
exam ination
recollect ion
recollect ions
Ġgenerous ly
bur nt
mocc oli
Ġsick ness
Ġhang ings
Ġinj ured
Ġinj ury
ĠInd ian
astrop he
Ġgod s
dep osited
Ġattract ion
Ġoccur rence
Ġregister s
human ity
Ġdisdain fully
Ġmiraculous ly
dig ger
gra ve
Ġavail ing
inv ited
inv itation
Ġbod ice
Ġhero ic
lev ards
adm ire
adm iration
Ġshr ink
ende avored
Ġimpl ore
Ġspec ified
Ġclever ly
Ġdiscus sing
bank er
sol itude
sleep ing
try ing
yl on
Ġav owal
Ġmaid en
Ġseam en
Ġliber ated
Ġshed ding
Ġenv y
Ġbless ing
Ġbless ings
Ġcolle ge
introdu ce
Ġfrown ed
Ġsettle ment
mo on
pun ishment
Ġdict ate
Ġdict ated
Ġpred icted
Ġalter ation
Ġpersec uted
Ġscream ed
Ġvision ary
Ġextingu ish
Ġdecor ations
Ġswim mer
Ġenerget ically
Ġemerald s
Ġrepresent ative
lad ies
viol ent
viol ence
wall s
Ġaven ged
Ġaven ger
Ġsong s
Ġod ious
Ġble w
Ġble eding
Ġphant oms
assemb led
Ġlat itudes
Ġrele ased
Ġgrie ve
Ġgrie ves
Ġorg ans
meet ing
Ġimpro ve
pray ers
Ġdram atic
Ġsurround ing
bou quet
hor rible
mid dle
pat ron
sal ts
shad ows
Ġtumult uous
onne au
Ġfer ocious
llen ged
Ġder ive
Ġarch itect
Ġprejud ices
Ġlog ic
Ġindepend ent
Ġsurve yed
Ġbankrupt cy
Ġcondemn ation
build ing
corn ered
fing ers
move ment
slight est
Ġmaterial s
Ġbull et
Ġbull ets
Ġdil ate
arran ging
Ġhol iness
Ġthirst y
Ġexhib ited
quar ter
Ġdiscern ible
Ġsteam boat
Ġtreacher ous
Ġconfirm ation
Ġindisc retion
Ġcontrad icted
protect ed
Ġneglig ently
Ġphilosoph ical
Ġtapest ried
intellig ence
intellig ible
IT Y
ball s
dem and
favor able
laugh ing
Ġbenevol ence
Ġpond er
Ġpond ered
separ ate
separ ated
lean ed
lean ing
Ġalle viate
ĠBab uino
ĠLond on
Ġperpet ual
Ġperpet ually
Ġrefr ained
Ġsubstit uted
Ġsurpass es
prevent ed
gold en
object s
ĠAlb ano
accur sed
Ġwhisper ing
EN BER
HÃ© loÃ¯se
Me rely
bal conies
dro ve
dark ness
fig ure
ipe lago
Ġsou ls
Ġchat ting
Ġpant ing
Ġling ered
Ġecon om
ĠMess rs
rapid ly
ĠDes champs
ĠDep arture
Ġorphan s
Ġvivid ly
ĠSic ily
delight ful
Ġdisinher ited
Ġresc ued
preced ed
preced ing
Ġveget ables
Ġforgiven ess
regard ing
Ġdawn ed
endeavor ing
Ġrelax ed
** *
Beau caire
IV E
calcul ations
din ner
faint ing
sight ed
wal k
wond er
yield ed
Ġferv or
Ġferv ently
Ġpav ilion
Ġpav ilions
Ġanti qu
Ġsepulch re
Ġstretch ing
Ġvac ant
ĠHait ian
assist ance
Ġapolog ized
Ġplu cking
Ġchibou que
Ġchibou ques
acknow led
acknow ledge
Ġexclaim ing
contain ing
Ġsuffoc ated
Ġextric ate
disco ver
poet ry
apparent ly
princi pal
Ġphilanthrop ic
Ġstuff s
Ġsnatch ing
suspic ion
Happ y
RA NT
Sure ly
ben ef
earn est
fÃª te
splend id
upt uous
Ġze alous
Ġtip toe
inno cence
resemb ling
Ġfel icity
Ġcoo lly
Ġcod es
Ġlav ish
Ġmyr tle
among st
Ġmanufact ure
ĠVirg il
ĠBet ween
indul gence
Ġcarp ets
Ġexcl usion
ĠNort h
Ġintellect ual
Ġloyal ty
prob ability
prepar ation
Ġinfall ible
former ly
engage ment
smuggl ers
carry ing
Ġhabitu ate
Ġpropriet or
Ġprelim inaries
cand idly
hop es
pron ounce
pisto l
vig orous
ĠâĢ ¢
Ġbas in
Ġbund le
Ġpomp ous
Ġham mer
Ġinex orable
atig able
Ġnap kin
Ġreci pe
ĠMid dle
alo ons
glo omy
ĠTor lonia
mention ed
Ġdisappe ars
Ġdisquiet ude
Ġdesol ate
Ġbrid le
Ġwrink les
Ġconfid ant
ĠJap anese
prosper ity
Ġvend etta
Ġhumili ation
Ġbuck les
Ġpenc il
await ing
Ġdenunci ation
Ġnegot iation
advant age
Ġavar ice
Ġepau lets
belong ed
Corsic a
Ġherald ry
Bon aparte
Jac opo
Perm it
cong rat
ds man
jug al
trem ble
Ġiv ory
Ġtar get
inn keeper
instr ument
Ġshat tered
Ġmuzz le
Ġfath oms
Ġhack ney
Ġlug ger
ĠImp ossible
Ġec st
stro ke
stern ation
Ġgy psies
ĠCol onel
Ġsequ ins
Ġwebs ite
chim ney
Ġstun ned
Ġsocket s
Ġconc erted
ĠBast ia
Ġfeather s
ĠEm peror
deb t
Ġreminisc ences
ĠLÃ© opold
Ġsculpt or
butt oned
Ġglisten ing
exclam ation
Ġcommer cial
Ġadvis er
Ġ149 8
Ġdepri ving
Ġextra vag
Ġchem ists
overwhel med
Ġphleg matic
interrupt ed
Ġbayon ets
ĠTranstever in
Cap ital
Fa ith
cat astrophe
fir mer
iacom o
sud den
Ġtapp ing
instruct ions
relig ious
hakes peare
Ġburi al
Ġfict itious
Ġcla pped
Ġdess ert
Ġpard ons
Ġpla gue
Ġinartic ulate
Ġlarg est
omÃ¨ gue
Ġejac ulated
Ġsapp h
ĠMÃ©d Ã©ah
ĠAra bs
ersbur g
ĠBrut us
Ġamend s
ĠPRO JECT
ĠMorgi ou
ordeau x
Ġcompre hension
Ġspank er
ĠLang uedoc
ĠWater loo
ĠWAR RANT
ĠGUT ENBER
Ġpreval ent
oplect ic
Ġapprent iceship
Ġpebb les
ĠJoh n
Ġinsuff icient
Ġcorpor al
Ãīti enne
Ġclemat is
mandaÃ¯ a
ĠLafit te
Ġsupernum erary
Ġcrucif ix
ĠGUTENBER G
) ;
) âĢĶ
. _
0 4
2 6
3 4
5 4
A B
A L
A M
A dv
B ou
B ad
B our
B less
B ois
B ew
B usoni
C as
C al
C alm
C atal
C ont
C lose
D i
D ark
D rink
F ri
F ort
F ree
F irst
G ra
G one
G reat
G erman
G renoble
G REE
H o
H em
H allo
I B
I ES
L A
L ions
L augh
M an
M ess
M ars
M erc
M ont
M eslay
M IT
N ight
N ext
N eu
O ld
O ver
P ar
P amp
P Ã¨re
P lain
P hilip
P omÃ¨gue
R ou
R et
R ise
R IST
S er
S ix
S ever
S outh
S igned
S aved
S ardin
S wear
T H
T al
U nder
U ntil
W retch
a i
a ur
a oul
b an
b ill
b ers
b urn
b ree
b ull
b orn
b les
b ade
b ott
b rief
b uil
b uss
b road
b ranches
c al
c un
c ate
c ass
c lo
c ott
c ably
c ards
c ampa
c ush
c orrid
c ardinal
c ases
c utter
c alling
c aptivity
d im
d ad
d ie
d are
d ared
d ial
d well
d azz
d rive
d rink
e er
e ce
e ous
e ers
e gotistical
f est
f ond
f ence
f ru
f ranc
f atal
f ool
f ishing
f iture
f isher
f rust
f illing
f ailed
f ancy
f antastic
g a
g un
g Ã©
g ull
g ger
g ates
g aining
g enealog
h id
h ic
h Ã©
h orr
h ony
h unt
h ilosop
h urry
i ac
i ving
i ave
i ents
i ability
i verse
j u
j ar
j ure
k y
k ne
k iss
k issed
l ar
l ake
l oss
l ions
l ined
l atter
l aces
l anted
l ady
l hÃ©
m or
m ut
m ie
m ence
m bÃ©
m ois
m ured
m outh
m akes
m eth
m uggl
m ember
m ixed
m efully
n ur
n ch
n ose
n cy
n igh
n ify
n aked
o ll
o ars
o ked
o cean
p it
p ter
p us
p ire
p ath
p op
p ality
p ices
p aces
p aused
p iast
p oured
p oses
p atience
r am
r ous
r ite
r ices
r ara
s l
s s
s ad
s au
s hed
s entine
s of
s op
s ove
s up
s ick
s ult
s ister
s ense
s itting
s ays
s ailor
s ails
s inister
s chool
t as
t ap
t reat
t av
t led
t les
t ask
t aire
t oward
t ouching
t iums
u a
u ation
u ating
u ctor
v ated
v ois
w he
w and
w ore
w ide
w arted
w icked
w rapped
w reck
w recked
x emb
y right
y pr
y acht
z ation
z ards
z eng
z ka
Ï ģ
Ġ -
Ġ [
Ġ ices
Ġ ***
Ġ Ãītienne
Ġt i
Ġt et
Ġt ight
Ġt ons
Ġt ail
Ġt rop
Ġt ale
he nt
he res
he ight
Ġa h
Ġa right
Ġa head
Ġa like
Ġa rab
Ġa qued
Ġa jar
in er
in ue
in ently
in ously
Ġthe ft
re ast
re ak
re gn
re ased
re lief
Ġw ing
Ġw ars
Ġw ig
Ġw arr
Ġw isely
Ġw recked
Ġw inking
Ġs ter
Ġs way
Ġs now
Ġs ources
Ġs cold
Ġs enator
ou ge
ou ng
ou les
Ġo men
Ġo min
ha b
ha m
ha le
ha el
ha bit
is hable
nd ent
nd ry
er rand
ed e
ed ed
ed uct
ed uc
Ġm ap
Ġm ile
Ġm ace
Ġm ale
Ġm uff
Ġm aker
en nes
en coun
on a
on et
on na
on zed
it ar
it ud
it ute
it ably
it ans
it utions
it zka
or ge
or us
or ated
or ching
Ġb ri
Ġb ough
Ġb ru
Ġb ab
Ġb ier
Ġb orr
Ġb ows
Ġb alm
Ġb ony
Ġb ones
Ġb ids
Ġb asket
Ġb orders
Ġb oring
Ġb locked
Ġb onnet
Ġb risk
Ġf ut
Ġf il
Ġf ert
Ġf ol
Ġf ie
Ġf ated
Ġf ren
Ġf ade
Ġf acing
Ġf ires
Ġf elon
Ġf lexible
Ġf encing
Ġc y
Ġc ust
Ġc age
Ġc ats
Ġc itizen
Ġto iled
ll ied
an is
an ing
an cient
Ġd ome
Ġd ire
Ġd irt
Ġd aught
Ġd yed
Ġd ormice
Ġd appled
Ġd arling
Ġd ilemma
Ġd ialect
Ġd educt
ar gh
ar nt
ar th
ar ine
ar ious
ar ian
ar rest
ar ium
ar vation
ar rested
ar ithmet
Ġh om
es ques
Ġp ou
Ġp ot
Ġp li
Ġp ac
Ġp ite
Ġp hen
Ġp up
Ġp atter
Ġp ush
Ġp iled
Ġp ane
Ġp acked
Ġp ounds
Ġp arcel
Ġp yram
Ġp ulsation
Ġy e
as ive
as ms
as ury
Ġhe li
Ġha ven
Ġha rem
Ġha lted
Ġha unted
Ġin ve
Ġin ch
Ġin co
Ġin most
Ġin ability
Ġin complete
Ġin ev
Ġin laid
Ġin auspic
at ra
at onneau
Ġn our
Ġn ast
Ġn erve
Ġn upt
Ġl ic
Ġl one
Ġl of
Ġl aud
Ġl apse
Ġl uminous
om b
om ing
ĠI V
ĠI de
ĠI mag
ot ive
ot el
ot rop
id a
id ote
id ays
se es
se au
se vent
se arch
se vere
se lected
se ldom
ic an
ic ent
ic il
ic eless
ic olas
im m
im on
im ately
Ġre lied
Ġre wards
Ġre ins
Ġre form
Ġre opened
Ġre igns
le arn
le mon
le af
Ġe ast
Ġe gg
Ġe gotistical
Ġe labor
st u
st ran
st ia
st amped
ent ro
ent hus
Ġbe ats
Ġbe fall
Ġbe ams
Ġwh ir
Ġwh ip
Ġsa ving
Ġg own
ce ase
Ġth umb
ut able
ut ors
ut arch
ut ta
Ġon ward
ad ise
ad lock
ad venture
ill ian
ill ustrious
ith ing
ion al
ion ys
ĠM in
ĠM et
ĠM ost
ĠM ach
ĠM inister
ĠM ONT
ĠM acello
ĠM oliÃ¨re
al ter
al us
al together
Ġwas h
ir ous
ir ons
Ġwith hold
Ġnot ed
Ġnot ion
,âĢĿ âĢĶ
Ġfor ger
Ġfor bear
Ġfor cibly
Ġfor bade
ri val
ri bb
Ġis n
ro b
ro ck
ro lling
ro cks
Ġme lted
et ri
et ies
et tes
ur tiums
âĢĻ .âĢĿ
âĢĻ ?âĢĿ
âĢĻ âĢĶ
Ġat one
ct ed
ct ually
te nder
te bra
te enth
Ġmy th
Ġde pl
Ġde cei
Ġde ference
Ġde eper
Ġde velo
Ġde igns
Ġde ferred
Ġan ch
Ġan ci
Ġan not
to s
to ise
to inette
The ir
ĠC al
ĠC ir
ĠC ose
ĠC alc
ĠC redit
ĠC OU
ĠC apit
ĠC ornÃ©lie
ĠC RIST
ain sc
am m
am or
am id
am et
am ity
am ented
am mes
Ġse ren
Ġse als
ter re
ter ra
li ble
li ves
li vres
li vity
li fted
pe ls
pe lling
pe cch
ĠA ri
ĠA ct
ĠA ges
ĠA uster
ĠA mph
ĠA licante
ĠA GREE
Ġdo ings
Ġst out
Ġst au
Ġst ake
Ġst able
Ġst ained
Ġst ucc
Ġst aff
Ġst ilet
ant ine
ra ge
ra pt
ra band
ra ils
Ġso ber
Ġso othed
Ġso bbing
Ġex as
Ġex pended
Ġex termin
res ult
res ignation
the ories
rom well
ran som
ran eous
il ated
Ġcon ceived
Ġcon form
Ġcon quer
Ġcon cili
Ġcon sternation
qu ill
qu alities
qu antity
qu iry
Ġsu ng
Ġsu rest
Ġsu ndry
Ġher dsman
all ic
all el
ĠD ra
ĠD ie
ĠD ian
ĠD aughter
ĠD ead
ĠD oubtless
th orough
ell ias
ge bra
our d
pp i
ac cess
ac commod
Ġman Åĵu
Ġman aging
out s
out stretched
au g
au x
Ġall ied
Ġall ey
ĠV ol
ĠV end
ĠV II
ĠV ille
ĠV inc
ĠV OLUME
ĠV ecch
ert ion
ert ation
os ities
os als
ul a
ul us
ĠThe atre
ĠThe ss
Ġli king
Ġv ir
Ġv ag
Ġv ary
Ġv iv
Ġv ices
Ġv alley
Ġv ibr
ars hes
ust a
ust ion
em a
em ple
em ents
em inence
ist le
ist urbed
est re
est al
est ines
ĠB el
ĠB ravo
ĠB ordeaux
Ġal ms
Ġkn it
Ġsh rank
Ġsh ivered
Ġsh rieked
un ed
un able
un conscious
un ivers
us a
us ually
us cript
us aro
Ġwhe at
ine a
ĠF l
ĠF in
ĠF are
ĠF OU
ĠF OR
ĠF rosinone
Ġno ises
ak ers
ind is
ind us
art icle
Ġne at
Ġne ct
ĠH a
ĠH en
ĠH ence
ĠH elp
ĠH oliness
gl ed
gl anced
Ġshe ath
Ġshe ep
ost or
ost es
ig ma
ound ing
han ce
han ging
Ġam ply
Ġam iability
cc asion
ight ed
el bow
Ġrep ass
Ġrep ressing
Ġrep rie
Ġrep etition
ond olo
um mer
ass umed
ass isted
ĠS en
ĠS to
ĠS ire
ĠS ign
ĠS ab
ĠS ilence
ĠS wit
ĠS ardin
ĠS atan
ĠS hakespeare
ĠS muggl
ĠP ot
ĠP ug
ĠP alm
ĠP lan
ĠP ale
ĠP ierre
ĠP illon
ĠP riori
ĠP indus
ĠMor ian
ĠĠĠĠ Ġ
Ġup wards
Ġar ouse
Ġpro g
Ġpro s
Ġpro vid
Ġpro cess
Ġpro hib
ord ing
Ġcom ments
Ġcom par
Ġle ather
Ġle velled
Ġle isure
Ġle arnt
Ġj ing
Ġj ack
Ġj aw
Ġj ury
Ġj essamine
Ġr owed
Ġr amp
Ġr ains
Ġr attle
Ġr ational
Ġab du
ng o
me chan
Ġfe at
Ġfe eb
Ġfe igning
rel ate
rel ating
Ġmad men
Ġsee ks
Ġag on
Ġag ility
Ġag hast
Ġhand led
ag re
ress es
Ġro asted
ĠE gy
ĠE vening
Ġsha w
Ġsha green
ru in
pt ure
pt ian
pt uous
Ġus er
Ġus her
Ġun ite
Ġun iting
Ġun utter
Ġun happiness
Ġun earth
Ġun observed
Ġun folded
Ġun intention
Ġun equal
Ġun inhabited
Ġun bounded
Ġun reserved
Ġun questionably
Ġun intelligible
Ġun mixed
Ġun alter
end ing
Ġret ains
ĠT re
ĠT oday
ĠT iber
ĠT wice
ĠT emple
ment al
de can
de emed
de pri
de lighted
de ceased
Ġim itate
lo at
lo red
lo ving
Ġdis pel
Ġdis mal
Ġdis hevelled
Ġdis pelling
ry ch
Ġqu ot
Ġsp y
Ġsp arks
Ġsome body
ign ant
Ġtime piece
Ġrem ount
Ġrem otest
ci ating
fore ver
fore head
Ġcont est
ĠL o
ĠL and
ĠL ater
ĠL oc
ĠL ady
ĠL emonade
ĠL ara
ĠL ieutenant
Ġpo em
Ġpo pl
od es
ĠW ay
ĠW omen
ĠW asili
Ġout lay
Ġout cast
ĠG and
ĠG ris
ĠG reat
ĠG ulf
ĠG entlemen
ĠG rand
ĠG aumard
ĠG abri
ĠG iacomo
Ġgr ants
Ġap oplectic
av oid
we ighed
we eping
man ces
man kind
per ceive
per pet
Ġen am
Ġen um
Ġen cum
Ġen chan
Ġen rich
Ġpre cip
Ġent ity
Ġpl under
Ġpl ains
Ġbr im
Ġbr and
Ġbr ink
Ġbr ute
Ġbr ush
Ġbr itzka
Ġbr illian
ced e
Ġnow adays
ab anis
ier ce
ĠR id
ĠR ep
ĠR ip
ĠR ob
ĠR aoul
ĠR ouge
ĠR atonneau
ĠR ondolo
op atra
Ġacc ents
Ġover fl
Ġover looking
Ġover looked
Ġover ture
Ġover hung
Ġover hear
Ġcl imes
Ġcl asp
Ġcl othed
Ġcl uster
Ġpass ive
be ard
be gged
be held
be wildered
not e
not ice
cha in
cha is
pl ing
pl aying
Ġop al
Ġfriend ships
Ġlet hargy
Ġres cu
Ġres plend
Ġch Ã¢teau
Ġch ina
for bid
Ġper ch
ne ath
ne arer
ne utral
Ġwor m
Ġwor ry
Ġwor sh
Ġwor ship
ove red
Ġoff ices
Ġser ies
Ġser ves
Ġser geant
Ġbl ank
Ġbl under
Ġbl asp
Ġpres ently
Ġlong ing
ĠĠĠĠĠĠĠĠ ĠĠ
Ġmoment ary
Ġthr ows
Ġass ures
Ġass erted
Ġass ailed
Ġspe nding
Ġspe cies
Ġra gged
Ġcha se
Ġcha llenge
Ġcha llenged
Ġcha mois
Ġimp osing
Ġimp erfect
Ġimp erfectly
Ġimp unity
Ġimp enetrable
Ġimp regn
Ġmar g
Ġmar king
orn ed
orn amented
Ġown ers
ple asing
Ġjust ified
Ġsc ent
Ġsc reen
Ġsc rap
Ġsc anty
Ġsc orching
Ġatt uned
Ġco al
Ġco inc
Ġthought less
but e
Ġapp alling
Ġ_ âĢľ
Ġbo ards
Ġbo asted
con str
con struct
con verted
Ġgl ow
Ġgl ide
Ġgl ade
Ġgl aring
Ġinst all
Ġinst itutions
light ning
une asiness
fe ver
fe ars
fe ast
fe atures
Ġste m
Ġste er
Ġste alth
Ġste pping
Ġmight y
erc ules
Ġexce eding
ĠN one
ĠN ext
ĠN OT
ĠN ero
ject ed
Ġhead ed
Ġhead long
Ġcons igned
ex cept
ex ting
ex tending
ex quisite
ex change
ex perienced
Ġhapp iest
Ġord ained
Ġord ering
Ġarm ies
Ġdown y
Ġsto ve
Ġsto res
Ġsto oping
Ġgu ar
Ġgu illot
Ġgu illotine
Ġgu zla
int entions
Ġend ear
com b
com p
com men
com pelled
com posed
Ġbeg s
Ġcr ushing
Ġcr amped
Ġexp iring
rest oration
rest rial
Ġfound ling
Ġhands omer
up stairs
vent ured
Ġfort itude
Ġfort ified
Ġheart less
Ġinte gr
was hed
Ġpe ers
Ġpe ach
Ġpe ep
cl ing
cl asped
âĢĶâĢĶ .âĢĿ
âĢĶâĢĶ ?âĢĿ
ĠO ut
Ġcomm ence
Ġcomm iss
und ert
Ġdist ract
Ġdist ressing
Ġdist orted
,âĢĻ âĢĿ
,âĢĻ âĢĶ
ition al
Ġdeath s
Ġple aded
Ġple beian
Ġmin ers
Ġmen ace
Ġwat ches
Ġwr ing
Ġwr ath
Ġwr ithing
do cum
Ġter med
Ġter rit
Ġter restrial
ener gy
Ġright s
Ġac re
Ġac res
Ġac celer
Ġlo zeng
ip athy
Ġwait ers
Ġsupp lanted
Ġadv oc
Ġtr oubled
Ġtr unk
Ġgi ants
ract able
Ġnight ly
Ġsil very
Ġrest oring
Ġrest ores
Ġlook out
ĠJ une
Ġref ined
Ġtra cked
Ġtra gic
Ġind em
Ġind ictment
Ġind istinct
appe aring
Ġ1 2
Ġ1 7
Ġ1 50
Ġ1 75
Ġinde lible
Ġprom oted
Ġprom oting
Ġmon ster
Ġmon uments
sh r
sh one
Ġmis eries
Ġmis anthrop
Ġmis giving
ens ified
Ġwind s
Ġwind ings
oun ces
Ġdi pped
Ġdi pping
Ġdi viding
Ġdi amet
vers es
Ġworld ly
Ġten ants
Ġint ent
Ġint rust
Ġint onation
act ed
act ive
act ions
act ually
Ġstran gle
ĠAt re
Ġcour te
Ġinter red
Ġinter preter
Ġdep ression
Ġdep osition
Ġbed stead
Ġbed clothes
Ġfl u
Ġfl ask
Ġsub dued
Ġsub limity
Mad eleine
val ier
val ides
In to
In stead
az are
pro ved
pro ving
pro ves
pro cure
pro spect
pro position
pro portion
Ġreg aled
arm chair
Ġla ce
Ġsent enced
ĠIn quiry
ĠIn valides
Ġeff ic
Ġappro pri
Ġmonth ly
cept ions
cept ibility
Ġhope less
Ġdif fused
Ġhundred th
Ġstre ak
Ġran ge
aud ible
Ġext ensive
Ġhear th
Ġcond uctor
sp asm
gu ised
gu ests
cess es
cess ions
Ġmist akes
Ġinf ected
Ġinf lex
Ġinf ernal
Ġinf ancy
Ġinf idelity
Ġspo onful
land ed
land lord
bed s
Ġsecret aries
Ġche erfully
Ġche valier
Ġopp osing
Ġsum ptuous
Ġtal ents
rem ark
rem orse
Ġdel ays
Ġprop osing
Ġprop oses
uri ant
Ġnat ives
Ġdec ked
Ġdec ently
Ġdec reased
Ġdec livity
par able
par bleu
par alyzed
Ġris king
Ġris ks
Ġchar ities
As s
Ġrel ish
Ġrel atively
Ġgra ves
Ġgra ces
su perior
band its
band itti
ron ted
Ġmag nificence
orm ously
Ġmaster piece
Ġsw ore
Ġsw ung
Ġinv ari
Ġinv ites
Ġinv itations
Ġinstant aneously
Ġve in
tem per
Ġcomp ut
Ġcomp et
Ġcomp ose
Ġcomp ens
Ġcomp osition
ins isted
Ġsight s
Ġdu ches
Ġdet ained
Ġdet ail
Ġdet ention
Ġdet ested
Ġdev iated
Ġadm itting
Ġobser ver
gr ass
Ġ2 9
Ġrose tte
Ġmo ans
Ġband itti
Ġcontr asted
ignor ance
Ġget s
Ġpar as
Ġpar ched
Ġpar allel
Ġmeet ings
Ġlad ders
Ġel icited
ĠLu cull
Ġblack ened
Ġbest owing
form idable
ape ndent
head s
Ġheaven ly
Ġtri es
Ġtri gger
Ġtri bute
hand some
Ġhum or
Ġless ons
There fore
Ġcaptain s
dis closed
dis position
dis inher
ĠTh Ã©
Ġprof itable
iv ities
iv ative
iv oli
ph ine
ph itic
fic i
Ġconvers ant
eng ers
Ġcle w
Ġcle an
Ġcle ave
Ġcle aving
Ġaffect s
Ġir resolute
iol og
Ġdro pping
Ġconceal s
cont racted
Not withstanding
Ġsk irt
ati ves
Ġred dened
Ġrec ited
Ġrec laim
Ġrec reation
Ġconv icted
Ġround ed
Ġyear ly
app re
Ġland sc
Ġoccup ations
vo ices
vo cably
Ġ5 3
Ġ5 8
Ġte acher
Ġte legr
Ġdest itute
Ġneed le
can e
Ġpost ure
Ġpost poned
att ract
att ina
att itude
att entively
att entive
Ġexpl ic
Ġrespect able
Ġsl aughter
Ġsl ower
Ġsl iding
Ġsl ugg
Ġsl oop
leg ious
leg rap
over turn
sm elling
Ġdr ows
ey ebrows
ob ser
ob sc
Ġlearn s
Ġspot less
Ġwit hered
Ġeng rossed
ĠJu an
pass ions
Ġbur ying
ĠLa w
Ġbro ker
ask ier
ĠSt ate
Ġart ists
Ġart ifice
Ġru ff
Ġru pture
Ġresol ving
Ġresol utions
Ġsubject ed
Ġ3 1
Ġ3 5
Ġ3 6
Ġ3 7
Ġprob ity
Ġsmiling ly
cons ent
cons ult
cons cience
Ġcur led
Ġcur ls
Ġcur rent
Ġcol oss
Ġstri p
Ġstri fe
Ġkill s
Ġcountry man
sc ru
sc rutin
sc rupulous
Ġlead er
Ġpun ctually
ĠCha mp
ĠCha pelle
ĠCha mbÃ©
imp ressed
imp ati
Ġexec utions
Ġnecess arily
Ġhelp ed
aff irm
des k
des igned
des cent
des perate
des cription
des cend
des irous
Ġgrat ifying
lu de
Ġsy mb
Ġsy llable
Ġblood h
Ġblood y
Ġbetr ays
Ġaccept ing
Ġled gers
Ġdespair ingly
pres ently
pres ume
pres erve
pres ervation
ric hes
some what
Ġstrong est
ean ing
Ġfire works
Ġjud ging
Ġprevent s
Ġprevent ing
ste el
Ġtremb les
Ġdin es
arr ow
ĠAl ger
Ġsun light
Ġsun shine
gg io
Ġ4 00
ĠU nder
Ġsens ible
sec rÃ©
Ġequ als
Ġplan e
Ġrequest ing
bet h
Ġmer id
Ġreal ities
Ġpat ri
Ġpat ting
ĠAll ow
Ġdisp ense
off ence
off ering
off icial
off ended
tre ated
Ġbar red
Ġbar rel
Ġbar ons
Ġpain ter
ortun ities
Ġfright fully
Ġenter prises
bit ter
Ġsad dle
Ġship builder
ĠCorsic ans
joy ful
Ġfirm ament
Ġbreakfast ing
chan ces
Ġalong side
Ġcre ak
Ġcre pt
Ġhost ility
ches a
ĠX IV
Ġri pe
Ġri fle
has is
Ġgall oping
Wh ither
vol utions
zz o
Ġthick est
Ġsole ly
Ġthank ful
Ġtor mented
Ġtor por
Ġspect res
Ġspect ator
Ġcell s
Ġgate way
Ġcompl ac
Ġcompl ained
Ġcompl aining
Ġcompl imented
Ġmillion aires
aw aken
aw kward
min ent
min able
Ġobe ying
mar vellous
mar chais
Ġund isturbed
Ġdef iance
Ġexact ing
Ġsucc ession
Ġamount s
Ġpurcha ser
foll owers
Ġdescri bing
Ġadmir ing
cr im
cr utable
poss ibility
Ġmus cles
Ġmus cular
Ġbra cket
Ġcloud y
gi as
pers piration
Ġtend ing
Ġfast ing
Ġdri ving
Ġdri ves
Ġbitter ness
rep orts
Ġfig ured
Ġcab inet
Ġincl ude
stru ggl
Ġsol ved
Ġsol vent
Ġpreser ver
Ġinflu ential
Ġsweet meats
All ow
Th ou
see king
Ġinterrupt ion
Ġburst s
just ice
just ified
Ġrecom mence
thr ice
Ġrid icule
ĠJac obin
reco ver
Ġbound less
Ġfal tered
Ġfal tering
vere r
Ġforward ed
Ġwrong ed
Ġjewell ers
Ġjewell ery
Ġmed itations
Ġrecei ver
ĠAr rived
Ġexecution ers
Ġtrembling ly
Ġwa ved
Ġmass ac
Ġlu cern
Ġange ls
Ġenc ouraged
Ġtrans ition
Ġwond ers
Ġwond ered
Ġcra g
Ġcross es
Ġproceed ings
about s
Ġexchan ging
Ġconfess ing
Ġcondem ning
500 25
Paris ians
Ġweak er
Ġstif le
conf idential
conf etti
Ġcolor ing
Ġsplendid ly
Ġcharacter ized
Ġed itor
Ġed itions
Ġed ifice
Ġlab ors
Ġlab ored
Ġlab yr
Ġgen ial
Ġenjoy ments
Ġaccompl ishing
inc red
ĠMar riage
ĠMar chesa
Ġsty l
Ġstat us
Ġfail ing
Ġattack ing
che eks
fl at
fl ame
fl ower
heart s
Ġvent uring
Ġprinci ple
Ġprinci pality
cond escension
Ġinha led
Ġcho col
Ġregard ing
Ġ181 7
Every where
Every body
ale psy
lam ent
Ġdeal ings
Ġstu ck
Ġstu pendous
umb arium
suff oc
suff erer
suff erings
contin ually
Ġcup boards
Ġlif ting
Ġsacri legious
Ġshru g
Ġneg ative
Ġunexpected ly
death s
Ġguard ians
Ġcrim son
Ġdecla res
dist ant
dist ribut
dist urbed
pal ace
Ġ6 4
Ġ8 4
Ġ8 6
Ġcreat ing
Ġcalcul ations
Ġweight y
Ġvol untarily
Ġvol uptuous
Ġblind ly
Ġblind ness
Be lieve
sha re
sha red
sha pe
sha ke
sha de
sha king
Ġavo ided
Ġtheat rical
Ġorig inated
Ġdeli vering
Ġconn ections
Ġrepro ached
ĠLou vres
Ġchoo ses
Ġdistingu ishable
ĠChrist i
Ġdiv ul
Ġdiv ined
Ġdiv ans
Ġengage ments
400 4
400 6
pri ze
perf orm
tr ademark
rec all
Ġthro bbing
Ġvar iance
Ġcontract ion
Ġdevoted ly
Ġparaly sis
sub mit
reg ister
Ġprud ently
Ġthreat en
child ren
Ġvill ain
Ġvill ains
Ġremind s
comple ted
comple xion
401 7
four th
mist ake
mist ress
Ġmat ted
Ġmat rimony
Ġmort ally
Ġsell ing
Ġstorm s
Ġspir al
Ġspecul ating
Ġimmense ly
inqu ire
Ġfro ze
Ġfra il
Ġfra ught
Ġfra grant
Ġrely ing
Ġspeed ily
ref used
Ġmas tered
Ġmas quer
ane ous
Ġnarr ator
utter ly
tel piece
ĠBy ron
Ġric her
Ġfold ing
exc ited
Ġarmchair s
supp ort
supp orted
Ġdescend ant
Ġanticip ate
Ġanticip ating
Ġanticip ations
mag istrates
mag nificence
Ġbou levards
Ġrever se
Ġrever ted
Ġstra pping
Ġremorse ful
Ġpreced es
ĠRe ign
Ġglad iator
Ġtelegraph ic
Ġundert aking
Ġfond ness
Ġpiast re
Ġheight ened
Ġbeat ings
Ġaccus ing
Ġexclam ations
Ġpeace ably
speak s
Ġpenetr ation
402 6
402 8
Ġsn ake
hast en
hast ened
Ġbal ancing
Ġbal uster
answ ering
ĠArab ia
Ġrob es
Ġrob ber
Ġrob bery
Ġentertain s
Ġentertain er
Ġentertain ing
Ġentertain ment
Ġlock s
Ġpursu its
Ġbenef icent
Ġlabor atory
pur se
pur suing
Ġver tebra
Ġtest a
Ġtest im
Ġtest ament
Ġtreat y
har bor
Ġgay est
Ġconver t
Ġconver ted
ĠNot re
Ġperfor mances
Ġcorrespond ing
Ġcorrespond ence
mount ain
pow der
Ġcand les
Ġciv ilities
Ġcoward ice
Ġinvent ion
Ġinvent ory
Ġgreen ish
Ġascertain ing
Ġrub y
Ġspread ing
Ġobst acles
Ġobst inately
Ġstrict ly
Ġparagraph s
Ġcavern s
Ġframe work
Ġcontempl ate
Ġcontempl ating
cap able
cap rices
fell ows
wr iting
Ġpan el
Ġpan els
Ġdecl ined
Ġstup or
Ġstup idity
Ġcomfort ably
ruct ive
Ġdisple asure
Ġconsol ing
Ġstupe faction
Ġfruit less
direct ly
direct ions
fam ous
Ġcat acombs
Ġcat alepsy
Ġinher ited
Ġlod ges
Ġsus pend
Ġproc laim
Ġproc laimed
Ġprov ince
mean while
coach men
Ġturnkey s
Ġ11 0
Ġcerem onious
Ġlux urious
Ġlux uriant
cir cle
del ay
wait ed
Ġfun ction
Ġhabit ual
Ġdisgu ises
comm encement
Ġpear l
Ġintense ly
Ġinsp ires
Ġinterrog ator
grat eful
Ġembroid ery
Ġdefend ing
Imp artial
got ism
Ġing ots
Ġbare ly
Ġcord s
Ġcord ially
Ġclaim s
Ġclaim ing
Ġornam ent
dead ly
Ġassert ions
Ġspeech less
excell ent
Ġperform ing
consid ered
consid ering
consid eration
Ġreveal ing
secret s
secret ary
secret aire
Ġjournal ists
French man
Some one
cab in
cab riolet
di plom
Ġtot tering
Ġdazz le
keep ing
Ġobed ient
Ġobsc ured
conv iction
Ġconspir ator
exam ining
Ġvoy ages
Ġ10 6
Ġstruggl es
Ġmerchant s
recollect ed
Ġemploy er
Ġemploy ee
Cha mber
Cha ussÃ©e
uff ed
Ġta pped
Ġsan ct
stri ke
ĠMed usa
Ġwear ied
Ġsob bed
accompan y
accompan ying
Ġshout s
Ġard or
Ġrum or
Ġrum ors
dep uty
Ġimm aterial
Ġbrut ality
Ġbold ness
Ġlantern s
cast ing
sign s
Ġbod ily
Ġcree ping
Ġhero es
adm ir
ĠAlexand ria
Ġcontempt uous
Ġshr ill
Ġshr unk
Ġrepent ance
Ġchurch man
Ġregular ity
Ġcheck s
Ġcomply ing
Ġ20 6
box es
Ġprivile ges
Ġdiscus sed
Ġencoun ter
Ġencoun ters
Te pelini
cour tes
don ate
mur mured
sol icited
tran sp
Ġtro op
Ġincon stant
Ġincon ceivable
Ġeccentric ity
stra ight
Ġcomb ined
Ġcomb ination
ĠTH IS
ĠLi ber
ĠNever theless
Ġransom ed
Ġvex ation
possess ions
success ively
De arest
ca vern
fin ally
gall ant
gall ery
pun ctuality
wit nessed
Ġmal ice
Ġmult ip
Ġcush ion
anx ious
anx iously
Ġdict ating
Ġpred omin
Ġreass ure
Ġshirt s
ĠPet ersburg
Ġpoet ic
ĠGu zer
Ġscar city
Ġscream s
Ġscream ing
Ġattribut ed
Ġinfinite ly
Ġdecor um
tremb led
Ġhurried ly
cry stal
eight y
listen ing
pi qued
pen sed
Ġaven ging
Ġaug mented
inci o
Ġble ed
Ġfest ivity
Ġcav ity
imag ined
Ġreward ed
strange ly
ĠCl ose
Ġsolic it
Ġsolic ited
Ġsolic itude
Ġexquisite ly
Ġadvers ity
ĠRo i
Ġimpro bable
exec uted
Ġexped itious
Ġsubter raneous
Ġinvest igate
Ġsurround s
polit ics
99 8
cert ainty
cert ificate
ien ne
ien na
sal on
Ġwin ning
Ġoper ations
Ġcaut ious
Ġcaut iously
Ġder ivative
Ġpull ing
step mother
Ġiss ue
Ġunt ouched
Ġexagger ation
Ġexagger ated
ĠFontaine bleau
Ġarch way
Ġattach ment
Ġinstr uments
Ġrefer red
Ġrefer ring
Ġshock ing
Ġcondemn s
diffic ulty
diffic ulties
Ġtempest uous
def e
doubt ful
move ments
tal k
Ġtax ed
anim als
Ġhol es
iche ver
stif le
Ġexhib it
Ġconstru cted
third s
Ġmanage ment
ĠVen us
empt y
Ġdiscern ed
Ġdischar ged
Ġspr ings
Ġscru ple
Ġapplic able
Ġsteam er
Ġtram pling
Ġintim ated
Ġmoist ure
Ġtemper ament
Ġtemper aments
Ġcomplaint s
Ġinhabit ant
Ġwithdraw al
intellig ent
Rem ain
calm ness
dem anded
div ine
mod eration
sac red
Ġtast ing
repro ach
Ġmild ness
Ġflock s
Ġhunt ed
Ġren ounced
Ġren ounce
Ġbeque athed
Ġsovere igns
ĠBab a
ĠBab ylon
assass in
Ġdisappoint ed
Ġpretend s
Ġmarks man
Ġappl aud
sold ier
Ġstead ily
Ġsupplic ated
spo onful
Ġslee ps
Ġslee pless
minister ial
ĠQu aker
ĠQu ai
inquir y
determ ination
Flore ntin
More over
Nap les
dro pped
ev il
fac ulties
fig ured
field s
lit z
ox en
Ġtig ers
Ġselect ing
rapid ity
ĠDep uties
accompl ish
Ġreplace ment
ĠPe ople
Ġrust ling
Ġdiss ip
Ġdiss ertation
Ġdisinher it
Ġclut ched
forget fulness
neigh bors
Ġimprud ence
Ġindis position
Ġnewspap er
Ġveget able
disp ute
disp oses
Ġdrown ed
occasion ally
Ġequip ment
Excell ent
Ġdefect ive
incre ase
Ġphilosopher s
Ġcivili zation
Ġorgan ized
Beau vois
Sp ada
bell ious
cup idity
calcul ated
fle w
gaz ed
pict ure
tri al
yield ing
Ġess ayed
Ġess ential
Ġty pe
repe ated
recom mend
renew ed
Ġmould ed
enem ies
Ġpuzz le
Ġpuzz led
Ġinsect s
ĠMore over
Ġdefe ated
Ġanti que
Ġsepulch ral
Ġconj ure
effort s
Ġvac ancy
Ġshri eks
ĠHait ians
ĠSe ine
ĠSupp osing
Ġprolong ed
Ġroll s
Ġimplic it
Ġplu cked
Ġindef inable
Ġindef atigable
Ġdiver ted
Ġgrandchild ren
Ġextric ated
guard ian
disco very
poet ical
Ġsket ch
Ġsket ched
princi ple
ĠSpani ard
Ġcordial ity
Ġgleam ed
ĠAcadem ician
dra wn
dread ed
fÃª tes
jac ent
sil ent
wed ding
Ġrom ances
Ġze al
Ġalight ing
reck on
resemb les
Ġsed uced
Ġox en
Ġcod icil
Ġrevolution ary
Ġsav age
cerem ony
Ġmyr tles
Ġant idote
ĠCons ider
Ġcontribut ions
Ġterri fying
shud dered
Ġflour ished
Ġdetest able
Ġdetach ment
smuggl er
Ġparticip ation
Any one
Ġgallant ry
million aire
embarr assment
Ġdimin ish
Ġhabitu ated
Ġprelim inary
Ġpubl ished
cch i
dri ver
fow l
fright ful
gro an
jew ell
vain ly
zer land
Ġaris es
Ġblo omed
Ġfre ight
Ġcro cod
Ġcam bric
Ġcam ellias
Ġdru g
Ġdru gg
otes que
Ġreconc ile
Ġbeto ken
Ġbeto kened
Ġgent ler
Ġgent leness
ĠMon thy
ĠMare ngo
Ġmelod y
ĠCle opatra
amount ing
peculiar ity
ĠApp ian
ĠAcc oules
ĠAustri a
Ġstair cases
Ġexert ions
resol ution
accept ed
Ġvener able
ĠBor gias
igr amme
Ġarg uments
Ġdisappro ve
ĠRem ember
Ġclum ps
beat ings
Ġconscient ious
Ġconscient iously
Ġtermin ate
Ġtermin ated
Ġcondes cend
suc ceed
Ġcorrobor ation
Ġirre vocably
Ġmusk et
persu ade
interrog ate
Ġestim ated
Ġerr ors
reflect ions
Ġhospital s
destro yed
Ġhypocr ite
Ġhypocr itical
Ġsteadfast ly
instinct ively
neighbor hood
Bet ter
Che val
Gree k
Supp ose
eager ly
fet tered
hosp itality
maint ain
paint ing
pens able
parent s
prud ent
penet r
vill age
waist coat
Ġ........ ......
Ġtac it
Ġbla z
Ġbaptism al
Ġcott on
Ġcultiv ation
Ġtos sed
Ġtops ails
Ġdili gence
esp ierre
Ġpedest ri
Ġinit ial
Ġlink s
Ġlament ations
imper ial
Ġet c
Ġeman ate
stream ed
Ġsag acity
Ġge omet
Ġgidd y
ĠMac beth
ĠCamp agna
choo se
ĠAv ignon
Ġstrew ed
Ġsoot he
Ġexper iments
threat ening
ĠBay onne
ĠHar lay
ĠPa olo
Ġarc ades
Ġdissim ulation
Ġsports man
Ġremo ving
ĠLat in
ĠGra cchi
weap ons
aband on
Ġprot ested
Ġassign ment
Ġcrum pled
Ġafflict ions
Ġinsinu ate
Ġinterf ered
spir ited
Ġreluct antly
Ġparch ment
Ġharlequ in
Ġpenit ent
Ġsalut ary
carb ine
contempl ation
Ġfurr owed
Ġphysiogn omy
Ġlampre y
Ġstockbro ker
Ġambassad ors
Ġsangu inary
Ġgoddess es
Ġparadox es
summon ed
inhabit ant
ĠAlban ian
furnish ings
pictures que
Ġsuperflu ous
Ag reed
Abs olutely
IL ITY
aqu a
bul ent
eleg ant
fr ame
fra gments
fund s
mort al
mazzol ato
posit ively
shap ed
Ġign oble
Ġaus pices
remed y
Ġsarc asm
Ġskelet on
Ġoy sters
Ġfost er
Ġdur st
Ġhilar ity
Ġpau sing
Ġlun atic
Ġliter ally
Ġult imately
Ġangl es
pear l
ĠAqu apendent
ĠDup rez
thirst y
ĠBag dad
ĠBarri Ã¨re
Ġshi vering
ĠFen estre
associ ated
Ġadjust ed
deg ree
Ġspl ash
cipl ine
Ġpopul ation
Ġenlight en
Ġaccost ed
Ġconserv atory
ĠOlymp us
propri et
Ġoppon ent
inspect or
Ġadmin istered
phin Ã©
consol ed
imprison ment
ĠAnge lo
Ġmedic ine
Arch ive
Christ ian
Ġdeliber ately
Ġsuperstit ious
decapit ato
Ġeconom ical
Ġextravag ant
AM AG
Bew are
Gra cious
MIT ED
Neu f
Par bleu
Philip pe
Rou le
Ser val
Sever al
Tal king
bree ches
buil t
buss es
cun iary
cate l
campa ign
frust rated
genealog ical
hunt ing
iave lli
lhÃ© ry
pop ular
piast res
sentine l
sove re
tap est
tav olet
whe els
wicked ness
xemb ourg
ypr us
Ġtet anus
hent icity
Ġarab esques
Ġaqued uct
Ġster let
Ġomin ous
itud inously
Ġbough s
Ġborr owed
Ġfie nd
Ġfren zy
Ġcust ody
Ġdaught ers
Ġhom age
Ġphen omen
Ġpatter n
Ġpyram ids
Ġheli otrop
Ġinco herent
Ġnast urtiums
Ġlof ty
ĠImag ine
lemon ade
Ġegg s
Ġelabor ate
Ġwhir led
ĠMach iavelli
ĠMONT E
Ġdevelo p
Ġanch ored
Ġanci ents
ĠCose lli
ĠCalc utta
ĠCOU NT
ĠCapit ol
ĠCRIST O
Ġseren ity
pecch ia
ĠAuster litz
ĠAmph it
Ġstucc o
rapt ured
Ġconquer ors
ĠDian a
gebra ic
ĠVol ga
ĠVinc ennes
ĠVecch ia
ĠThess aly
Ġvag ab
univers al
ccasion ally
Ġreprie ve
ĠSwit zerland
ĠPug et
ĠPalm a
ĠMorian i
Ġprovid ent
mechan ically
Ġfeeb ly
ĠEgy ptian
Ġunutter able
Ġunearth ly
Ġunalter able
decan ter
ĠLater an
ĠLoc usta
ĠWasili o
Ġenchan ter
Ġbrillian cy
ĠRip etta
ĠRob espierre
Ġrescu ing
Ġresplend ent
Ġblunder busses
constr ained
construct ed
exting u
Ġguillot ined
Ġlozeng es
Ġmisanthrop y
Ġinvari ably
Ġduches s
ĠLucull us
Ġslugg ish
obsc urity
ĠChambÃ© ry
affirm ative
secrÃ© taire
Ġlabyr inth
Ġchocol ate
Ġmasquer ade
ĠGuzer at
Beauvois in
Ġcrocod iles
ĠMonthy on
ĠAquapendent e
Ġheliotrop es
, ...
. ?âĢĿ
. âĢĶâĢľ
1 00
4 03
5 2
9 0
9 8
9 00
: âĢĶâĢĺ
; âĢĶâĢľ
? _âĢĿ
A u
A w
A nt
A ngl
A delmonte
A frica
A ugust
A licante
A CH
B O
B es
B el
B ab
B ern
B elle
B eng
B oville
B artolomeo
B lanc
B russels
C ons
C oun
C II
C arnival
C Ã¦s
C har
C rus
C EN
C ornÃ©lie
D E
D r
D is
D an
D ay
D ef
D au
D ame
D ie
D entro
E l
E ight
E ach
E urope
E astern
F O
F ull
F ix
F ear
F ool
F ontaine
F alse
G r
G ir
G rief
G rand
G lad
G iovanni
G recian
G aumard
G eor
H ell
H art
H ate
H oly
H umph
I nd
I di
I RE
I ON
J une
J oannes
J udge
K ing
K now
L E
L L
L ou
L au
L ive
L ond
L ong
L ife
L uc
L ara
L ike
M r
M en
M on
M and
M od
M ove
M ason
M inister
M ondego
M ortes
M eaning
N E
N on
N ear
N umber
N ubian
N ineteen
N ero
O K
O pen
O SE
O liva
O wing
O stia
P l
P en
P res
P art
P ol
P ont
P sha
P rÃ©
P artic
P lease
P romise
P hilosop
R est
R ight
R ospoli
R Ã©serve
R eflect
R IB
S S
S on
S it
S al
S ab
S ister
S aying
S ailor
S eptember
S uff
S atan
S CII
T re
T ur
T ime
T oul
T urning
T uscan
T uileries
T iboulen
T AR
T unis
T rÃ©port
U p
U LL
V I
V iol
W O
W o
W ort
W ild
_ :
_ âĢľ
_ ,âĢĶ
_ .âĢĻ
a res
a ho
a warded
b on
b ot
b ent
b res
b ore
b ef
b one
b la
b urned
b aris
b und
b by
b ages
b old
b ones
b ooks
b ordered
b ranch
b askets
b arrow
c is
c hat
c ow
c ad
c ill
c Ã©
c ord
c ile
c av
c rew
c ene
c ool
c oward
c reet
c atacombs
c ouraged
c ouch
d ic
d il
d ust
d ine
d ure
d ose
d ru
d ry
d ign
d ried
d ise
d erous
d led
d ug
d ip
d den
d ining
d ifference
d iable
d emon
d uties
d anger
d ormice
d appled
e g
e ur
e king
e ens
e yed
e pless
e ighteen
e enth
e lixir
f s
f at
f ly
f ess
f ers
f ate
f ight
f ated
f led
f ix
f ern
f ty
f lock
f itted
f ting
f rig
f inal
f reed
f asc
f arther
f uge
f atig
f lying
f alse
g ather
g ol
g age
g od
g arn
g ory
g ister
g ird
g ays
g any
g ences
g enes
g athered
h s
h ur
h ich
h ol
h ide
h od
h ired
h orrid
h iding
h onored
h istic
h oping
i am
i ge
i ating
i ations
i pping
i plic
i quette
i Ã¨res
i ppi
j est
j ured
j aw
j essamine
k et
k ens
k no
k illing
l is
l as
l ac
l au
l ink
l ately
l ting
l ins
l inen
l ashes
l arger
m ation
m are
m ency
m ult
m io
m ene
m atch
m uttered
m eful
m ajor
m ock
m oust
m iles
m otive
n y
n ally
n ois
n ations
n ical
n ino
n ative
n ails
n ineteen
o ar
o il
o per
o vern
o bed
o iled
o pera
p ill
p red
p li
p pe
p ine
p ig
p ure
p od
p ink
p ons
p air
p ired
p hen
p ick
p ace
p ins
p ressing
p owers
p ots
p hant
p ulse
p enses
p avement
p oniard
p ierce
r p
r ow
r ity
r ide
r ary
r ade
r ality
r atch
r usion
r ushing
r othal
r Ãł
r adiant
r atiating
r tho
r umor
s li
s ke
s ust
s ong
s ought
s lo
s ened
s ave
s ions
s ug
s igh
s aving
s ignor
s ounded
s cience
s ighed
s low
s enses
s incerity
s outhern
t z
t ot
t ur
t ast
t ire
t own
t ax
t aught
t ower
t ailor
t race
t ruly
t asted
t umult
t inted
t utor
t ieth
t idings
t ouch
t igo
t omb
u x
u et
u em
u ish
u ck
u ros
u ously
u pper
u icide
v an
v ion
v os
v ast
v ary
v ised
v oy
v ault
v iet
v ulgar
w arn
w ip
w ounded
w arr
w ishing
w retch
w aved
w arks
x im
x ious
x ury
y ment
y ards
y ellow
y Ã¨res
y mph
z or
z el
° ÏĢ
Î ´
Î µ
Ġ $
Ġ il
Ġ iced
Ġ ....
Ġ Î¼
Ġ ÏĢ
Ġ á¼
Ġt ent
Ġt res
Ġt ame
Ġt ide
Ġt ier
Ġt ick
Ġt arn
Ġt ub
Ġt ables
Ġt ext
Ġt yr
Ġt ips
Ġt icket
Ġt enth
he ll
he ir
he aring
he tic
he mes
he eled
Ġa ce
Ġa ver
Ġa rom
Ġa qu
Ġa pt
Ġa vid
Ġa unt
Ġa ching
Ġa version
Ġa warded
in it
in as
in ell
in ked
in vent
in ia
in sed
in ning
in come
in ches
in stru
in valid
in cial
in comprehensible
in laid
in cessantly
in asmuch
in voluntarily
in famous
Ġthe olog
re ar
re le
re ver
re te
re ened
re ach
re br
re cei
re cy
re ments
re par
re nding
re jo
re cent
re gs
re venge
re placed
re conc
re clining
re cesses
Ġw re
Ġw es
Ġw oo
Ġw est
Ġw are
Ġw ither
Ġw rested
Ġw agon
Ġw ainsc
Ġs ch
Ġs urn
Ġs land
Ġs ins
Ġs ession
Ġs ashes
Ġs cope
Ġs ipped
ou x
ou ac
ou ghed
ou ettes
Ġo st
Ġo ven
Ġo val
Ġo mn
Ġo rifice
Ġo aks
ha ro
ha ul
ha ste
is k
is on
is te
is ive
is co
is olated
is odes
nd ress
nd ise
er an
er ly
er ness
er ring
er als
er askier
ed es
ed ition
ed iments
ed itor
ed nes
ed istribut
Ġm un
Ġm ol
Ġm ud
Ġm utes
Ġm aces
Ġm ater
Ġm aled
Ġm arshes
Ġm attina
Ġm aho
en a
en ic
en able
en sed
en ormous
en ching
en closure
en uating
on ian
on tory
on ze
on iously
âĢĿ ,
âĢĿ ),
it ome
it us
it les
it imate
it ives
or ic
or al
or ig
or ia
or ative
or iety
or arily
or phan
or gnette
Ġb ot
Ġb our
Ġb oo
Ġb ust
Ġb ud
Ġb ark
Ġb ip
Ġb atter
Ġb its
Ġb orrow
Ġb iv
Ġb att
Ġb order
Ġb lighted
Ġb athing
Ġf ence
Ġf ranc
Ġf une
Ġf ined
Ġf its
Ġf iss
Ġf ring
Ġf oul
Ġf ists
Ġf lies
Ġf ountain
Ġc it
Ġc as
Ġc ess
Ġc os
Ġc ass
Ġc ance
Ġc act
Ġc atal
Ġc owards
Ġc ooks
Ġc asks
Ġto kens
ll s
ll is
ll er
ll es
ll ey
an i
an ke
an guish
an teroom
an illa
an uary
Ġd ut
Ġd and
Ġd un
Ġd art
Ġd oub
Ġd up
Ġd orm
Ġd ainty
Ġd ashing
Ġd arts
Ġd ainties
Ġd regs
ing y
ar ic
ar os
ar ave
ar board
Ġh oo
Ġh ire
Ġh orn
Ġh ills
Ġh ilt
es ame
Ġp i
Ġp he
Ġp ran
Ġp ark
Ġp rist
Ġp ots
Ġp ont
Ġp ump
Ġp inc
Ġp sy
Ġp ike
Ġp icking
Ġp adlock
Ġy at
Ġy ew
Ġy earn
as ps
as ide
as ci
as pect
as po
as leep
as bourg
as cend
as urable
Ġhe m
Ġhe n
Ġhe ather
Ġhe wn
Ġhe rois
Ġhe redit
Ġhe aping
Ġha y
Ġha ul
Ġha unt
Ġha iling
Ġha zard
Ġha zel
Ġin ert
Ġin ured
Ġin val
Ġin cess
Ġin effect
Ġin accurate
Ġin active
at red
at able
at ious
at ical
at ement
at tended
Ġn ic
Ġn ick
Ġn aught
Ġn elle
Ġn aut
Ġn ib
Ġn ests
Ġn arc
Ġn argh
Ġn ymph
Ġn anke
Ġl ur
Ġl ap
Ġl ind
Ġl ime
Ġl ach
Ġl ack
Ġl ined
Ġl ingu
Ġl iterary
Ġl ashes
Ġl acon
Ġl oung
Ġl inked
Ġl orgnette
Ġl asci
om it
om itted
om atic
ĠI I
ĠI N
ĠI mmediately
ĠI ND
ot is
ot ent
ot hered
ve il
ve rest
ve yed
id o
id ated
id ents
id els
se at
se em
se use
se izes
se cluded
se verely
ic is
ic ar
ic ke
ic em
ic ers
ic ably
ic ulture
im s
im ing
im us
im pre
im pass
im ming
im mediate
im itar
Ġre ef
Ġre un
Ġre du
Ġre alm
Ġre appear
Ġre iter
Ġre open
Ġre bu
Ġre appearance
Ġre aches
Ġre build
Ġre lies
Ġre liance
Ġre eled
Ġre counted
Ġre ferences
Ġre ceding
Ġre action
Ġre verses
Ġre bellious
Ġre eking
Ġre vised
le ge
le au
le ap
le aped
le ading
le aping
le agues
le ece
Ġe g
Ġe ll
Ġe ther
Ġe vo
Ġe lig
Ġe book
Ġe pic
Ġe gress
Ġe gotist
Ġe bull
Ġe gotism
st ad
st ag
st end
st ained
st up
st ory
st inct
st raw
st ables
st ancy
st omach
st arvation
ent ing
ent ation
ent ment
ent iv
Ġbe et
Ġbe thought
Ġbe fell
Ġbe fallen
Ġbe headed
Ġbe ads
ow d
Ġwh ichever
Ġsa ge
Ġsa us
Ġsa ves
Ġsa bres
Ġg am
Ġg oss
Ġg ait
Ġg aud
Ġg rud
Ġg ale
Ġg alv
Ġg ames
Ġg ulp
Ġg orge
Ġg ourd
Ġg eran
ce a
Ġth warted
ut her
ut ch
ut most
ut rality
ad as
ad ation
ad iz
ad vent
ad elle
ad ored
ad jo
ad mit
ad jacent
ill o
ill ation
ill ness
ĠM ort
ĠM ount
ĠM os
ĠM ust
ĠM art
ĠM ond
ĠM other
ĠM aced
ĠM iss
ĠM aria
ĠM Ã¨re
ĠM arshal
ĠM artin
ĠM azzol
ĠM ountain
al ier
al tern
al armed
al ties
al ighted
Ġwas hes
ir a
ir s
ir ass
ir ium
ir resistible
ir ritated
ir reproachable
gh ill
gh ien
Ġnot oriety
Ġas pire
Ġfor cing
Ġfor sake
ri ver
ri ls
ri ft
ri ads
Ġis let
Ġis olated
ver tis
ver dict
ro ix
ro cious
ro llable
ro dden
ay ette
Ġme te
Ġme als
Ġme agre
Ġme phitic
Ġu mb
et t
et ime
et ted
et iquette
ur b
ur is
ur gl
ur ities
ur rence
ur ches
âĢĻ -
âĢĻ ?
red ients
Ġat om
Ġat rocious
ct ions
te ch
te cha
te mp
te eth
te phen
Ġmy os
Ġmy riads
Ġde m
Ġde ci
Ġde igned
Ġde af
Ġde uced
Ġde veloped
Ġde mons
Ġde ceased
Ġde cease
Ġde jected
Ġan aly
Ġan techa
to re
to il
to ilet
to cracy
ĠC am
ĠC ond
ĠC ag
ĠC ave
ĠC alm
ĠC hall
ĠC ais
ĠC alv
ĠC orne
ĠC alas
ĠC ours
ĠC Ã©s
ĠC romwell
ĠC abanis
ĠC yprus
ĠC rete
ĠC adiz
am let
am az
am ination
am mer
am bitious
and ing
and its
Ġse i
Ġse w
Ġse ab
Ġse wn
Ġse mb
Ġse vered
Ġse wed
Ġse verely
Ġwe ars
ter ate
ter ranean
li b
li ost
li ament
li zards
ould ering
if ted
if ical
pe at
pe fied
ch is
ch ine
ch Ã¢teau
ch ino
ch ibou
ess ing
ess es
ess us
ĠA d
ĠA p
ĠA then
ĠA mer
ĠA cknow
ĠA SCII
Ġdo ck
ke l
Ġst im
Ġst ow
Ġst ap
Ġst ating
Ġst ages
Ġst akes
Ġst aked
Ġst unning
Ġst icks
Ġst icking
Ġst rych
Ġst ammer
ort ion
ort ant
ant a
ant es
ant ies
ra il
ra ced
ra wn
ra lling
Ġso fter
Ġso jour
Ġex em
Ġex pan
Ġex its
Ġex ternal
Ġex hort
Ġex pending
res ounded
res idence
res igned
res cent
res ources
res pons
the ory
the atre
ran o
ran nical
Ġbut ter
Ġbut cher
il ation
il ate
il ance
il ages
il itated
Ġcon ject
Ġcon ical
Ġcon cier
Ġcon quest
Ġcon cession
Ġcon gest
Ġcon gen
Ġcon cessions
qu o
qu ant
qu ois
qu itting
Ġsu l
Ġsu ck
Ġsu ite
Ġsu its
Ġsu sp
Ġsu peri
Ġsu lly
Ġher b
all a
all en
all iance
all eled
ore r
Ġk ine
ĠD ou
ĠD ay
ĠD um
ĠD own
ĠD uch
ĠD io
ĠD ec
ĠD ear
ĠD ivid
ĠD ormice
ĠD appled
ĠD IST
ĠD inner
ĠD ionys
ĠD AMAG
ous ing
ous seau
th ou
th read
th ren
th ither
th og
th icket
ell es
ell etri
Ġwill ow
ard ly
our ney
pp ish
pp ery
ris ing
ac ock
ac rity
ac roix
ac alla
Ġman uscript
Ġman telpiece
Ġman sions
out let
out side
out rements
au l
au sole
au nay
Ġor char
Ġor thog
Ġall a
ĠV ie
ĠV ery
ĠV alm
ĠV ault
ĠV acc
ĠV alle
ĠV ienna
ert ies
os k
os is
os ph
ul ary
Ġli ar
Ġli ly
Ġli ver
Ġv ive
Ġv owed
Ġv ows
Ġv ital
Ġv ented
Ġv oted
Ġv icomte
Ġv otes
one ous
ars enic
Ġcount less
self ish
em issary
em otions
ers man
ist ics
est or
est ation
est ate
est ruct
ĠB E
ĠB o
ĠB ed
ĠB ill
ĠB oss
ĠB ath
ĠB read
ĠB oth
ĠB apt
ĠB ecause
ĠB aker
ĠB RE
ĠB rit
ĠB arcel
ĠB anch
ĠB reak
ĠB entiv
ĠB urgl
ĠB andits
Ġal co
Ġal ters
Ġal oft
Ġal gebraic
Ġal acrity
ast or
ast ing
Ġkn ight
Ġkn itting
Ġkn ights
Ġsh op
Ġsh rew
Ġsh ines
Ġsh orter
un o
un ate
un ite
un usual
un closed
un concern
un ette
un inhabited
un connected
un foreseen
us ation
us ively
us hered
Ġwhe el
ine v
ine ering
Ã© rÃ©
Ã© cart
Ã© gÃ©
Ã© mie
ĠF e
ĠF la
ĠF ull
ĠF orm
ĠF lor
ĠF east
ĠF IVE
ĠF usaro
ĠF ULL
ap al
ap ted
ap oplexy
ap hael
urn um
Ġno vel
Ġno vels
ak able
ak ia
ind u
ind er
ind ict
ind ifferent
ind igo
art an
art ments
art lessness
Ġne ared
Ġne utral
Ġne utrality
onte fici
ĠH ill
ĠH and
ĠH app
ĠH off
ĠH obb
ĠH itherto
ĠH allo
ĠH oll
ĠH otel
ĠH ercules
ĠH yÃ¨res
ĠH atred
ĠH indu
gl im
gl ances
ate lier
ig ues
ig ator
ig uous
ig lio
ig orated
Ġam orous
Ġam uses
Ġam icably
!âĢĿ _
el apsed
el bows
el isk
ect s
Ġrep osed
Ġrep ents
Ġrep airs
Ġrep ublic
Ġrep oses
Ġrep assed
Ġrep rim
Ġrep aration
Ġrep aired
ure ly
um pt
um bed
um nal
Ã¨ vres
Ġwhat soever
ass y
ass in
ass urance
ĠS a
ĠS y
ĠS it
ĠS ir
ĠS ay
ĠS et
ĠS ix
ĠS up
ĠS ec
ĠS igned
ĠS cience
ĠS ection
ĠS chool
ĠS alle
ĠS omething
ĠS imon
ĠS ummer
ĠS pecchia
ĠS cene
ĠS uicide
ĠS eraskier
ĠS arave
ĠS tephen
ĠS anta
ĠS urely
ĠP G
ĠP U
ĠP h
ĠP is
ĠP ar
ĠP Ã©
ĠP ix
ĠP ois
ĠP ho
ĠP atch
ĠP oly
ĠP ascal
ĠP yram
ĠP romise
ĠP ostes
ĠP incio
ĠP haro
ĠP ontefici
ĠMor tem
Ġup har
Ġup set
Ġup start
Ġpro ff
Ġpro gr
Ġpro vidence
ord inate
ong ru
Ġcom ic
Ġcom pels
Ġle aping
Ġj uris
Ġr ud
Ġr ings
Ġr ows
Ġr owers
Ġr ats
Ġr umbling
Ġr ushes
Ġr outs
Ġr hod
Ġr insed
ff ed
Ġab ject
Ġab ounded
Ġab ilities
Ġab omin
Ġab reast
Ġab dic
ol us
ol Ã©
ol ves
ol cond
ol era
ng er
ng le
ck ery
ck oned
Ġtw irl
ĠVillefort s
me at
me red
me nded
me asurable
Ġfe eding
No body
rel ax
rel ations
Ġmad am
Ġmad den
Ġmad dened
ence inte
la is
la ge
Ġag ile
Ġag ric
Ġag gra
âĢĺ _
Ġhand writing
ag han
ag ne
ag ged
ag itation
ag itated
ag reed
Ġad ro
Ġad here
Ġad equ
Ġad oration
Ġad orned
Ġad apted
ress ions
Ġro ots
Ġro gue
Ġro bbing
Ġro gues
Ġgo al
ĠE X
ĠE h
ĠE sc
ĠE ternal
ĠE BO
ĠE ske
Ġsha ve
Ġsha lt
Ġsha rer
Ġsha pes
Ġsha bby
Ġsha meful
ru de
ru ciating
pt ly
Ġus ages
Ġus hered
Ġun se
Ġun lo
Ġun lock
Ġun par
Ġun sc
Ġun seen
Ġun mist
Ġun har
Ġun equ
Ġun accustomed
Ġun feeling
Ġun concern
Ġun bear
Ġun cerem
Ġun hoped
Ġun noticed
Ġun luck
Ġun aware
Ġun reasonable
Ġun availing
Ġun foreseen
Ġun protected
Ġun favorable
Ġun iverse
Ġun fettered
Ġun ison
Ġun erring
end ure
end armes
end rons
Ġret iring
erf lu
ĠT O
ĠT r
ĠT ar
ĠT om
ĠT ot
ĠT ri
ĠT her
ĠT oo
ĠT urn
ĠT of
ĠT rue
ĠT erm
ĠT itan
ĠT wenty
ĠT rial
ĠT ivoli
ĠT WO
Ġcan on
ving s
de pl
de cked
Ġim ages
Ġim itating
Ġim itative
Ġim minent
ite ress
lo ver
lo vers
Ġdis count
Ġdis pelled
Ġdis emb
Ġdis mount
Ġdis closed
Ġdis ordered
Ġdis sent
Ġdis miss
Ġdis satisfied
Ġdis conc
Ġdis content
Ġdis similar
Ġdis loc
Ġdis asters
Ġdis regarding
Ġdis advantage
Ġdis cipline
ry mal
Ġqu att
Ġqu ays
Ġqu eens
Ġloo sened
Ġsp ies
Ġsp inal
Ġsp ray
Ġsp orted
Ġsp acious
Ġsp lit
Ġsp otted
Ġsp rightly
Ġsome how
ign y
ign er
ward ly
reat ing
reat hs
ĠMorrel s
Ġrem on
Ġrem it
Ġrem ote
Ġrem arking
ci ana
ci vil
hing es
Ġcont rolling
Ġcont iguous
ĠL ore
ĠL ife
ĠL ove
ĠL ittle
ĠL amm
ĠL uther
Ġsm othered
Ġpo le
od s
od ic
od ious
od endrons
ĠW est
ĠW ait
ĠW aking
ĠW ee
ĠW hether
ĠW hich
ĠW ednes
Ġout let
Ġout stri
Ġout raged
itt y
ĠG a
ĠG er
ĠG ar
ĠG et
ĠG old
ĠG host
ĠG renoble
ĠG rays
ĠG iglio
ĠG olcond
Ġgr ind
Ġgr ate
Ġgr ade
Ġgr umbling
Ġap ron
Ġap athy
Ġap iece
av id
av ans
Ġdes erved
ĠFran k
ĠFran ces
ĠFran Ã§
we ed
we ak
we ather
we pt
we eks
we akened
ink s
ink ling
co ver
co inc
co lle
co llar
man sion
man Åĵuvre
wh ip
ons ider
oss ibilities
oss essing
per v
per ly
per ies
per ceptible
per ceiving
per mitted
Ġen ab
Ġen fe
Ġen cr
Ġen rolled
Ġen forced
Ġen lar
Ġen igma
Ġen ormously
Ġen raptured
Ġpre co
Ġpre cl
Ġpre vail
Ġpre amble
Ġpre fers
Ġfri ar
Ġfri volous
Ġent ail
Ġent rails
Ġfir man
Ġpl aint
Ġpl ank
Ġpl ume
Ġbr onzed
Ġnow here
ab b
ab st
ab ol
Ġdoor steps
ier is
ier dare
ĠR ion
ĠR ain
ĠR ef
ĠR ound
ĠR oom
ĠR ende
ĠR osa
ĠR eflect
ĠR edistribut
ĠR aphael
ath some
op led
Ġacc ede
Ġacc outrements
Ġover head
Ġover turn
Ġover taken
Ġover shad
Ġover hanging
Ġcl ust
Ġcl ause
Ġcl atter
Ġcl imate
Ġcl amps
Ġcl othing
Ġcl enching
Ġcl asps
Ġpass ers
Ġpass ively
Ġpass engers
be que
be lief
be ckoned
Ġunder neath
not ed
Ġfo e
Ġfo g
Ġfo x
Ġfo resa
Ġfo gs
Ġfo cus
cha l
cha mb
cha ndise
pl ary
pl unge
pl undered
Ġop ium
ber i
ber to
Ġlet s
Ġres id
Ġres ort
Ġres ign
Ġres isted
Ġres igning
Ġres entment
Ġch illed
Ġch ills
Ġch orus
Ġch uck
Ġch olera
for s
for given
Ġper me
Ġper man
Ġper ple
Ġper ishing
Ġper ils
Ġper using
Ġper verse
ies cence
Ġword ed
wn s
Ġeven ings
Ġcar o
Ġcar ve
Ġcar cass
Ġcar avans
ove l
Ġoff ici
Ġhouse keeper
Ġhouse maid
ull ed
ue en
Ġexc urs
Ġexc lude
Ġbl iss
Ġbl ushes
Ġbl uish
ĠIt s
Ġpres cribe
ret s
ret ract
ret urning
ret iring
Ġappe ased
Ġappe aled
ĠĠĠĠĠĠĠĠ čĊ
Ġpr ick
Ġthr ill
Ġthr illed
irt ieth
ĠAnd alus
Ġass ented
Ġspe ck
Ġob long
Ġob sequ
Ġob elisk
Ġra g
Ġra p
Ġra ve
Ġra ck
Ġra ving
Ġra rest
Ġra vis
Ġra gs
Ġra pping
Ġra iling
Ġra illery
Ġra llied
Ġra zor
Ġhow led
led ger
Ġcha sm
Ġcha sing
Ġcha plain
Ġcha pter
Ġimp et
Ġimp uls
Ġimp ale
Ġimp ulsion
Ġmar vell
Ġmar vels
Ġmar iner
Ġmar row
ĠNo body
ĠNo ailles
Ġmost ly
ian ca
read ily
read iness
ili ating
ili zed
ple ad
Ġdear ly
Ġsc ri
Ġsc our
Ġsc ars
Ġsc ared
Ġsc ud
Ġsc rew
Ġsc amp
Ġsc ented
Ġsc aling
Ġsc ratch
Ġsc imitar
Ġsc abb
Ġatt ested
Ġatt entive
Ġco ars
Ġco cked
Ġco chine
Ġsec uring
Ġsec recy
Ġsec urities
with drawing
br ide
br ows
br immed
br onze
Ġbo red
con form
con ferred
con venience
con jugal
con veyed
Ġwhere wit
ern ity
light ing
light ly
light ness
so b
Ġpart i
Ġpart ake
Ġpart ners
Ġho isted
une asy
une arth
Ġste al
Ġste aming
Ġexce eds
ax es
ax iom
ĠN O
ĠN or
ĠN ay
ĠN ature
ĠN either
ĠN early
ĠN icolas
ĠN essus
ĠN estor
Ġhead ache
aris tocracy
stand s
mb ling
Ġread s
Ġread er
Ġcons ume
Ġcons cription
ex erc
ex tre
ex ists
ex termin
ex ertion
Ġhapp ier
sw er
sw allowed
Ġlast s
Ġarm orial
ren s
ren ched
Ġdown right
Ġdown fall
Ġsto re
Ġsto op
ces aris
Ġgu iding
Ġgu inea
int ently
int ense
int imate
int rigues
int rusted
int ensified
Ġsign or
Ġsign alled
Ġposs ibility
Ġcontin ues
Ġend uring
com mon
com pass
com pared
com passion
Ġcr ay
Ġcr am
Ġcr ash
Ġcr itical
Ġcr ouching
Ġpa il
Ġpa wing
Ġexp and
Ġexp ert
Ġexp ire
Ġexp osure
Ġexp ensive
Ġexp ulsion
Ġexp atiating
gn a
gn ant
ger ie
ĠYou nger
Ġfoll owers
rest ore
rest less
rest ored
Ġfound ations
Ġvo gue
Ġvo cif
Ġvo lley
Ġadd s
up h
Ġfort ify
Ġheart rending
Ġaff able
Ġaff liction
ug ino
fort night
Ġpe a
Ġpe al
Ġpe ering
Ġpe aches
Ġpe aks
Ġpe cuniary
Ġpe acock
Ġpe opled
cl er
cl ass
cl ub
Ġson o
ĠO ver
ĠO gre
ĠO tho
ĠO ccasionally
ĠO NE
ĠO stend
Ġcomm only
Ġcomm ences
ured ly
Ã©d Ã©r
und ers
ark ation
ark ling
laim ing
ew ed
Ġlight er
Ġlight house
Ġdist ressed
Ġdist aste
Ġdist raction
Ġdra go
Ġdra gs
aron i
Ġmother s
Ġexcell ed
ick erings
Ġtre llis
Ġple a
Ġple asures
Ġple ading
Ġmin ing
Ġmin eral
Ġmin uteness
Ġmen e
Ġwat ering
champ y
Ġreco very
Ġwr iter
do gs
do omed
Ġter races
Ġac id
Ġac rid
Ġac uteness
Ġlo bb
Ġlo athsome
Ġperson ages
Ġsuff ers
Ġsuff ices
Ġsupp ing
Ġsupp oses
Ġsupp lies
Ġtr ot
Ġtr im
Ġtr ad
Ġtr out
Ġtr ained
Ġes p
Ġunderstand s
Ġcap isco
Ġpur vey
Ġpur poses
Ġconf ound
Ġconf ident
Ġconf ront
Ġconf ronted
atter s
Ġnight ing
Ġnight fall
Ġnight mare
Ġsil vered
Ġsil enced
Ġinqu is
Ġinqu est
Ġrest itution
ĠJ es
ĠJ ardin
ĠJ udge
ĠJ anuary
ĠJ aros
ĠJ ourney
den y
den ied
Ġhalf way
Ġref inement
Ġback s
Ġback ward
Ġtra cing
Ġtra itors
Ġpresent ation
Ġpresent iments
aut henticity
ĠCh ios
Ġspeak ers
Ġind ustri
Ġind irectly
Ġind olence
Ġind uces
Ġind ignant
Ġind estruct
ult ur
ult ures
Ġocc ult
get ting
ser ie
ser ves
ser vi
ser iously
ser pent
Ġ1 9
Ġ1 01
Ġ1 02
Ġ1 03
io cre
Ã¢ tre
Ġprom ontory
Ġmon str
Ġmon sters
sh ore
sh own
sh owing
sh ower
sh ock
Ġmis took
Ġmis chance
Ġmis conduct
Ġmis chie
Ġmis lead
Ġmis understanding
Ġmis chances
ens ities
Ġgirl ish
ec ess
Ġaw aking
Ġaw fully
Ġide al
Ġdi et
Ġdi vers
amp h
Ġten acity
Ġten acious
Ġint rig
Ġint rusted
Ġint ensity
Ġint estines
Ġint rusion
Ġem itting
Ġins ur
Ġins ert
Ġins ists
Ġins olence
Ġins crutable
oth ic
act s
Ġstran gest
Ġstran gled
Ġrequ iring
ĠAt las
Ġinter marry
Ġinter loc
Ġinter minable
Ġinter nally
Ġdep reci
Ġvisit ant
Ġbed side
Ġbed ewed
Ġfl int
Ġfl ashing
Ġfl uttering
Ġfl ickering
Ġfl ints
Ġfl icke
Ġsub t
Ġsub mission
Ġsub mitted
Ġsub sequently
Ġsub ordinates
Ġsub servi
Ġsur t
Ġsur passed
Ġsur vive
Ġsur render
Ġfam ine
Ġfam ished
ister ial
Ġmur derous
Ġdead liest
Ġhonor ably
ĠThis be
val s
Ġform ally
Ġappear ances
az ure
Ġsecond ly
men ian
pro s
pro v
pro long
pro vo
pro gress
pro verb
pro viding
pro stration
Ġgrand son
Ġgrand eur
Ġreg ener
Ġreg aining
Ġreg ulate
Ġreg ulated
arm a
Ġask ance
no cence
Ġsim pli
ĠIn n
ĠIn firmer
ĠIn sult
ĠIn fern
Ġeff ig
Ġeff ace
ott est
Ġput s
cri es
pre tended
pre cious
pre cip
Ġhundred s
Ġstre wn
Ġstre ams
ib es
ib ran
ib ule
Ġset te
Ġext racted
Ġext orted
Ġext enuating
Ġext ortion
Ġcond escension
Ġsmall er
sp ared
sp arkling
Ġkind s
Ġkind est
gu et
gu essed
gu zla
will ingly
Ġbre vet
Ġbre thren
Ġsix th
Ġmist y
Ġmist ral
Ġinf uri
Ġinf ring
Ġinf irm
Ġinf licted
Ġinf idels
ular ly
Ġspo iled
land ing
Ġfall acious
who ever
who lly
Ġche ered
Ġche ering
Ġche ese
arse illa
Ġhast ens
Ġrepe l
Ġrepe lled
Ġdraw s
Ġopp ortunities
Ġpol es
Ġpol icy
Ġsum m
Ġsum med
ace m
iss ol
iss ue
iss ippi
Ġtal ented
rem ains
rem oved
rem arks
Ġmill e
Ġmill igramme
Ġhor rified
Ġsle w
Ġsle eper
Ġfore most
Ġfore see
Ġfore run
Ġfore seeing
Ġeas iest
Ġdel uded
Ġdel inqu
Ġprop osals
Ġprop ensities
ini Ã¨re
Ġnat ures
Ġdec reed
ĠAs ia
ĠPro gress
ĠPro ceeds
Ġaccom mod
par oxysm
par adise
Ġlarge ly
Ġeye balls
medi um
As sunta
Ġill usion
Ġreason ed
Ġreason ably
Ġgra ze
Ġgra vest
Ġgra fting
su ited
Ġair s
band s
ron ically
Ġmag ical
Ġmag net
Ġmag isterial
ros ia
Ġear lier
Ġtable au
Ġsw an
Ġsw ell
Ġsw um
Ġsw agger
Ġsw elling
Ġinv ested
Ġinv inci
Ġve ils
Ġcor ks
Ġcor vet
Ġcor pses
Ġcor rection
Ġcor onet
Ġpri zes
Ġinc ited
Ġinc urred
tem ples
Ġstr ing
Ġstr ay
Ġstr ide
Ġstr ings
Ġstr ides
Ġstr aining
Ġcomp ass
Ġcomp ressed
Ġcomp artments
ins ist
ins inu
ins ula
Ġdu et
Ġdu pe
Ġdu plic
Ġdet ection
Ġdev ice
Ġdev ise
Ġdev ised
Ġadm its
Ġadm ission
Ġadm ittance
gr ating
gr asp
gr asped
gr otesque
Ġcalm er
Ġrose wood
Ġmo b
Ġmo vable
Ġmo ckery
ignor ant
Ġrich ness
Ġmurm uring
Ġmurm urs
Ġpar ry
Ġpar ric
Ġpar terre
ash ore
Ġhar der
Ġhar assed
Ġhar bors
Ġlad s
Ġlad ing
Ġel ated
Ġel uding
Ġel astic
Ġel apse
Ġel bows
ĠLu cern
ĠLu xembourg
Ġblack er
Ġbest ows
form s
der ived
tw ice
Ġbox ing
Ġtri ple
Ġtri angle
Ġwal nut
Ġwal tz
Ġhum ming
Ġhum bly
Ġhum blest
Ġacqu itted
Ġquestion er
dis ci
dis hes
dis appear
dis posed
dis appearance
dis ordered
dis pense
dis agreeable
dis appoint
dis miss
dis cus
dis play
dis guised
dis figured
dis creet
ĠTh ird
Your s
Ġprof iting
Ġprof anation
iv ating
iv oc
ph osis
po ke
fic acy
ific ations
Ġconvers ion
Ġconvers ations
rent on
eng aged
Ġcle ft
Ġcle mency
Ġjoy s
Ġaffect ation
Ġir r
Ġir ons
Ġrecogn ition
Ġrecogn izes
she ep
she ets
Ġcir cul
Ġconceal ing
Ġconceal ment
cont act
cont ented
cont raband
cont rollable
Not ary
Ġsk ies
Ġsk ins
Ġsk irm
Ġsk imming
Ġred oubt
Ġred ouble
Ġred oubles
Ġred istribut
Ġfact itious
kn ight
Ġrec urrence
Ġlau ndress
ging ly
Ġconv incing
Ġpocket ed
Ġservice able
Ġswe pt
Ġpast ille
ĠIs le
Ġgovern ments
Ġflo at
app lied
app les
Ġfar thing
Ġcast les
Ġevid ences
fo liage
more over
more ncy
Ġsea weed
Ġaccount ed
Ġaccount able
Ġoccup ies
Ġoccup ying
erm oor
ĠCar bon
ĠCar acalla
Ġrecollect s
Ġrecollect ing
Ġrepeated ly
pr in
pr it
pr icked
pr otest
Ġ5 1
Ġ5 2
Ġ5 4
Ġ5 6
Ġ5 7
Ġte aching
Ġte asing
Ġte legrap
Ġte aspo
Ġdest ination
Ġeffect ive
can non
lic ating
lic ense
Ġpen knife
Ġpost s
Ġpost ilions
att ired
att ached
att ribut
att entions
att acked
att ributed
Ġaccompan ying
Ġkeep ers
Ġsurpris ing
ring ing
Ġfavor ably
So on
Ġgeneral ity
ĠWhen ce
Ġsl id
Ġsl im
Ġsl ain
Ġsl ate
Ġsl ice
Ġhat s
leg s
leg itimate
tempt ing
over ty
sm ith
sm iles
Ġdr ought
Ġdr ained
ey el
ob st
ob ility
ob tained
ob serve
ft en
Ġmid way
Ġmid day
Ġfine ly
Ġcost ly
Al most
pass port
arch itect
Ġconsider ations
Ġbro c
Ġfin ance
Ġsal utes
ĠSt ory
ĠSt atement
car pet
eas y
Ġ3 3
Ġ3 8
Ġ3 9
When ce
cons ented
cons umm
Ġcur l
Ġcur Ã©
Ġcol onel
Ġdream ing
Ġlow est
Ġstri ps
Ġstri pped
Ġexist ing
ĠTe legraph
Ġprep ossessing
Ġreflect ive
sc ra
pir ing
pir acy
Ġcuri osities
Ġdread ing
Ġpun ishes
Ġeight h
Ġforget s
Ġforget ful
Ġmet amor
ĠCha renton
imp ert
imp lied
imp ressions
imp ossibilities
stant ly
itting ly
Ġlaugh s
ĠMy rtho
Ġcove ting
Ġph osph
Ġexec rable
aff ect
aff ections
des ert
Ġemb ers
Ġemb ark
Ġemb arking
Ġquar ries
Ġquar antine
Ġgrat ification
cu ps
Ġshort en
ĠProject s
Ġcourt ier
Ġfair ies
Ġled ger
ĠSp adas
Ġjo int
Ġperm its
Ġperm itting
Ġende avors
Ġdespair ing
pres erving
ric s
ric ated
ric ally
ric ian
oni ards
Ġworth ies
ĠY ears
Ġfire arms
Ġjud icial
Ġbrother s
Ġboat man
!_ âĢĻâĢĿ
fer ocious
Ġdan gers
Ġdan cers
Ġobject ed
Ġobject ing
og y
og lio
occ o
occ asions
Ġinform s
Ġnam ing
ste in
ste vere
Ġchamber maid
ĠAl one
ĠAl berto
Ġsun ken
Ġimport unate
gg y
gg ar
ms man
Ġ4 1
Ġ4 2
Ġ4 3
Ġ4 4
Ġ4 6
Ġ4 7
Ġ4 9
ĠU se
ĠU ne
Ġdon ation
Ġdon ate
Ġequ ator
Ġequ alled
Ġprodu ction
requ ires
requ isite
Ġbit es
ulous ly
Ġdifferent ly
jo ke
Ġpat rician
ĠAll iance
Ġdisp lace
Ġdisp osing
Ġassist ing
Ġassist ant
off spring
off icers
tre ason
tre asures
tre bled
conte nding
hel itu
hel ped
Ġpain fully
acc ent
acc use
acc ident
acc used
Ġenter prise
An toinette
after noon
bl er
Ġsad der
Ġship wrecked
Ġboy s
Ġinspect ion
Ġtem ple
Ġtem perate
Ġpardon ed
Ġeat s
law ful
ĠLe char
ĠLe arned
Ġfirm a
chan ging
Ġpal p
Ġpal ate
Ġpal pable
!âĢĻ âĢĶ
Ex c
lan tern
Ġcre ed
Ġhost s
Ġhost ess
Ġhost ile
Ġhes itatingly
Ġforth with
Ġforth coming
Re al
Re venge
Re volution
Re peat
With in
Ġchief ly
Ġ18 07
Ġ18 22
Ġ18 38
ĠX II
ĠX III
Ġri p
Ġri pped
Ġri bs
Ġca resses
Ġcut s
Ġemp hasis
Ġgall eries
Ġval ued
Wh ose
cent re
vis its
vis iting
vis itor
vol ition
vol ume
vol unte
Ġsepar ately
Ġsepar ates
St range
fri volous
Ġcell ars
Ġang ular
ĠFor ce
Ġagree ably
Ġprotect ors
Ġdepart ments
aw akened
min eral
part s
part ing
Ġcredit ors
Ġview ing
Ġpriv ations
Ġdress es
ature ly
Ġund es
Ġund ress
Ġund ue
Ġund ulating
Ġund eceive
tell ana
Ġdef am
Ġdef ined
Ġdef inite
Ġexact ed
Ġsucc umbed
Ġpurcha sing
Ġpurcha ses
hold ers
Ġbes poke
Ġele ments
Ġshow y
new s
new ly
exp ressing
exp enses
cr itic
cr owns
cr owd
wor se
wor king
Ġbra va
Ġbra zier
Ġcop ing
gi ver
gi ore
gi um
Ġtend ed
Ġfast ening
Ġgro ped
Ġgro cers
Ġgro cer
Ġmysterious ly
ĠAn swer
rist ling
Ġsupport able
rep ay
rep ress
rep aire
rep ugn
Ġincl ine
Ġsol ve
Ġsimilar ly
Ġsimilar ity
Th ink
Th irty
Th rough
ival ent
ont one
Ġfr iction
Ġfr antic
Ġfr ames
Ġpath way
cle ared
mer ited
Ġrecom pensed
thr one
Ġrid ers
Ġexpress es
Ġexpress ions
ĠJac ques
ship owner
Ġregret ting
reco vered
Ġbright er
Ġden ying
Ġden iers
str ated
str ides
rop os
Ġpeculiar ity
Ġempt ying
Ġlangu id
Ġlangu ishing
sing ing
reme ly
Ġhur l
Ġev apor
Ġsmo ked
Ġsmo othing
Ġwrong ly
Ġemplo ying
bb ings
fact or
ze al
Ġmed ical
Ġmed als
Ġmed iocre
live ly
ĠAr ound
ĠAr rival
ĠAr stein
Ġdisc our
Ġdisc ouraged
Ġentreat ing
Ġcommunic ating
alcul able
Ġsuccess es
Pro vided
_. âĢĶ
did n
eb led
vi or
vi able
inter ference
inter preter
inter vals
Ġwa fted
Ġmass y
Ġpict ured
Ġlord s
Ġange lic
Ġenc oura
Ġtrans it
Ġtrans ferred
Ġtrans fixed
Ġbreath lessly
spect ator
spect acle
Ġest imate
Ġwond ering
Ġmour ned
Ġfur led
Ġfur thest
Ġcra ft
Ġcra cked
Ġcra fty
thought ful
Ġsho e
Ġproceed s
Ġindic ating
Ġindic ative
Ġsett les
Ġsett ling
Ar les
Ar rived
Ch ina
Ch ien
Paris ina
into xic
Ġfight ing
Ġstif ling
ĠBaron ne
conf usion
Ġrestr aint
Ġrestr aints
Ġrestr ictions
Ġrecall s
Ġcharacter istics
bre viary
Ġlab orer
Ġlab urnum
Ġgen ii
Ġintellig ible
Ġaccompl ishment
Ġdeterm ine
Ġrememb rances
Ġfalse hood
Ã¦ d
Ã¦ ology
inc ap
inc ident
Ġbrig ade
ĠMar ius
ĠMar got
Ġsty ling
Ġsuspic iously
Ġhard y
Ġhard ened
che ck
fl owed
Ġauthor ize
Ġauthor itative
Ġinha le
Ġinha ling
osit i
Ġcho ke
Ġprofound ly
Ġ181 6
lam ps
Ġ7 0
Ġ7 1
Ġ7 2
Ġ7 3
Ġ7 4
Ġ7 5
Ġ7 6
Ġ7 7
Ġ7 8
Ġ7 9
ann ounce
ann ouncing
Ġlim b
Ġlim itation
lys ses
Ġattend ance
Ġdistinct ive
suff er
suff iced
contin uing
great ly
great est
Ġtaste fully
rend ezvous
Ġclock s
Ġlif etime
Ġelect rified
Ġelect ronically
Ġsacri lege
Ġconve ying
Ġneg ro
olo gna
ĠTo xic
Ġimper vious
compan y
dist orted
dist raction
dist ributed
dist urb
may or
pal er
pal aces
pal eness
uc ination
Ġ6 1
Ġ6 2
Ġ6 3
Ġ6 5
Ġ6 6
Ġ6 7
Ġ6 8
Ġ6 9
Ġ6 00
Ġ8 1
Ġ8 2
Ġ8 3
Ġ8 5
Ġ8 7
Ġ8 8
Ġ8 9
Ġ8 00
Ġ9 1
Ġ9 2
Ġ9 3
Ġ9 4
Ġ9 5
Ġ9 6
Ġ9 7
Ġ9 8
Ġ9 9
Ġwood s
Ġwild est
Ġwild erness
Ġwarm ing
Ġclo cked
Ġclo gged
asha med
stead y
Ġgest ic
Ġwithd rawn
Ġvol untary
Ġvol uminous
Ġsmuggl ed
Ġsmuggl ing
Ġpret ension
Ġblind ed
appro ved
sha ken
sha green
sha mefully
sha rp
sur round
sur mounted
sur viv
Ġfru iteress
Ġdull ed
Ġdeli very
Ġdeli verer
ĠBl in
ĠBl ood
ĠBl ack
Ġrepro aching
ĠLou vre
Ġoverwhel m
char ge
char ged
Ġchoo sing
Ġdiv est
Ġdiv ining
ĠĠĠĠĠĠĠĠĠĠĠĠĠĠĠĠĠĠĠĠĠĠĠĠ ĠĠ
400 8
400 32
pol ished
tr ad
tr ain
tr ading
rec alled
rec alling
rec reation
Ġfashion ably
Ġthro b
Ġthro ats
Ġthro bbed
Ġthro bbings
Ġvar iations
Ġroyal ty
Ġroyal ism
Ġroyal ties
Ġcontract s
Ġcoff ers
Ġinstinct s
Ġtrust worthy
Ġmistress es
Ġtorch light
Ġadvantage ously
oc ity
sub tle
sub ordinates
sub terranean
Ġtear ful
Ġfow ling
Ġvill any
plic it
Ġafford s
ĠUn less
ĠUn known
ĠUn limited
Ġevil s
four teen
mis erable
Ġtort uous
Ġmat ches
Ġmort ified
Ġmort uary
Ġgun powder
Ġthunder ing
Ġsuper bly
Ġsuper intend
dec ision
ĠWho le
Ġspecul ates
Ġspecul ators
Ġpatron age
Ġpatron ize
lim its
ĠQ ueen
Ġmot ions
Ġpure st
Ġpure ly
asc ati
stit uted
Ġgar ret
Ġgar lic
Ġassemb lage
Ġrecomme nding
Ġsharp ened
fall s
fall ing
ref resh
ref using
Ġmas que
Ġdom ain
Ġdom ineering
Ġpall et
Ġdepend ent
Ġvig orous
ĠBe ggar
Ġplay ers
exc ise
exc laiming
supp orting
supp licating
through out
nal ist
Ġtomb s
Ġrever ies
Ġhandkerchief s
love ly
Ġremorse lessly
Ġpreced e
ĠRe volution
ĠRe ggio
ĠRe gister
Ġscrutin ize
Ġsummon ing
Ġtelegraph s
Ġestabl ishing
Lu cia
col umbarium
Ġaf ar
Ġaf loat
Ġbirth place
Ġheight s
sto ck
Ġbeat en
ĠCom tes
Ġpeace fully
Ġannoy s
person ification
prom ising
prom inently
prom ptly
tra ces
tra itor
Ġsn are
Ġsli ppers
Ġsli ppery
hast y
hast ening
itor ial
Ġbal my
Ġbal anced
Ġadopt ing
Ġchamb ers
Ġlock smith
Ġpursu es
Ġbenef ited
Ġbenef actors
Ġlabor ious
Ġlabor iously
Ġcloak s
Ġver itable
Ġver tigo
Ġtreat ies
Ġdign ities
Ġlie u
Ġamb ush
Ġamb rosia
convers ing
Ġguess ing
Ġcapt ure
Ġcapt ivating
Ġcorrespond ed
point s
Ġabsor b
Ġabsor bing
Ġstiff en
Ġstiff ness
mount ains
opp ose
opp osition
pow ered
pow erfully
Ġmix ing
Ġcand id
Ġpract ices
Ġpract ically
Ġpract icable
Ġinvent ing
Ġinvent ions
Ġrenew ing
Ġgreen house
ĠCon jugal
Ġwel coming
ters igned
ĠBeau marchais
ĠBeau repaire
Ġrub bish
Ġscaffold s
prec ise
prec ision
Ġstrict est
conscious ness
recogn ition
six th
Ġcert ify
Ġcert ainties
Ġcul pable
Ġdim ensions
Ġpan gs
Ġheat hen
stre ets
Ġdecl ine
Ġdecl ining
Ġstup idly
ĠTur in
beaut ifully
Ġrespond ing
Ġpersu asion
Ġconsol ations
Ġinsult s
Ġreceipt ed
Ġfruit ful
Ġfruit lessly
See k
direct ed
direct ing
equ ality
equ itable
jud ges
jud gment
sk ill
Ġfle e
Ġfle eting
Ġdwell ers
Ġlod ging
Ġsus ceptibility
Ġsust ains
Ġproc uring
Ġsecure ly
Ġ11 1
Ġ11 2
Ġ11 3
Ġ11 5
Ġ11 6
Ġ11 7
Ġemer ging
Ġinvol ve
Ġinvol ves
Ġcerem onies
Ġcerem onial
Ġcompanions hip
Ġacknowled ges
Wait ing
bar ous
bar rels
bar beri
cir cul
del ic
del irium
ivers ary
ĠYes terday
Ġrig ors
Ġrig orous
Ġdam asked
ari at
arri ves
Ġhorr ors
Ġpil es
Ġpil gr
set tled
Ġgif ted
Ġthy self
Ġur ging
respect ive
respect ful
Ġsuit ably
Ġrepl acing
ĠEx plain
ĠEx pi
ĠEx amination
dev our
Ġchim ed
comm iss
comm ission
comm unic
Ġinterrog ating
Ġinterrog ative
Ġtemp orarily
Ġexception al
Ġdefend ed
Ġtranquill ize
Ġstraight ened
Imp ortant
Or der
Or lÃ©
draw er
draw ings
sus pended
Ġing ratiating
Ġid i
Ġid oli
Ġban ished
Ġban quet
Ġbare headed
Ġfla gs
Ġpit ch
Ġpra ising
resist ance
resist ibly
ĠDe vil
ĠDe cesaris
Ġvague ly
ĠFlore nt
Ġleg ate
Ġleg ally
Ġleg acy
necess ity
necess arily
excell encies
Ġprompt s
Ġprompt itude
Ġswall ows
Ġmirac les
conduct ing
Ġfamiliar ity
Ġadventure r
Ġfarewell s
cab ulary
fif th
mad emoiselle
natur ally
sound s
Ġwo es
Ġdeb ate
Ġdeb ilitated
Ġdeb arkation
Ġamuse ments
abs olutely
Ġclub s
exam ined
Ġeste ems
Ġ10 4
Ġ10 5
Ġ10 7
Ġ10 8
Ġ10 9
Ġsubst anti
Ġemploy ers
Ġluck ily
Ġprincipal ities
Ġfulfil ment
down stairs
phe t
Ġwid est
Ġwid ened
Ġwid ows
Ġsan g
Ġsan ity
Ġmor sel
Ġmor sels
Ġmil k
Ġmil es
Ġhang ed
Ġinj unction
ĠInd ies
ĠInd ictment
Ġbearer s
Ġgroom s
ĠMe eting
ĠMed ici
ĠMed icis
Ġwear iness
ĠDon ations
Ġvan ish
Ġvan ished
Ġvan ishing
ĠSee k
dep rived
Ġimm ort
Ġimm obility
Ġgrow ling
Ġattract ions
Ġbold est
Ġforest s
Ġtransp arent
Ġtransp orted
Ġtransp orts
visit ors
Ġorigin ality
dest ined
dest ination
dest iny
dest ructive
gra ces
gra cious
ki osk
pay able
pay ments
sign ific
sign ature
sign ificant
inv est
inv ite
Ġcree p
Ġpaint ing
Ġrese arch
adm itted
Ġmethod s
ĠAlexand re
ĠSon nino
ĠSome one
Ġimpl oring
Ġspec ify
Ġspend s
Ġinstruct ed
command er
Ġregular ly
Ġportra its
Ġpunish ments
Ġsucceed ing
Am Ã©lie
don ned
dream ing
mur mur
tran quill
Ġav owed
Ġav rÃł
inf ant
inf ancy
inf lexible
Ġeccentric ities
Ġliber ate
Ġliber ator
Ã©r ou
Ġunpleasant ly
ĠTH REE
ĠTH AT
ĠLi ving
Ġenv irons
Ġassoci ating
Ġassoci ates
introdu cing
Ġdiplom atic
Ġextrem ities
Ġvex es
Ġfurnish ings
possess ing
possess es
Ġfrown ingly
ĠArch ipelago
Ġnarrow ly
Ġcruel ty
De ath
De ep
ME NT
honor able
mo istened
post script
sent ry
sent enced
Ġwis er
Ġwis est
Ġmal icious
Ġmult itudinously
Ġmask ers
ang ry
Ġpred ictions
Ġpred ecess
Ġnur sed
illot te
Ġung en
Ġung overn
ĠCardinal s
deep ly
deep est
ĠLucc anese
Ġpoet ical
ĠGu ests
ĠGu ido
Ġpersec ute
Ġpersec ution
Ġpersec utions
Ġpersec uting
Ġpersec utors
Ġrail road
Ġscar ves
Ġscar let
Ġattribut ing
Ġattribut es
sole mn
Ġswim ming
Ġharm less
second ary
Ġencir cling
Ġsacrific es
Ġrecommend s
Ġsupreme ly
18 15
viol ently
Ġaug ury
Ġod ors
Ġbiscu its
Ġfest ivities
Ġhaught ily
imag ine
Ġrele asing
enter prise
Ġsolic itors
account able
meet ings
Ġadvers aries
Ġclass es
Ġclass ic
Ġimpro ved
Ġimpro ving
Ġflatter y
Ġsubter fuge
Ġdram atist
Ġembarr assment
Ġembarr assing
betr othal
Ġsurround ings
polit ical
Ġabandon ing
Arab ic
En fer
hor iz
iven ess
jour nalist
lor gnette
pat ches
pat ernal
sal ons
sum mer
sum mit
Ãª te
Ġwin ner
Ġoper as
Ġfer ocity
Ġder ived
Ġgle aming
Ġmechan ical
Ġunt ruth
Ġdemon stration
Ġsevent y
gend arme
Ġvest ige
Ġvest ibule
Ġrepugn ant
ĠPer u
Ġarch Ã¦ology
Ġenchant ment
Ġprejud iced
Ġclim ax
Ġclim bing
Ġfoam ed
Ġlog ically
Ġlog ician
Ġbankrupt s
Ġbankrupt cies
Ġcheerful ness
Ġpolite ly
rememb rances
Ġdrunk ard
Ġartic ulate
Ġphrase ology
Ġrevel ry
Ġ40 9
blood shot
Ġelev ates
Ġtransact ion
Ġtransact ions
Ġascend ancy
Con found
Con stantinople
Com mand
Com mentaries
def ence
elect ric
matter s
narr ative
slight ly
sail ing
tal king
tal ents
ww w
want ing
Ġtur bulent
Ġtart ar
Ġaim ed
inco g
Ġbill iard
Ġcook ery
Ġhy ster
Ġhol idays
attempt ed
Ġep isodes
stif f
Ġthirst s
Ġstates man
Ġexhib ition
Ġexhib iting
Ġvio let
empt ied
Ġretract ation
ĠToul ouse
lod ge
ĠGard ener
Ġassent ingly
Ġimpress ive
Ġdrag ons
Ġdraft s
Ġpleasant ry
Ġtram ple
Ġintim ation
contr ad
contr asting
protect or
singular ity
Ġwithdraw ing
Ġmanifest ing
Ġmanifest ation
Again st
Mar quise
bel ow
bel oved
cost umes
div an
fire light
favor ite
favor ably
gener ations
high ly
mod el
obe y
obe yed
por celain
pois ons
pois oned
á½ ²
á½ ¸
Ġmild ly
Ġmoust aches
Ġbag s
Ġcart ilages
Ġhunt ing
Ġlist lessly
stud ied
Ġbeque athing
ĠMont lhÃ©ry
ĠMont morency
Ġconvent ional
Ġsuspect s
Ġalle ging
Ġvamp ires
Ġshel tered
assass ins
assass ination
Ġrou leau
Ġeyel ashes
Ġboast ing
expl ained
Ġrefresh ments
proof s
Ġslee ve
Ġslee ves
Ġobserv ance
Ġobserv able
Ġparoxysm s
Ġharsh ness
object ion
obtain ing
accord ance
inquir ingly
capital ist
execution ers
emplo yment
bal cony
event een
fac ility
fac chino
furn ished
furn iture
fig ures
free ly
gard ener
pardon ed
sy llable
situ ated
Ġachie ve
inst ance
Ġmut ually
Ġbac on
Ġchat ter
Ġchat tered
Ġpant aloons
Ġlit mus
Ġling ers
Ġling ering
Ġreven ging
Ġgn ashing
ĠMess ager
rap hy
Ġconstit uted
Ġcongrat ulations
ĠDu champy
ĠDes demon
ĠDep uty
accompl ice
accompl ices
ĠPres entation
Ġprovis ion
Ġprosper ous
Ġrust ic
Ġratt led
Ġuncom fortable
Ġdisinher its
Ġintoxic ation
ĠRoy ale
ĠRoy alty
conn ection
consequ ently
consequ ences
Ġconsist ent
expect s
expect ation
Ġlob sters
Ġindis posed
Ġindis pensable
Ġinsens ibility
prof its
prof ession
prof usion
prop os
prop erty
previous ly
Ġveget ation
disp osal
Ġdrown ing
obli ge
Ġcrack led
Ġcrack ling
Ġtremulous ness
purcha sed
burst ing
Ġspecim ens
trans fixed
Ġorgan ization
Ġrelax ation
Four teen
Sp ain
Sp are
cre aking
cre vices
cup board
din and
eat en
flo ating
gaz ing
jail ers
rit ability
tor ch
tor ches
tor mented
tri fle
wal ked
wond erful
Ġty rannical
recom pense
recom mended
renew ing
Ġorange ade
Ġmould y
Ġmould ings
Ġfed eral
Ġfug itives
Ġfield s
Ġhill ock
Ġpill ar
Ġpuzz les
Ġinner most
attend ant
attend ance
attend ants
Ġrent ed
entertain ment
entertain ments
Ġbever ages
Ġgla red
ĠCo chin
ĠSe a
ĠSe ated
ĠPl iny
ĠPl ato
ĠPl antes
Ġarr ayed
Ġarsen al
Ġimplic itly
ĠGir onde
Ġapolog ies
Ġapolog ize
Ġoverpow ering
Ġcarpet ed
Ġscand alous
feel ings
exha ustion
Ġkeen ly
Ġsuffoc ation
Ġindef inite
Ġdiver t
Ġflood s
project ed
project ing
guard ians
Ġsket ches
affection ate
affection ately
desp atched
Thousand s
Ġsmooth ness
Ġphilanthrop y
Ġphilanthrop ist
Ġstuff ed
correspond ents
suspic ions
suspic ious
Ġfestival s
Ġcaval iers
Happ ily
ben ch
dish onored
dread ful
dread fully
fashion ed
fashion able
mal icious
splend or
Ġrom ance
Ġrom antic
inno cent
Ġsed iment
Ġoars men
Ġbath s
Ġcher ish
Ġhind er
Ġnort h
Ġnav y
Ġnav al
station ed
start ling
Ġbeha vior
Ġghost s
ĠMur illo
Ġant ipathy
ĠCons igne
ĠCons piracy
amb ition
amb assad
ĠAugust e
alle viate
ĠDau me
ĠDau phine
ĠDau phinÃ©
Ġmanufact ured
ĠVirg inia
ĠBet rothal
indul ge
Ġproble ms
Ġprovo ked
Ġprovo cation
ĠTran stevere
ĠThan ks
Ġcontribut e
Ġcontribut ed
Ġexcl usively
ĠNort ier
comprehe nding
restr aint
restr ained
vention al
herent s
Ġterri fic
shud der
shud dering
Ġinsign ia
Ġflour ishing
prob abilities
prepar ing
Ġinfall ibly
super stit
super human
super natural
Ġincur ring
Ġprofess ions
philosop hers
philosop hic
engage ments
Ġrecord ed
Ġparticip ate
Ġparticip ated
embarr assed
embarr assing
Ġvolcan ic
Ġexhaust ing
Ġcalumn y
Ġcalumn iator
precaut ions
Ġdimin ished
Ġfierce ly
particular ly
Ġpropriet ors
incogn ita
Ġdistrict s
Ġpubl ish
Roman s
brig and
brig ands
cam bric
dict ated
fow ls
fright ens
jew els
mir ror
mir acle
pron ounced
pisto ls
sens ations
vig ilance
wretched ness
ĠâĢ ł
Ġaut umn
Ġaut umnal
Ġaris en
Ġwilful ness
Ġmoss y
Ġbond age
Ġblo om
Ġbund les
Ġfre aks
Ġcro oked
Ġnet ted
Ġnet work
Ġreap ers
Ġrevol ted
Ġreview ing
Ġreconc iled
Ġwhit ened
Ġwhist led
Ġwhist ling
Ġwhirl wind
ĠMid night
Ġmelod ious
telegraph ic
ĠCle ment
ĠCont ract
ĠAnt hony
ĠAnt ibes
ĠApp arition
ĠAcc usation
ĠAustri an
Ġexert ion
resol ved
Ġvener ation
ĠBor go
glo ves
glad ly
igr ammes
ĠPhilip pe
Ġarg ument
Ġroast ing
ĠTor lini
loc ution
Ġdiscom posed
Ġdiscom fiture
Ġdisappe aring
Ġdisappro bation
Ġdesol ation
wear ied
Ġens ue
Ġens ued
Ġaccustom ing
Ġclum sy
beat en
Ġglim mer
Ġglim mered
ĠOr der
ĠOr viet
ĠJap an
produ ce
prosper ous
Ġcondes cending
Ġinflict s
Ġworkman ship
suc ceeded
Ġbuzz ing
Ġirre parable
prince ly
Ġpenc ils
specul ated
specul ations
Ġmusk ets
Ġmusician s
persu asive
strong er
Ġestim able
Ġnegot iate
advant ages
Ġerr oneous
hard ly
destro y
bankrupt cy
Ġavar icious
sweet meats
Ġepau let
belong ing
Ġgnaw ing
Corsic an
Ġmartyr s
Ġmartyr dom
Ġherald ic
Bet ween
Den is
Gree ce
Him self
LI AB
Sh ut
Sh ould
Supp osing
bes ide
breat h
breat hing
bod ings
fail ure
hon est
hon ors
hosp ital
lest ick
maint ained
pain ful
pain fully
pull ed
paint ed
prud ence
phys ical
phys iolog
sle pt
sle epless
Î¿ Ï
Î¿ Î´
Ġtac itly
Ġtack ing
Ġalien ation
Ġalien ate
reve al
revolution ary
island s
env y
enjoy ed
Ġbast ion
Ġblock head
Ġcred ited
Ġtos sing
Ġtops ail
ange ls
Ġpedest al
Ġreject ed
Ġreject ion
Ġeman ated
stream ing
Ġbeam ed
Ġsag acious
Ġge ograph
Ġgreed y
Ġgreed ily
Ġgidd iness
adopt ed
ĠMac aire
Ġdew s
toler able
toler ably
ĠCamp o
ĠAv owal
Ġstir red
Ġstrew ing
Ġexper iment
Ġconstr ained
ĠVal en
establ ished
establ ishment
ĠFr Ã©dÃ©r
ĠFr ascati
indic ation
Ġrepair ing
assured ly
ĠPrison ers
Ġarc ade
Ġprodig ious
Ġcomment ing
depend ence
Ġdissim ulate
Ġdisinterested ness
Ġremo val
weap on
coff ee
aband oned
ĠRet urn
ĠRet ired
retire ment
Ġprotest ations
Ġscra pe
Ġscra ps
Ġscrupulous ly
constant ly
Ġconsumm ation
Ġconsumm ate
sword s
intim ating
intim acy
Ġcrum ble
Ġconfer red
sho es
sho oting
ĠAtt ack
ĠAtt orney
Ġinterf ering
Ġintercept ed
Ġstrengthen ed
spir its
remind ed
Ġreluct ance
Ġrelinqu ish
Ġrelinqu ishing
insult ing
Ġadminister ing
Ġparch ments
Ġharlequ ins
Ġpenit ents
smo oth
Ġdrunken ness
Ġsalut ations
carb ines
blind s
blind folded
Ġencourage ment
Ġtransl ated
Ġfurr ows
...... ...
Ġphysiogn om
annoy ed
Ġlampre ys
Ġelectric ity
distinct ly
distinct ions
Ġstockbro kers
ĠAmong st
Ġambassad or
Ġsangu ine
Ġsanction ed
witness es
inhabit ants
Ġsuggest ion
ĠAlban ia
Ġconstitution al
ĠRoyal ist
AT ION
Acc ording
Bl acas
Ext remely
IN G
Ro bert
Se izing
Span ish
bird s
cig ar
cig ars
cru el
cash ier
dr unk
dan gerous
fulf il
job ber
job bing
mess age
mess enger
mour n
mour ning
merc y
mode us
pant om
pant aloons
pati ently
sn ake
sav age
safe ly
tim id
ware house
whis per
wrist bands
á¼ °ÏĢ
Ġast ounded
incl ined
incl uding
insp iring
inform ing
Ġsne er
Ġsne ers
Ġmit ig
Ġmuse um
ithe atre
Ġcu ps
Ġcu irass
Ġyawn ing
Ġhed ge
Ġhed ges
Ġinexpress ible
Ġinexpress ibly
Ġrect ified
Ġrect angle
Ġrevo ir
Ġeulog ies
stat ues
Ġgust s
Ġgreet ed
illum ined
illum inated
ĠMat rimonial
ĠMat ignon
ĠMus Ã©e
ĠMus catel
ĠMag giore
Ġfors aken
ĠCor pus
ĠCast le
ĠCap rara
peace fully
ĠAig ues
ĠAig uem
Ġsult an
Ġsult ans
ĠDel acroix
ĠDel aunay
ĠVill ette
Ġvirg in
Ġvirg ins
ĠHast ily
ĠHav re
ĠHav ana
ĠSal t
ĠServ ieux
ĠPon toise
ĠPers ia
ĠPol icar
ĠPamp hile
ĠPamp inara
Ġarrog ate
Ġarithmet ic
Ġarithmet ical
Ġprosec ution
Ġabst racted
meant ime
Ġfeud al
Ġunw ittingly
ĠTa vern
youth ful
Ġdissol ved
Ġdisobe y
Ġdisobe yed
ĠLI MITED
ĠLI CEN
Ġdesper ation
Ġdesper ately
cop yright
Ġprem ises
Ġpremed itation
Ġpremed itated
ĠRic cia
ĠRic hard
ĠRest oration
Ġaccum ulated
neg ative
Ġimpr int
Ġimpr inted
Ġimpass ibility
Ġscound rel
Ġscound rels
hence forth
ĠOff ice
author ities
Ġsubs ided
proc ured
Ġsimult aneously
Ġsimult aneous
Ġinflam ed
Ġinflam mation
ĠAss izes
Ġmagn itude
Ġearthen ware
Ġswift ly
Ġdetect ing
Ġcelebr ity
Ġcircum spect
Ġcircum locution
contad ina
Ġbrood ing
ĠStr ada
ĠStr asbourg
conspir ators
Ġsyn onymous
Ġsycam ore
Ġsycam ores
Ġproduct ive
newspap er
newspap ers
Ġmoder ately
Ġdisclaim er
Ġapprehe nd
surpris ed
surpris ing
priv ate
priv ile
Ġmathem atic
Ġmathem atical
anticip ation
famili ar
famili es
Ġsquee ze
Ġsquee zed
convuls ions
convuls ively
moon light
Ġimprove ments
Ġantiqu ity
Ġantiqu ated
acknowled ged
benef actor
earnest ness
congrat ulate
Ġecst asy
Ġsapph ire
Ġsapph ires
ĠWARRANT Y
ĠWARRANT IES
34 0
Adv ancing
Bou levard
Bour bons
Cas tellana
Fri end
Fort y
German s
Man fred
Mess rs
Pamp inara
Ret urn
Sardin ian
TH E
bott om
cal amity
clo ak
cush ions
corrid or
cardinal s
dwell ing
dazz led
fest a
fru its
fool ish
fisher man
hid den
horr or
kne es
kiss ing
mut ilated
meth ods
nur se
pit iful
sau ce
sof a
sop histic
sup erflu
wand ering
Ïģ Î¿Î´
Ġtight ly
Ġwarr anted
habit ual
educ ation
Ġmale factor
Ġmuff led
encoun tered
Ġbab y
Ġbrisk ly
Ġfut urity
Ġfert ile
Ġfol ks
Ġdire ctor
Ġdeduct ion
arithmet ic
Ġpou ches
Ġpli ant
Ġpite ously
Ġpup il
Ġinve terate
Ġinev itably
Ġinauspic ious
Ġnour ishment
Ġnupt ial
ĠIde ology
ida e
sevent een
stu pefied
stran ger
ĠMin or
Ġforger y
ribb on
tender ness
Ġdepl oring
Ġdecei ves
Ġannot ating
ĠCir ce
ĠAri el
Ġstau nch
Ġstilet tos
Ġexas per
Ġextermin ated
ĠDra ke
ĠDie ppe
thorough ly
accommod i
ĠmanÅĵu vres
Ġalley s
ĠVend etta
Ġvir um
Ġviv acity
Ġvibr ation
ĠBel gium
ĠFl urry
ĠFin ally
ĠFOU R
Ġnect arine
ĠHen ri
ĠHence forth
ĠSto cks
ĠSign ature
ĠSab ine
ĠSardin ia
ĠSmuggl ers
ĠPlan ier
Ġprog ressed
Ġpros aic
Ġprohib ited
Ġcompar ing
Ġleather n
Ġjing ling
Ġjack al
Ġramp art
Ġabdu ction
Ġagon izing
Ġshaw l
Ġunintention ally
Ġunreserved ly
ĠTre asure
depri ve
Ġquot ation
Ġremount ed
ĠLo ire
Ġpopl ars
ĠGris ier
ĠGabri elle
Ġenam oured
Ġenum erated
Ġprecip itation
ĠRep ublic
forbid ding
Ġworsh ipped
Ġblasp heme
Ġimpregn ated
Ġmarg inal
Ġcoinc idence
Ġstealth ily
except ing
exquisite ly
Ġguar anty
Ġendear ments
comp oser
commen ced
Ġintegr ity
docum ents
Ġterrit ory
Ġacceler ate
Ġindem nify
Ġdiamet rically
ĠAtre idae
Ġcourte ously
prospect s
Ġeffic acious
Ġappropri ated
Ġinflex ibility
remark able
Ass uredly
superior ity
Ġcomput er
Ġcompens ate
Ġparas itical
ĠThÃ© Ã¢tre
appre hension
Ġlandsc apes
Ġtelegr am
attract ing
Ġexplic itly
Ġdrows iness
obser vation
Ġcoloss al
scru ples
impati ently
Ġbloodh ounds
Ġmerid ian
Ġpatri arch
bitter ly
Ġcomplac ency
struggl ing
Ġmassac res
incred ible
Ġstyl us
suffoc ated
Ġdivul ged
Ġtestim ony
Ġfunction ary
diplom atist
admir ably
courtes y
ĠLiber al
Ġmultip lying
Ġpredomin ating
ĠClose t
defe rence
recommend ation
jewell er
Ġdrugg ist
penetr ating
Ġtacit urn
Ġblaz ons
Ġpedestri ans
Ġinitial s
Ġgeomet rical
ĠFenestre lle
propriet or
tapest ry
tavolet tas
Ġaqueduct s
Ġphenomen on
ĠAmphit rite
Ġvagab onds
extingu ished
Bes ide
Bern ard
Belle garde
Beng al
Crus ades
Gir ondin
Grand papa
Glad ly
Geor ges
Hell o
Hart well
Idi ot
IRE CT
Lau rent
Lond res
Mand rier
Mason ic
Pl utarch
Psha w
PrÃ© s
Partic ularly
Philosop hy
RIB UT
Suff er
Toul on
TAR T
Wo e
Wort hy
bef allen
bund le
cÃ© ens
cav alier
fat ality
freed om
gol ino
hide ous
iplic ation
jaw s
oper ations
obed ience
pig s
pick axe
sust ained
signor a
slow ly
tast es
vary ing
wip ed
xim ity
Ġ.... ...
ĠÏĢ ÏģÎ¿Î´
Ġtarn ish
Ġtub es
Ġtext ure
Ġavid ity
invent ed
rele ased
rejo ice
Ġwes tern
Ġwoo llen
Ġware house
Ġwainsc ot
Ġsurn ame
Ġsland er
Ġomn ib
Ġmun ific
Ġmater ially
Ġmaled iction
Ġmaho gany
orig inal
orphan s
Ġbust le
Ġbip eds
Ġbatter y
Ġbiv ouac
Ġfune real
Ġcas ual
Ġcess ato
Ġcass ock
Ġcance lled
Ġcatal og
Ġdut iful
Ġdand ies
Ġdun ghill
Ġdup ed
Ġprist ine
Ġpont ifical
Ġpinc ers
Ġpsy ch
Ġyat aghan
Ġherois m
Ġheredit ary
Ġhaunt s
Ġinval uable
Ġincess ant
Ġnaught y
Ġnaut ical
Ġnarc otic
Ġnanke en
Ġlach rymal
Ġlasci vious
impre gn
impass able
Ġreef s
Ġreun ited
Ġrealm s
Ġreiter ating
Ġelig ible
Ġebull ition
stag gered
stinct ively
straw berries
Ġsaus ages
Ġgam bler
Ġgoss ip
Ġgait ers
Ġgrud ge
Ġgalv an
Ġgames ter
Ġgorge ous
Ġgeran iums
advent ures
adjo ining
ĠMos cow
ĠMart igues
ĠMond ay
ĠMiss issippi
ĠMazzol ata
Ġmete or
Ġumb rage
tech nic
temp orary
Ġmyos otis
Ġdeci pher
Ġantecha mbers
ĠCond Ã©
ĠCag liost
ĠChall enge
ĠCais serie
ĠCalv ary
ĠCÃ©s ar
amaz ement
Ġsemb lance
ĠAthen s
ĠAcknow ledge
Ġstrych nine
rail way
Ġsojour n
Ġexem plary
Ġcongest ion
Ġcongen ial
Ġsuperi ors
ĠDum as
ĠDio genes
ĠDivid ing
ĠDIST RIBUT
ĠDAMAG ES
ausole um
Ġorchar d
Ġorthog raphy
ĠVie illes
ĠValm ontone
ĠVacc ino
Ġvive re
ĠBoss uet
ĠBath s
ĠBapt iste
ĠBRE ACH
ĠBarcel ona
ĠBanch i
ĠBreak fast
ĠBentiv oglio
ĠBurgl ary
Ġshrew d
Ã©rÃ© court
Ã©cart Ã©
ĠFla vi
ĠForm erly
ĠHobb ema
ĠHoll and
umpt ive
ĠSup reme
ĠSec ret
ĠSarave zza
ĠPix Ã©rÃ©court
ĠPoly technic
ĠPyram us
Ġuphar sin
Ġproff ered
Ġprogr amme
Ġrhod odendrons
Ġabomin able
Ġtwirl ing
Ġaggra vated
Ġadequ ate
ĠEBO OK
ĠEske les
Ġunpar alleled
Ġunmist akable
Ġunequ ivoc
Ġunbear able
Ġunluck y
ĠTof ana
ĠTerm s
Ġdisemb ark
Ġdisconc erted
Ġquatt ro
ĠLamm ermoor
ĠLuther an
ĠWee k
ĠWednes day
ĠGold en
ĠGhost s
ĠGolcond a
ĠFranÃ§ ais
colle agues
Ġenab ling
Ġenfe ebled
Ġplaint ive
ierdare na
ĠRende zvous
Ġovershad owed
beque ath
Ġforesa w
chamb re
Ġperple x
Ġoffici ally
Ġexcurs ions
retract ation
Ġobsequ ious
Ġravis her
Ġimpuls es
Ġmarvell ously
Ġcochine al
Ġwherewit hal
extre me
extermin ating
Ġdistaste ful
Ġdrago on
Ġlobb ies
Ġpurvey or
Ġindestruct ible
Ġmonstr ous
Ġmischie vous
Ġintrig ue
Ġinterloc utor
Ġdepreci ate
Ġflicke red
Ġsubservi ent
Ġsimpli fying
ĠInfirmer ies
ĠInfern o
Ġinfuri ated
arseilla ise
Ġdelinqu ent
Ġmagnet ism
Ġinvinci ble
Ġcorvet te
disappoint ed
dismiss al
Ġskirm ish
Ġtelegrap hing
Ġteaspo onful
consumm ated
Ġmetamor phosis
Ġphosph oric
ĠLechar pal
volunte er
mineral ogy
ĠMargot in
ĠToxic ology
surround ing
surviv or
ĠComtes se
ĠExpi ation
OrlÃ© ans
Ġidoli zed
Ġungovern able
ĠDesdemon a
ambassad or
ĠOrviet o
physiolog ical
ĠFrÃ©dÃ©r ick
ĠAiguem ortes
ĠLICEN SE
sophistic ated
ĠCagliost ro
